{
  "version": "1.0",
  "truncation": null,
  "padding": null,
  "added_tokens": [
    {
      "id": 0,
      "content": "<|endoftext|>",
      "single_word": false,
      "lstrip": false,
      "rstrip": false,
      "normalized": false,
      "special": true
    }
  ],
  "normalizer": {
    "type": "Sequence",
    "normalizers": [
      {
        "type": "NFD"
      },
      {
        "type": "Lowercase"
      },
      {
        "type": "Strip",
        "strip_left": true,
        "strip_right": true
      },
      {
        "type": "StripAccents"
      }
    ]
  },
  "pre_tokenizer": {
    "type": "ByteLevel",
    "add_prefix_space": false,
    "trim_offsets": true,
    "use_regex": true
  },
  "post_processor": {
    "type": "ByteLevel",
    "add_prefix_space": true,
    "trim_offsets": true,
    "use_regex": true
  },
  "decoder": {
    "type": "ByteLevel",
    "add_prefix_space": true,
    "trim_offsets": true,
    "use_regex": true
  },
  "model": {
    "type": "BPE",
    "dropout": null,
    "unk_token": null,
    "continuing_subword_prefix": null,
    "end_of_word_suffix": null,
    "fuse_unk": false,
    "byte_fallback": false,
    "vocab": {
      "<|endoftext|>": 0,
      "!": 1,
      "\"": 2,
      "#": 3,
      "$": 4,
      "%": 5,
      "&": 6,
      "'": 7,
      "(": 8,
      ")": 9,
      "*": 10,
      "+": 11,
      ",": 12,
      "-": 13,
      ".": 14,
      "/": 15,
      "0": 16,
      "1": 17,
      "2": 18,
      "3": 19,
      "4": 20,
      "5": 21,
      "6": 22,
      "7": 23,
      "8": 24,
      "9": 25,
      ":": 26,
      ";": 27,
      "<": 28,
      "=": 29,
      ">": 30,
      "?": 31,
      "@": 32,
      "[": 33,
      "\\": 34,
      "]": 35,
      "^": 36,
      "_": 37,
      "`": 38,
      "a": 39,
      "b": 40,
      "c": 41,
      "d": 42,
      "e": 43,
      "f": 44,
      "g": 45,
      "h": 46,
      "i": 47,
      "j": 48,
      "k": 49,
      "l": 50,
      "m": 51,
      "n": 52,
      "o": 53,
      "p": 54,
      "q": 55,
      "r": 56,
      "s": 57,
      "t": 58,
      "u": 59,
      "v": 60,
      "w": 61,
      "x": 62,
      "y": 63,
      "z": 64,
      "{": 65,
      "|": 66,
      "}": 67,
      "~": 68,
      "¡": 69,
      "¢": 70,
      "£": 71,
      "¤": 72,
      "¥": 73,
      "¦": 74,
      "§": 75,
      "¨": 76,
      "©": 77,
      "ª": 78,
      "«": 79,
      "¬": 80,
      "®": 81,
      "¯": 82,
      "°": 83,
      "±": 84,
      "²": 85,
      "³": 86,
      "´": 87,
      "µ": 88,
      "¶": 89,
      "·": 90,
      "¸": 91,
      "¹": 92,
      "º": 93,
      "»": 94,
      "¼": 95,
      "½": 96,
      "¾": 97,
      "¿": 98,
      "Â": 99,
      "Ã": 100,
      "Ä": 101,
      "Å": 102,
      "Æ": 103,
      "Ç": 104,
      "È": 105,
      "É": 106,
      "Ê": 107,
      "Ë": 108,
      "Î": 109,
      "Ï": 110,
      "Ð": 111,
      "Ñ": 112,
      "Ò": 113,
      "Ó": 114,
      "Ô": 115,
      "Õ": 116,
      "Ö": 117,
      "×": 118,
      "Ø": 119,
      "Ù": 120,
      "Ú": 121,
      "Û": 122,
      "Ü": 123,
      "Ý": 124,
      "Þ": 125,
      "à": 126,
      "á": 127,
      "â": 128,
      "ã": 129,
      "ä": 130,
      "å": 131,
      "æ": 132,
      "ç": 133,
      "è": 134,
      "é": 135,
      "ê": 136,
      "î": 137,
      "ï": 138,
      "ð": 139,
      "ĉ": 140,
      "Č": 141,
      "Ġ": 142,
      "ġ": 143,
      "Ģ": 144,
      "ģ": 145,
      "Ĥ": 146,
      "ĥ": 147,
      "Ħ": 148,
      "ħ": 149,
      "Ĩ": 150,
      "ĩ": 151,
      "Ī": 152,
      "ī": 153,
      "Ĭ": 154,
      "ĭ": 155,
      "Į": 156,
      "į": 157,
      "İ": 158,
      "ı": 159,
      "Ĳ": 160,
      "ĳ": 161,
      "Ĵ": 162,
      "ĵ": 163,
      "Ķ": 164,
      "ķ": 165,
      "ĸ": 166,
      "Ĺ": 167,
      "ĺ": 168,
      "Ļ": 169,
      "ļ": 170,
      "Ľ": 171,
      "ľ": 172,
      "Ŀ": 173,
      "ŀ": 174,
      "Ł": 175,
      "ł": 176,
      "Ń": 177,
      "Ġt": 178,
      "he": 179,
      "Ġa": 180,
      "in": 181,
      "Ġthe": 182,
      "Ġs": 183,
      "Ġw": 184,
      "re": 185,
      "ou": 186,
      "on": 187,
      "Ġi": 188,
      "ha": 189,
      "er": 190,
      "Ġb": 191,
      "Ġc": 192,
      "Ġm": 193,
      "nd": 194,
      "Ġo": 195,
      "Ġf": 196,
      "Ġd": 197,
      "ing": 198,
      "or": 199,
      "Ġp": 200,
      "an": 201,
      "ed": 202,
      "ll": 203,
      "en": 204,
      "Ġto": 205,
      "you": 206,
      "es": 207,
      "it": 208,
      "is": 209,
      "Ġl": 210,
      "Ġof": 211,
      "Ġin": 212,
      "Ġg": 213,
      "ar": 214,
      "Ġyou": 215,
      "at": 216,
      "Ġand": 217,
      "as": 218,
      "Ġn": 219,
      "hat": 220,
      "om": 221,
      "Ġhe": 222,
      "Ġh": 223,
      "le": 224,
      "ic": 225,
      "ow": 226,
      "ve": 227,
      "ot": 228,
      "al": 229,
      "Ġha": 230,
      "Ġit": 231,
      "us": 232,
      "Ġbe": 233,
      "'s": 234,
      "Ġth": 235,
      "Ġe": 236,
      "ay": 237,
      "Ġis": 238,
      "et": 239,
      "Ġthat": 240,
      "Ġon": 241,
      "ion": 242,
      "id": 243,
      "Ġre": 244,
      "gh": 245,
      "ld": 246,
      "Ġr": 247,
      "Ġwe": 248,
      "Ġwas": 249,
      "ent": 250,
      "ac": 251,
      "ut": 252,
      "ver": 253,
      "Ġk": 254,
      "Ġst": 255,
      "am": 256,
      "Ġfor": 257,
      "the": 258,
      "st": 259,
      "im": 260,
      "ly": 261,
      "..": 262,
      "se": 263,
      "ad": 264,
      "ir": 265,
      "oo": 266,
      "Ġu": 267,
      "'t": 268,
      "Ġ.": 269,
      "ght": 270,
      "and": 271,
      "ke": 272,
      "Ġme": 273,
      "out": 274,
      "ith": 275,
      "Ġj": 276,
      "Ġan": 277,
      "all": 278,
      "ro": 279,
      "Ġas": 280,
      "ur": 281,
      "Ġwith": 282,
      "Ġdo": 283,
      "Ġse": 284,
      "ri": 285,
      "ch": 286,
      "ct": 287,
      "ce": 288,
      "Ġwh": 289,
      "ter": 290,
      "ill": 291,
      "Ġli": 292,
      "ome": 293,
      "th": 294,
      "Ġ1": 295,
      "Ġthis": 296,
      "Ġgo": 297,
      "Ġat": 298,
      "Ġare": 299,
      "Ġnot": 300,
      "Ġhave": 301,
      "il": 302,
      "now": 303,
      "ould": 304,
      "ust": 305,
      "Ġne": 306,
      "ight": 307,
      "ant": 308,
      "we": 309,
      "Ġde": 310,
      "un": 311,
      "ation": 312,
      "op": 313,
      "ain": 314,
      "Ġfr": 315,
      "ye": 316,
      "Ġhis": 317,
      "ge": 318,
      "Ġso": 319,
      "ul": 320,
      "her": 321,
      "Ġmo": 322,
      "Ġknow": 323,
      "Ġ,": 324,
      "Ġthey": 325,
      "Ġcan": 326,
      "Ġal": 327,
      "our": 328,
      "Ġ\"": 329,
      "ol": 330,
      "...": 331,
      "pp": 332,
      "um": 333,
      "Ġall": 334,
      "Ġwhat": 335,
      "Ġmy": 336,
      "Ġ?": 337,
      "Ġab": 338,
      "Ġyour": 339,
      "if": 340,
      "ist": 341,
      "Ġv": 342,
      "ie": 343,
      "est": 344,
      "Ġcon": 345,
      "Ġ2": 346,
      "Ġsh": 347,
      "one": 348,
      "Ġfrom": 349,
      "ers": 350,
      "art": 351,
      "Ġby": 352,
      "Ġwhe": 353,
      "ab": 354,
      "Ġshe": 355,
      "Ġsu": 356,
      "Ġher": 357,
      "ess": 358,
      "Ġcom": 359,
      "qu": 360,
      "Ġor": 361,
      "Ġthere": 362,
      "Ġone": 363,
      "red": 364,
      "Ġbut": 365,
      "han": 366,
      "pe": 367,
      "os": 368,
      "Ġwor": 369,
      "Ġup": 370,
      "so": 371,
      "ig": 372,
      "'re": 373,
      "Ġtr": 374,
      "Ġhad": 375,
      "Ġpl": 376,
      "ally": 377,
      "âĢ": 378,
      "Ġle": 379,
      "ah": 380,
      "ate": 381,
      "Ġout": 382,
      "very": 383,
      "res": 384,
      "Ġus": 385,
      "ook": 386,
      "ack": 387,
      "Ġhim": 388,
      "ood": 389,
      "Ġsa": 390,
      "nt": 391,
      "Ġlike": 392,
      "Ġno": 393,
      "em": 394,
      "Ġpro": 395,
      "ive": 396,
      "'m": 397,
      "Ġ(": 398,
      "ake": 399,
      "ame": 400,
      "Ġex": 401,
      "ck": 402,
      "what": 403,
      "Ġdon": 404,
      "ak": 405,
      "ink": 406,
      "Ġget": 407,
      "el": 408,
      "Ġabout": 409,
      "ind": 410,
      "ĠĠ": 411,
      "ong": 412,
      "Ġ19": 413,
      "fe": 414,
      "Ġwere": 415,
      "ast": 416,
      "ound": 417,
      "ard": 418,
      "Ġte": 419,
      "Ġjust": 420,
      "ra": 421,
      "ry": 422,
      "ity": 423,
      "ber": 424,
      "ort": 425,
      "Ġman": 426,
      "oh": 427,
      "Ġch": 428,
      "Ġar": 429,
      "ies": 430,
      "ich": 431,
      "ag": 432,
      "Ġwho": 433,
      "Ġdid": 434,
      "Ġ20": 435,
      "no": 436,
      "Ġhere": 437,
      "Ġwill": 438,
      "Ġif": 439,
      "ine": 440,
      "are": 441,
      "yeah": 442,
      "Ġtim": 443,
      "Ġwant": 444,
      "Ġthem": 445,
      "'ll": 446,
      "Ġsome": 447,
      "to": 448,
      "ore": 449,
      "Ġwould": 450,
      "Ġthink": 451,
      "ud": 452,
      "ap": 453,
      "ven": 454,
      "Ġun": 455,
      "ous": 456,
      "Ġ'": 457,
      "Ġlo": 458,
      "ther": 459,
      "ment": 460,
      "Ġright": 461,
      "itt": 462,
      "Ġany": 463,
      "Ġbr": 464,
      "Ġfe": 465,
      "hing": 466,
      "Ġwhen": 467,
      "Ġam": 468,
      "Ġpe": 469,
      "Ġgot": 470,
      "Ġhas": 471,
      "ice": 472,
      "Ġcl": 473,
      "od": 474,
      "Ġsee": 475,
      "use": 476,
      "ough": 477,
      "but": 478,
      "own": 479,
      "Ġag": 480,
      "that": 481,
      "ide": 482,
      "ca": 483,
      "yes": 484,
      "Ġwhich": 485,
      "te": 486,
      "iv": 487,
      "ure": 488,
      "Ġpr": 489,
      "Ġsay": 490,
      "ia": 491,
      "Ġtw": 492,
      "ian": 493,
      "Ġtime": 494,
      "Ġnow": 495,
      "ace": 496,
      "Ġco": 497,
      "way": 498,
      "Ġgr": 499,
      "Ġbeen": 500,
      "Ġro": 501,
      "Ġen": 502,
      "Ġsp": 503,
      "Ġaf": 504,
      "ip": 505,
      "'ve": 506,
      "Ġsaid": 507,
      "--": 508,
      "ne": 509,
      "ep": 510,
      "ick": 511,
      "be": 512,
      "Ġthen": 513,
      "Ġlook": 514,
      "Ġqu": 515,
      "ok": 516,
      "lf": 517,
      "na": 518,
      "ish": 519,
      "other": 520,
      "Ġtheir": 521,
      "ople": 522,
      "Ġmore": 523,
      "ree": 524,
      "mp": 525,
      "wh": 526,
      "reat": 527,
      "ars": 528,
      "ary": 529,
      "Ġgoing": 530,
      "ite": 531,
      "Ġcould": 532,
      "Ġother": 533,
      "age": 534,
      "Ġhow": 535,
      "ci": 536,
      "Ġover": 537,
      "Ġback": 538,
      "act": 539,
      "Ġpeople": 540,
      "Ġye": 541,
      "Ġoff": 542,
      "ond": 543,
      "irst": 544,
      "Ġ=": 545,
      "ose": 546,
      "Ġgood": 547,
      "ings": 548,
      "cause": 549,
      "Ġwork": 550,
      "Ġtwo": 551,
      "ass": 552,
      "ble": 553,
      "Ġcha": 554,
      "erm": 555,
      "Ġvery": 556,
      "Ġbl": 557,
      "well": 558,
      "ount": 559,
      "ue": 560,
      "ire": 561,
      "Ġcomp": 562,
      "00": 563,
      "Ġfirst": 564,
      "Ġmar": 565,
      "orn": 566,
      "ord": 567,
      "Ġpart": 568,
      "pt": 569,
      "Ġnew": 570,
      "Ġthan": 571,
      "per": 572,
      "omet": 573,
      "Ġad": 574,
      "Ġbo": 575,
      "ase": 576,
      "ittle": 577,
      "whe": 578,
      "Ġinto": 579,
      "Ġdown": 580,
      "ans": 581,
      "ated": 582,
      "alk": 583,
      "ions": 584,
      "hed": 585,
      "ade": 586,
      "Ġway": 587,
      "Ġcome": 588,
      "ub": 589,
      "cl": 590,
      "Ġlittle": 591,
      "Ġour": 592,
      "av": 593,
      "nder": 594,
      "Ġwhere": 595,
      "Ġplay": 596,
      "Ġcall": 597,
      "ild": 598,
      "iz": 599,
      "Ġgu": 600,
      "ought": 601,
      "Ġonly": 602,
      "Ġpo": 603,
      "Ġalso": 604,
      "Ġafter": 605,
      "Ġevery": 606,
      "ved": 607,
      "Ġwell": 608,
      "de": 609,
      "Ġac": 610,
      "ach": 611,
      "Ġday": 612,
      "wn": 613,
      "Ġy": 614,
      "ater": 615,
      "Ġsc": 616,
      "ty": 617,
      "Ġbet": 618,
      "ff": 619,
      "Ġagain": 620,
      "ance": 621,
      "Ġsomet": 622,
      "Ġact": 623,
      "urn": 624,
      "Ġfl": 625,
      "Ġneed": 626,
      "Ġspe": 627,
      "Ġmay": 628,
      "for": 629,
      "pl": 630,
      "Ġdis": 631,
      "og": 632,
      "ren": 633,
      "Ġ201": 634,
      "Ġlet": 635,
      "Ġtake": 636,
      "ress": 637,
      "Ġmake": 638,
      "au": 639,
      "ile": 640,
      "Ġbecause": 641,
      "my": 642,
      ".\"": 643,
      "uck": 644,
      "fore": 645,
      "Ġpre": 646,
      "ave": 647,
      "Ġthese": 648,
      "able": 649,
      "Ġmu": 650,
      "this": 651,
      "iss": 652,
      "ĠĠĠĠ": 653,
      "get": 654,
      "Ġcont": 655,
      "self": 656,
      "ence": 657,
      "Ġcomm": 658,
      "they": 659,
      "amp": 660,
      "ory": 661,
      "Ġfo": 662,
      "Ġper": 663,
      "Ġreally": 664,
      "ang": 665,
      "she": 666,
      "come": 667,
      "ft": 668,
      "Ġtell": 669,
      "ical": 670,
      "Ġcar": 671,
      "Ġser": 672,
      "thing": 673,
      "Ġapp": 674,
      "let": 675,
      "Ġshould": 676,
      "ied": 677,
      "there": 678,
      "Ġhapp": 679,
      "Ġbu": 680,
      "Ġwr": 681,
      "Ġthr": 682,
      "Ġunder": 683,
      "ict": 684,
      "ool": 685,
      "do": 686,
      "sh": 687,
      "ather": 688,
      "Ġres": 689,
      "Ġtoo": 690,
      "ru": 691,
      "Ġdoes": 692,
      "onna": 693,
      "Ġmuch": 694,
      "ign": 695,
      "Ġsha": 696,
      "ens": 697,
      "Ġsomething": 698,
      "Ġer": 699,
      "ult": 700,
      "int": 701,
      "Ġput": 702,
      "Ġlong": 703,
      "les": 704,
      "ving": 705,
      "Ġmean": 706,
      "Ġgonna": 707,
      "ody": 708,
      "Ġmade": 709,
      "ction": 710,
      "Ġsm": 711,
      "how": 712,
      "Ġcount": 713,
      "'d": 714,
      "Ġits": 715,
      "Ġnever": 716,
      "ys": 717,
      "Ġeven": 718,
      "Ġjo": 719,
      "land": 720,
      "Ġtalk": 721,
      "Ġsec": 722,
      "Ġbefore": 723,
      "end": 724,
      "ons": 725,
      "Ġmin": 726,
      "ail": 727,
      "ath": 728,
      "uh": 729,
      "Ġrec": 730,
      "ious": 731,
      "Ġcr": 732,
      "Ġold": 733,
      "mm": 734,
      "ks": 735,
      "Ġgreat": 736,
      "right": 737,
      "Ġrem": 738,
      "li": 739,
      "ates": 740,
      "Ġmany": 741,
      "man": 742,
      "Ġimp": 743,
      "ull": 744,
      "Ġdidn": 745,
      "ouse": 746,
      "day": 747,
      "ting": 748,
      "Ġhel": 749,
      "Ġchan": 750,
      "du": 751,
      "ily": 752,
      "vers": 753,
      "okay": 754,
      "Ġyears": 755,
      "ady": 756,
      "ise": 757,
      "ps": 758,
      "Ġhand": 759,
      "ward": 760,
      "âĢľ": 761,
      "Ġworld": 762,
      "Ġ3": 763,
      "Ġke": 764,
      "Ġbel": 765,
      "Ġmost": 766,
      "Ġnor": 767,
      "ition": 768,
      "ix": 769,
      "Ġho": 770,
      "Ġthrough": 771,
      "where": 772,
      "âĢĿ": 773,
      "ually": 774,
      "not": 775,
      "Ġhar": 776,
      "ited": 777,
      "Ġthree": 778,
      "Ġ200": 779,
      "Ġlife": 780,
      "ations": 781,
      "ors": 782,
      "igh": 783,
      "Ġdes": 784,
      "ful": 785,
      "ect": 786,
      "ial": 787,
      "Ġstart": 788,
      "Ġthing": 789,
      "Ġfound": 790,
      "Ġdif": 791,
      "Ġph": 792,
      "Ġsch": 793,
      "ves": 794,
      "Ġlove": 795,
      "Ġla": 796,
      "ph": 797,
      "che": 798,
      "ince": 799,
      "llow": 800,
      "Ġthings": 801,
      "Ġthose": 802,
      "Ġstill": 803,
      "Ġthought": 804,
      "ried": 805,
      "Ġhome": 806,
      "Ġcour": 807,
      "rent": 808,
      "Ġaway": 809,
      "âĻ": 810,
      "Ġfind": 811,
      "ces": 812,
      "Ġmust": 813,
      "Ġshow": 814,
      "Ġear": 815,
      "eric": 816,
      "Ġused": 817,
      "Ġlast": 818,
      "aking": 819,
      "Ġpol": 820,
      "tain": 821,
      "Ġrep": 822,
      "Ġform": 823,
      "oss": 824,
      "``": 825,
      "Ġhelp": 826,
      "Ġpres": 827,
      "oth": 828,
      "Ġ''": 829,
      "Ġwhy": 830,
      "cess": 831,
      "Ġpar": 832,
      "riend": 833,
      "Ġdoing": 834,
      "why": 835,
      "Ġgive": 836,
      "Ġma": 837,
      "Ġask": 838,
      "Ġche": 839,
      "Ġok": 840,
      "Ġown": 841,
      "vel": 842,
      "Ġend": 843,
      "Ġcame": 844,
      "gr": 845,
      "Ġmat": 846,
      "ple": 847,
      "don": 848,
      "up": 849,
      "âĢĻ": 850,
      "Ġmr": 851,
      "br": 852,
      "ents": 853,
      "Ġmon": 854,
      "Ġwent": 855,
      "Ġ!": 856,
      "irl": 857,
      "Ġbeing": 858,
      "mo": 859,
      "tern": 860,
      "ational": 861,
      "Ġwon": 862,
      "Ġchar": 863,
      "Ġbig": 864,
      "oney": 865,
      "Ġname": 866,
      "xt": 867,
      "Ġhouse": 868,
      "Ġfam": 869,
      "ened": 870,
      "Ġfin": 871,
      "Ġchild": 872,
      "lo": 873,
      "ait": 874,
      "âĻª": 875,
      "any": 876,
      "ced": 877,
      "\".": 878,
      "gin": 879,
      "Ġwar": 880,
      "Ġcalled": 881,
      "Ġind": 882,
      "body": 883,
      "gan": 884,
      "Ġcare": 885,
      "Ġstr": 886,
      "Ġwom": 887,
      "ng": 888,
      "Ġel": 889,
      "Ġhead": 890,
      "Ġreg": 891,
      "Ġsy": 892,
      "Ġsuch": 893,
      "Ġnight": 894,
      "der": 895,
      "Ġsame": 896,
      "ways": 897,
      "Ġdr": 898,
      "Ġgen": 899,
      "mber": 900,
      "als": 901,
      "ning": 902,
      "Ġkind": 903,
      "Ġlot": 904,
      "Ġ18": 905,
      "Ġfeel": 906,
      "Ġtry": 907,
      "lic": 908,
      "Ġschool": 909,
      "air": 910,
      "âĢĵ": 911,
      "Ġameric": 912,
      "Ġyeah": 913,
      "Ġsupp": 914,
      "Ġplace": 915,
      "Ġyes": 916,
      "Ġop": 917,
      "com": 918,
      "ember": 919,
      "form": 920,
      "Ġatt": 921,
      "Ġele": 922,
      "Ġsl": 923,
      "co": 924,
      "io": 925,
      "Ġpers": 926,
      "Ġcent": 927,
      "Ġfriend": 928,
      "Ġdiffe": 929,
      "Ġcons": 930,
      "Ġaround": 931,
      "Ġnum": 932,
      "ever": 933,
      "Ġkill": 934,
      "gg": 935,
      "Ġeng": 936,
      "Ġgod": 937,
      "Ġanother": 938,
      "ank": 939,
      "Ġdist": 940,
      "Ġgirl": 941,
      "Ġcity": 942,
      "Ġmus": 943,
      "ib": 944,
      "Ġset": 945,
      "go": 946,
      "Ġfour": 947,
      "Ġuse": 948,
      "Ġturn": 949,
      "Ġev": 950,
      "uring": 951,
      "ating": 952,
      ").": 953,
      "Ġmight": 954,
      "ased": 955,
      "ts": 956,
      "Ġsur": 957,
      "me": 958,
      "rest": 959,
      "Ġple": 960,
      "\",": 961,
      "Ġsure": 962,
      "ss": 963,
      "orry": 964,
      "Ġalways": 965,
      "ute": 966,
      "than": 967,
      "Ġ4": 968,
      "Ġsw": 969,
      "Ġed": 970,
      "outh": 971,
      "Ġyear": 972,
      "ower": 973,
      "Ġokay": 974,
      "ween": 975,
      "look": 976,
      "Ġrel": 977,
      "led": 978,
      "Ġanything": 979,
      "who": 980,
      "Ġmom": 981,
      "Ġbetter": 982,
      "Ġleft": 983,
      "ible": 984,
      "Ġsecond": 985,
      "hey": 986,
      "Ġrun": 987,
      "pect": 988,
      "ton": 989,
      "Ġob": 990,
      "clud": 991,
      "Ġbit": 992,
      "Ġkeep": 993,
      "Ġstud": 994,
      "ics": 995,
      "atch": 996,
      "Ġdone": 997,
      "can": 998,
      "),": 999,
      "Ġfar": 1000,
      "Ġinv": 1001,
      "Ġreal": 1002,
      "ason": 1003,
      "Ġbus": 1004,
      "Ġcol": 1005,
      "Ġent": 1006,
      "ness": 1007,
      "Ġ199": 1008,
      "mb": 1009,
      "Ġwhile": 1010,
      "Ġbetween": 1011,
      "Ġmet": 1012,
      "ident": 1013,
      "Ġinst": 1014,
      "ular": 1015,
      ",\"": 1016,
      "aught": 1017,
      "Ġ5": 1018,
      "Ġinte": 1019,
      "Ġcap": 1020,
      "cial": 1021,
      "when": 1022,
      "Ġoh": 1023,
      "Ġbelie": 1024,
      "Ġstate": 1025,
      "just": 1026,
      "Ġtold": 1027,
      "ual": 1028,
      "Ġins": 1029,
      "||": 1030,
      "Ġunt": 1031,
      "Ġz": 1032,
      "ark": 1033,
      "ug": 1034,
      "Ġmiss": 1035,
      "Ġknown": 1036,
      "Ġca": 1037,
      "Ġword": 1038,
      "Ġever": 1039,
      "Ġhigh": 1040,
      "ird": 1041,
      "Ġsing": 1042,
      "Ġmoney": 1043,
      "ished": 1044,
      "ters": 1045,
      "ten": 1046,
      "Ġbest": 1047,
      "Ġret": 1048,
      "Ġgl": 1049,
      "Ġbre": 1050,
      "Ġsub": 1051,
      "fect": 1052,
      "Ġdifferent": 1053,
      "Ġpoint": 1054,
      "Ġbook": 1055,
      "cy": 1056,
      "Ġcle": 1057,
      "und": 1058,
      "Ġperson": 1059,
      "Ġfather": 1060,
      "az": 1061,
      "ling": 1062,
      "ner": 1063,
      "here": 1064,
      "Ġuh": 1065,
      "Ġmen": 1066,
      "Ġcoll": 1067,
      "cer": 1068,
      "akes": 1069,
      "Ġdec": 1070,
      "ork": 1071,
      "ms": 1072,
      "vie": 1073,
      "oun": 1074,
      "ret": 1075,
      "Ġmother": 1076,
      "by": 1077,
      "Ġstop": 1078,
      "Ġboth": 1079,
      "ny": 1080,
      "stand": 1081,
      "Ġinclud": 1082,
      "ins": 1083,
      "Ġunited": 1084,
      "Ġeach": 1085,
      "Ġnothing": 1086,
      "Ġass": 1087,
      "Ġking": 1088,
      "ont": 1089,
      "its": 1090,
      "Ġuntil": 1091,
      "Ġcourse": 1092,
      "Ġwater": 1093,
      "ger": 1094,
      "then": 1095,
      "Ġnext": 1096,
      "ime": 1097,
      "Ġstates": 1098,
      "Ġerm": 1099,
      "ope": 1100,
      "Ġlater": 1101,
      "ject": 1102,
      "har": 1103,
      "ric": 1104,
      "Ġwee": 1105,
      "Ġfun": 1106,
      "une": 1107,
      "Ġacc": 1108,
      "row": 1109,
      "ative": 1110,
      "Ġsim": 1111,
      "Ġtook": 1112,
      "Ġgre": 1113,
      "olog": 1114,
      "of": 1115,
      "Ġlist": 1116,
      "Ġfollow": 1117,
      "Ġpass": 1118,
      "ier": 1119,
      "cept": 1120,
      "ision": 1121,
      "Ġseem": 1122,
      "vern": 1123,
      "Ġteam": 1124,
      "Ġlar": 1125,
      "ivers": 1126,
      "Ġap": 1127,
      "Ġnumber": 1128,
      "Ġyoung": 1129,
      "gether": 1130,
      "Ġfamily": 1131,
      "Ġsk": 1132,
      "Ġgener": 1133,
      "ames": 1134,
      "Ġsaw": 1135,
      "Ġdep": 1136,
      "ities": 1137,
      "ired": 1138,
      "Ġprodu": 1139,
      "ream": 1140,
      "ohn": 1141,
      "ures": 1142,
      "Ġdire": 1143,
      "ife": 1144,
      "Ġamerican": 1145,
      "Ġdoesn": 1146,
      "ctor": 1147,
      "bo": 1148,
      "ote": 1149,
      "Ġwait": 1150,
      "ared": 1151,
      "Ġduring": 1152,
      "ash": 1153,
      "Ġpub": 1154,
      "Ġide": 1155,
      "new": 1156,
      "Ġpop": 1157,
      "mer": 1158,
      "Ġair": 1159,
      "ross": 1160,
      "Ġhard": 1161,
      "Ġmed": 1162,
      "ock": 1163,
      "Ġ-": 1164,
      "Ġboy": 1165,
      "Ġsince": 1166,
      "ane": 1167,
      "Ġbar": 1168,
      "Ġenough": 1169,
      "Ġste": 1170,
      "Ġ198": 1171,
      "did": 1172,
      "Ġlight": 1173,
      "af": 1174,
      "Ġactually": 1175,
      "ĠâĢľ": 1176,
      "osed": 1177,
      "Ġbad": 1178,
      "iness": 1179,
      "Ġsorry": 1180,
      "aw": 1181,
      "Ġsmall": 1182,
      "19": 1183,
      "Ġagainst": 1184,
      "Ġelse": 1185,
      "Ġtri": 1186,
      "Ġcur": 1187,
      "Ġadd": 1188,
      "Ġtown": 1189,
      "came": 1190,
      "ister": 1191,
      "Ġfive": 1192,
      "Ġ6": 1193,
      "Ġart": 1194,
      "Ġtogether": 1195,
      "less": 1196,
      "Ġhum": 1197,
      "Ġson": 1198,
      "Ġwithout": 1199,
      "Ġseen": 1200,
      "Ġsir": 1201,
      "uth": 1202,
      "Ġproble": 1203,
      "ung": 1204,
      "Ġdied": 1205,
      "uc": 1206,
      "Ġonce": 1207,
      "Ġsix": 1208,
      "Ġroom": 1209,
      "Ġgovern": 1210,
      "ines": 1211,
      "pr": 1212,
      "iet": 1213,
      "Ġmind": 1214,
      "Ġhear": 1215,
      "Ġeverything": 1216,
      "ably": 1217,
      "Ġfact": 1218,
      "Ġtrans": 1219,
      "Ġstand": 1220,
      "Ġtimes": 1221,
      "ific": 1222,
      "Ġwanted": 1223,
      "ott": 1224,
      "Ġmusic": 1225,
      "Ġfew": 1226,
      "Ġrest": 1227,
      "Ġgrou": 1228,
      "Ġlive": 1229,
      "good": 1230,
      "Ġinter": 1231,
      "Ġ--": 1232,
      "Ġcoming": 1233,
      "Ġbecame": 1234,
      "Ġbab": 1235,
      "Ġopen": 1236,
      "Ġmil": 1237,
      "Ġnational": 1238,
      "Ġnorth": 1239,
      "ale": 1240,
      "Ġloc": 1241,
      "rist": 1242,
      "ina": 1243,
      "Ġread": 1244,
      "Ġsign": 1245,
      "Ġce": 1246,
      "hes": 1247,
      "Ġbro": 1248,
      "Ġstay": 1249,
      "20": 1250,
      "Ġeas": 1251,
      "Ġleave": 1252,
      "Ġmeet": 1253,
      "Ġland": 1254,
      "Ġfil": 1255,
      "cted": 1256,
      "Ġchildren": 1257,
      "ho": 1258,
      "ball": 1259,
      "Ġheart": 1260,
      "Ġkid": 1261,
      "thank": 1262,
      "Ġunderstand": 1263,
      "Ġplease": 1264,
      "att": 1265,
      "Ġtoday": 1266,
      "ik": 1267,
      "Ġexp": 1268,
      "Ġ197": 1269,
      "Ġside": 1270,
      "con": 1271,
      "ield": 1272,
      "ned": 1273,
      "Ġsays": 1274,
      "Ġsit": 1275,
      "uss": 1276,
      "ral": 1277,
      "ged": 1278,
      "Ġlead": 1279,
      "son": 1280,
      "llo": 1281,
      "Ġbelieve": 1282,
      "Ġlooking": 1283,
      "Ġcounty": 1284,
      "Ġmove": 1285,
      "Ġborn": 1286,
      "Ġsouth": 1287,
      "Ġ7": 1288,
      "ury": 1289,
      "Ġfoot": 1290,
      "Ġquest": 1291,
      "Ġface": 1292,
      "fr": 1293,
      "Ġquite": 1294,
      "ĠĠĠĠĠĠĠĠ": 1295,
      "Ġrecord": 1296,
      "Ġwin": 1297,
      "ex": 1298,
      "Ġdays": 1299,
      "ready": 1300,
      "ital": 1301,
      "stem": 1302,
      "Ġimport": 1303,
      "most": 1304,
      "orning": 1305,
      "ta": 1306,
      "dy": 1307,
      "Ġplan": 1308,
      "ange": 1309,
      "Ġnice": 1310,
      "iver": 1311,
      "aut": 1312,
      "Ġdri": 1313,
      "Ġcor": 1314,
      "000": 1315,
      "app": 1316,
      "Ġnear": 1317,
      "Ġlaw": 1318,
      "Ġdra": 1319,
      "Ġmain": 1320,
      "Ġhappened": 1321,
      "ments": 1322,
      "fl": 1323,
      "Ġthough": 1324,
      "Ġunivers": 1325,
      "ised": 1326,
      "Ġwoman": 1327,
      "Ġprov": 1328,
      "Ġinc": 1329,
      "Ġeyes": 1330,
      "Ġpri": 1331,
      "Ġisn": 1332,
      "Ġ;": 1333,
      "Ġge": 1334,
      "Ġappe": 1335,
      "Ġgi": 1336,
      "Ġ8": 1337,
      "Ġgetting": 1338,
      "Ġwalk": 1339,
      "Ġpat": 1340,
      "your": 1341,
      "Ġvo": 1342,
      "Ġemp": 1343,
      "Ġjohn": 1344,
      "Ġbuild": 1345,
      "Ġyet": 1346,
      "ets": 1347,
      "Ġhour": 1348,
      "ertain": 1349,
      "Ġposs": 1350,
      "ense": 1351,
      "Ġsystem": 1352,
      "Ġty": 1353,
      "Ġwhole": 1354,
      "ither": 1355,
      "ined": 1356,
      "Ġcal": 1357,
      "Ġsort": 1358,
      "uff": 1359,
      "Ġrele": 1360,
      "sel": 1361,
      "?\"": 1362,
      "cc": 1363,
      "Ġsong": 1364,
      "Ġmorning": 1365,
      "Ġhold": 1366,
      "Ġinterest": 1367,
      "Ġjob": 1368,
      "ists": 1369,
      "Ġbrother": 1370,
      "ants": 1371,
      "Ġhalf": 1372,
      "anna": 1373,
      "Ġdeath": 1374,
      "Ġheard": 1375,
      "Ġfore": 1376,
      "Ġmill": 1377,
      "ism": 1378,
      "Ġref": 1379,
      "ution": 1380,
      "leep": 1381,
      "Ġremember": 1382,
      "Ġpay": 1383,
      "ster": 1384,
      "with": 1385,
      "ma": 1386,
      "Ġdad": 1387,
      "Ġpower": 1388,
      "ize": 1389,
      "su": 1390,
      "Ġred": 1391,
      "Ġbas": 1392,
      "Ġplayed": 1393,
      "ows": 1394,
      "Ġhaving": 1395,
      "rop": 1396,
      "Ġhimself": 1397,
      "Ġblack": 1398,
      "Ġhur": 1399,
      "Ġwind": 1400,
      "Ġserv": 1401,
      "rew": 1402,
      "Ġnat": 1403,
      "Ġstarted": 1404,
      "Ġsoon": 1405,
      "may": 1406,
      "imes": 1407,
      "like": 1408,
      "aster": 1409,
      "cle": 1410,
      "Ġknew": 1411,
      "Ġ196": 1412,
      "Ġes": 1413,
      "Ġtalking": 1414,
      "den": 1415,
      "ention": 1416,
      "ying": 1417,
      "Ġ10": 1418,
      "Ġdead": 1419,
      "ized": 1420,
      "Ġpa": 1421,
      "ron": 1422,
      "ched": 1423,
      "Ġgame": 1424,
      "Ġcountry": 1425,
      "Ġdoor": 1426,
      "Ġeat": 1427,
      "Ġwrong": 1428,
      "Ġalready": 1429,
      "because": 1430,
      "Ġ9": 1431,
      "ison": 1432,
      "Ġalong": 1433,
      "ene": 1434,
      "Ġswe": 1435,
      "Ġimportant": 1436,
      "ives": 1437,
      "Ġupon": 1438,
      "Ġpret": 1439,
      "Ġwhite": 1440,
      "Ġsound": 1441,
      "Ġans": 1442,
      "Ġreturn": 1443,
      "Ġwomen": 1444,
      "Ġten": 1445,
      "Ġcase": 1446,
      "Ġmid": 1447,
      "Ġmonth": 1448,
      "Ġhist": 1449,
      "Ġidea": 1450,
      "Ġsaying": 1451,
      "Ġprof": 1452,
      "ted": 1453,
      "Ġadv": 1454,
      "Ġter": 1455,
      "Ġparty": 1456,
      "Ġprom": 1457,
      "Ġtom": 1458,
      "ering": 1459,
      "Ġfull": 1460,
      "Ġline": 1461,
      "ains": 1462,
      "Ġgerm": 1463,
      "Ġgave": 1464,
      "Ġround": 1465,
      "Ġ[": 1466,
      "Ġje": 1467,
      "Ġchrist": 1468,
      "ump": 1469,
      "Ġprob": 1470,
      "some": 1471,
      "Ġarea": 1472,
      "Ġtop": 1473,
      "Ġbusiness": 1474,
      "mon": 1475,
      "Ġgroup": 1476,
      "ided": 1477,
      "Ġdef": 1478,
      "Ġdiv": 1479,
      "ages": 1480,
      "velop": 1481,
      "ered": 1482,
      "aughter": 1483,
      "Ġstory": 1484,
      "Ġext": 1485,
      "arch": 1486,
      "Ġoffic": 1487,
      "Ġcontin": 1488,
      "Ġtrying": 1489,
      "Ġmark": 1490,
      "Ġmeans": 1491,
      "Ġuniversity": 1492,
      "Ġwife": 1493,
      "ility": 1494,
      "ax": 1495,
      "lish": 1496,
      "Ġclass": 1497,
      "cent": 1498,
      "ĠâĢĵ": 1499,
      "ĠâĻª": 1500,
      "Ġdet": 1501,
      "Ġleg": 1502,
      "Ġint": 1503,
      "cha": 1504,
      "Ġra": 1505,
      "Ġguy": 1506,
      "wards": 1507,
      "Ġexpl": 1508,
      "Ġasked": 1509,
      "Ġgone": 1510,
      "Ġbaby": 1511,
      "ship": 1512,
      "Ġconst": 1513,
      "Ġpretty": 1514,
      "Ġfuck": 1515,
      "Ġbring": 1516,
      "Ġmatter": 1517,
      "side": 1518,
      "Ġequ": 1519,
      "jo": 1520,
      "Âł": 1521,
      "Ġpet": 1522,
      "gt": 1523,
      "Ġmaj": 1524,
      "Ġx": 1525,
      "Ġju": 1526,
      "ically": 1527,
      "Ġlear": 1528,
      "Ġmag": 1529,
      "Ġhat": 1530,
      "Ġpresident": 1531,
      "Ġsent": 1532,
      "Ġbegan": 1533,
      "Ġbeaut": 1534,
      "Ġwond": 1535,
      "Ġcreat": 1536,
      "huh": 1537,
      "see": 1538,
      "enty": 1539,
      "Ġlost": 1540,
      "ately": 1541,
      "Ġsqu": 1542,
      "wer": 1543,
      "Ġsat": 1544,
      "ches": 1545,
      "Ġmovie": 1546,
      "ator": 1547,
      "Ġless": 1548,
      "Ġcertain": 1549,
      "Ġconf": 1550,
      "Ġcommun": 1551,
      "Ġhappen": 1552,
      "Ġcompany": 1553,
      "Ġpolit": 1554,
      "Ġdevelop": 1555,
      "Ġhor": 1556,
      "Ġfine": 1557,
      "Ġgovernment": 1558,
      "gy": 1559,
      "uro": 1560,
      "Ġfire": 1561,
      "Ġwatch": 1562,
      "born": 1563,
      "ural": 1564,
      "Ġcolle": 1565,
      "amed": 1566,
      "Ġchange": 1567,
      "Ġable": 1568,
      "orrow": 1569,
      "rict": 1570,
      "Ġage": 1571,
      ".âĢĿ": 1572,
      "iter": 1573,
      "Ġoften": 1574,
      "Ġsou": 1575,
      "Ġvis": 1576,
      "alth": 1577,
      "Ġfight": 1578,
      "ze": 1579,
      "Ġhon": 1580,
      "Ġori": 1581,
      "Ġfall": 1582,
      "Ġpen": 1583,
      "Ġjan": 1584,
      "Ġshall": 1585,
      "Ġpartic": 1586,
      "Ġalb": 1587,
      "Ġpain": 1588,
      "Ġmaking": 1589,
      "cri": 1590,
      "aken": 1591,
      "Ġsomeone": 1592,
      "pend": 1593,
      "Ġgoes": 1594,
      "Ġproblem": 1595,
      "Ġorder": 1596,
      "Ġbed": 1597,
      "ured": 1598,
      "hm": 1599,
      "Ġsho": 1600,
      "Ġweek": 1601,
      "Ġgrand": 1602,
      "Ġshort": 1603,
      "Ġwanna": 1604,
      "sy": 1605,
      "ues": 1606,
      "raph": 1607,
      "Ġwasn": 1608,
      "Ġbody": 1609,
      "Ġpur": 1610,
      "Ġmoment": 1611,
      "Ġval": 1612,
      "hip": 1613,
      "ats": 1614,
      "Ġlooked": 1615,
      "Ġexper": 1616,
      "cr": 1617,
      "Ġbrit": 1618,
      "Ġguys": 1619,
      "la": 1620,
      "Ġoper": 1621,
      "ges": 1622,
      "Ġtre": 1623,
      "Ġ17": 1624,
      "have": 1625,
      "undred": 1626,
      "Ġyourself": 1627,
      "used": 1628,
      "ley": 1629,
      "Ġim": 1630,
      "Ġhowever": 1631,
      "Ġpos": 1632,
      "Ġsum": 1633,
      "port": 1634,
      "Ġ15": 1635,
      "ides": 1636,
      "Ġeight": 1637,
      "Ġsleep": 1638,
      "Ġ194": 1639,
      "Ġ195": 1640,
      "Ġcomes": 1641,
      "every": 1642,
      "arent": 1643,
      "Ġpublic": 1644,
      "Ġhot": 1645,
      "Ġroad": 1646,
      "Ġyork": 1647,
      "Ġcut": 1648,
      "Ġspec": 1649,
      "Ġclose": 1650,
      "Ġprobably": 1651,
      "Ġest": 1652,
      "tend": 1653,
      "Ġtele": 1654,
      "Ġbreak": 1655,
      "Ġsuc": 1656,
      "Ġlarge": 1657,
      "Ġtrue": 1658,
      "Ġterm": 1659,
      "Ġvar": 1660,
      "aces": 1661,
      "pped": 1662,
      "ush": 1663,
      "Ġpap": 1664,
      "Ġorgan": 1665,
      "ently": 1666,
      "Ġve": 1667,
      "Ġworking": 1668,
      "Ġearly": 1669,
      "Ġago": 1670,
      "Ġpick": 1671,
      "Ġintern": 1672,
      "Ġrock": 1673,
      "Ġthank": 1674,
      "Ġhope": 1675,
      "rence": 1676,
      "uary": 1677,
      "ney": 1678,
      "ained": 1679,
      "Ġgeneral": 1680,
      "Ġmaybe": 1681,
      "Ġgiven": 1682,
      "Ġfree": 1683,
      "iam": 1684,
      "ional": 1685,
      "Ġwouldn": 1686,
      "Ġchur": 1687,
      "Ġhundred": 1688,
      "Ġwest": 1689,
      "Ġhaven": 1690,
      "artment": 1691,
      "Ġcra": 1692,
      "Ġhands": 1693,
      "ality": 1694,
      "een": 1695,
      "Ġdou": 1696,
      "Ġnews": 1697,
      "Ġsun": 1698,
      "apan": 1699,
      "got": 1700,
      "Ġ...": 1701,
      "Ġdeal": 1702,
      "Ġstre": 1703,
      "please": 1704,
      "ii": 1705,
      "Ġbecome": 1706,
      "Ġfriends": 1707,
      "Ġann": 1708,
      "!\"": 1709,
      "ract": 1710,
      "ham": 1711,
      "ices": 1712,
      "Ġalmost": 1713,
      "ama": 1714,
      "Ġsil": 1715,
      "Ġcontro": 1716,
      "Ġocc": 1717,
      "Ġstar": 1718,
      "Ġsal": 1719,
      "hind": 1720,
      "ety": 1721,
      "men": 1722,
      "augh": 1723,
      "veral": 1724,
      "Ġbegin": 1725,
      "ls": 1726,
      "unt": 1727,
      "Ġaw": 1728,
      "mr": 1729,
      "utes": 1730,
      "Ġbill": 1731,
      "ulation": 1732,
      "Ġmarch": 1733,
      "Ġdan": 1734,
      "head": 1735,
      "Ġrece": 1736,
      "Ġseries": 1737,
      "Ġpie": 1738,
      ",âĢĿ": 1739,
      "ilt": 1740,
      "his": 1741,
      "Ġquestion": 1742,
      "Ġlate": 1743,
      "ring": 1744,
      "Ġill": 1745,
      "Ġsci": 1746,
      "Ġleast": 1747,
      "Ġball": 1748,
      "Ġbur": 1749,
      "Ġhappy": 1750,
      "Ġready": 1751,
      "Ġopp": 1752,
      "ries": 1753,
      "eng": 1754,
      "iful": 1755,
      "Ġmyself": 1756,
      "Ġorigin": 1757,
      "Ġinde": 1758,
      "bed": 1759,
      "ots": 1760,
      "Ġsol": 1761,
      "Ġadm": 1762,
      "Ġriver": 1763,
      "chan": 1764,
      "Ġid": 1765,
      "gram": 1766,
      "ians": 1767,
      "Ġblood": 1768,
      "par": 1769,
      "ief": 1770,
      "Ġspeak": 1771,
      "ler": 1772,
      "Ġcomple": 1773,
      "Ġprot": 1774,
      "Ġpict": 1775,
      "Ġalbum": 1776,
      "hi": 1777,
      "Ġgold": 1778,
      "Ġtem": 1779,
      "ped": 1780,
      "Ġdog": 1781,
      "Ġmarried": 1782,
      "ample": 1783,
      "Ġband": 1784,
      "Ġhuman": 1785,
      "Ġfilm": 1786,
      "ived": 1787,
      "oud": 1788,
      "Ġjapan": 1789,
      "Ġmer": 1790,
      "iously": 1791,
      "Ġalone": 1792,
      "Ġdistrict": 1793,
      "Ġcamp": 1794,
      "Ġcoun": 1795,
      "Ġisland": 1796,
      "Ġguess": 1797,
      "Ġdisc": 1798,
      "Ġreason": 1799,
      "Ġpresent": 1800,
      "angu": 1801,
      "Ġanim": 1802,
      "Ġfre": 1803,
      "Ġton": 1804,
      "iting": 1805,
      "Ġkilled": 1806,
      "Ġseveral": 1807,
      "Ġprofess": 1808,
      "lly": 1809,
      "Ġbehind": 1810,
      "Ġdel": 1811,
      "sc": 1812,
      "Ġfront": 1813,
      "Ġ16": 1814,
      "ague": 1815,
      "gu": 1816,
      "Ġclub": 1817,
      "ium": 1818,
      "Ġjanuary": 1819,
      "Ġwords": 1820,
      "Ġdrink": 1821,
      "Ġfood": 1822,
      "Ġclear": 1823,
      "Ġbrought": 1824,
      "Ġcou": 1825,
      "mar": 1826,
      "Ġchurch": 1827,
      "elt": 1828,
      "Ġmajor": 1829,
      "Ġem": 1830,
      "Ġreleased": 1831,
      "lt": 1832,
      "Ġvill": 1833,
      "ril": 1834,
      "gen": 1835,
      "Ġpast": 1836,
      "Ġaust": 1837,
      "Ġeuro": 1838,
      "selves": 1839,
      "more": 1840,
      "maybe": 1841,
      "tw": 1842,
      "Ġmakes": 1843,
      "ude": 1844,
      "ards": 1845,
      "Ġchamp": 1846,
      "Ġmur": 1847,
      "after": 1848,
      "Ġenglish": 1849,
      "Ġ12": 1850,
      "osp": 1851,
      "ully": 1852,
      "ese": 1853,
      "ology": 1854,
      "bs": 1855,
      "Ġfootball": 1856,
      "Ġaug": 1857,
      "Ġrad": 1858,
      "Ġtrain": 1859,
      "ient": 1860,
      "Ġtaken": 1861,
      "Ġport": 1862,
      "Ġsupport": 1863,
      "Ġlisten": 1864,
      "Ġearth": 1865,
      "Ġ193": 1866,
      "Ġmad": 1867,
      "Ġseason": 1868,
      "ode": 1869,
      "oc": 1870,
      "Ġmic": 1871,
      "band": 1872,
      "Ġfig": 1873,
      "Ġfrance": 1874,
      "rench": 1875,
      "Ġprogram": 1876,
      "tr": 1877,
      "Ġtaking": 1878,
      "Ġstrong": 1879,
      "ober": 1880,
      "inc": 1881,
      "ove": 1882,
      "Ġrom": 1883,
      "Ġspecial": 1884,
      "Ġtest": 1885,
      "atic": 1886,
      "dle": 1887,
      "hello": 1888,
      "Ġoct": 1889,
      "Ġsold": 1890,
      "Ġtou": 1891,
      "haps": 1892,
      "Ġpark": 1893,
      "Ġstuff": 1894,
      "Ġgreen": 1895,
      "Ġhit": 1896,
      "Ġav": 1897,
      "Ġmess": 1898,
      "Ġdie": 1899,
      "Ġdev": 1900,
      "Ġdam": 1901,
      "Ġelect": 1902,
      "Ġquick": 1903,
      "aced": 1904,
      "Ġinform": 1905,
      "bl": 1906,
      "âĢĶ": 1907,
      "ptember": 1908,
      "Ġreport": 1909,
      "Ġdece": 1910,
      "Ġeither": 1911,
      "pro": 1912,
      "Ġresp": 1913,
      "erv": 1914,
      "Ġ$": 1915,
      "Ġdesign": 1916,
      "Ġaugust": 1917,
      "ider": 1918,
      "Ġmount": 1919,
      "Ġothers": 1920,
      "ior": 1921,
      "Ġmember": 1922,
      "Ġdaughter": 1923,
      "zy": 1924,
      "Ġcharac": 1925,
      "Ġrather": 1926,
      "Ġ]": 1927,
      "Ġfif": 1928,
      "Ġattack": 1929,
      "Ġliving": 1930,
      "Ġjune": 1931,
      "Ġwonder": 1932,
      "Ġ|": 1933,
      "Ġ_": 1934,
      "Ġcommon": 1935,
      "oke": 1936,
      "Ġthinking": 1937,
      "Ġmrs": 1938,
      "Ġfa": 1939,
      "Ġhell": 1940,
      "Ġcop": 1941,
      "fort": 1942,
      "Ġlooks": 1943,
      "bit": 1944,
      "was": 1945,
      "ford": 1946,
      "Ġwithin": 1947,
      "que": 1948,
      "Ġbeautiful": 1949,
      "Ġlab": 1950,
      "Ġminutes": 1951,
      "Ġ&": 1952,
      "fic": 1953,
      "Ġeast": 1954,
      "Ġexample": 1955,
      "bert": 1956,
      "Ġallow": 1957,
      "Ġgrow": 1958,
      "Ġdream": 1959,
      "Ġlangu": 1960,
      "Ġcouldn": 1961,
      "orm": 1962,
      "ience": 1963,
      "Ġdear": 1964,
      "umb": 1965,
      "Ġwood": 1966,
      "Ġgun": 1967,
      "Ġsometimes": 1968,
      "Ġbritish": 1969,
      "Ġstep": 1970,
      "Ġsuccess": 1971,
      "Ġinside": 1972,
      "Ġfair": 1973,
      "Ġmillion": 1974,
      "Ġwall": 1975,
      "Ġpal": 1976,
      "aim": 1977,
      "key": 1978,
      "Ġleav": 1979,
      "Ġstra": 1980,
      "Ġheld": 1981,
      "Ġpolice": 1982,
      "Ġnamed": 1983,
      "po": 1984,
      "Ġwants": 1985,
      "Ġminute": 1986,
      "bru": 1987,
      "Ġcat": 1988,
      "Ġoffice": 1989,
      "Ġeurope": 1990,
      "Ġjack": 1991,
      "itting": 1992,
      "ament": 1993,
      "Ġthird": 1994,
      "Ġresult": 1995,
      "Ġdark": 1996,
      "Ġdepartment": 1997,
      "Ġsea": 1998,
      "lling": 1999,
      "Ġseptember": 2000,
      "ories": 2001,
      "put": 2002,
      "Ġship": 2003,
      "thern": 2004,
      "itten": 2005,
      "Ġplaying": 2006,
      "Ġvoice": 2007,
      "actly": 2008,
      "Ġsecret": 2009,
      "Ġimm": 2010,
      "ov": 2011,
      "read": 2012,
      "resent": 2013,
      "Ġcir": 2014,
      "ask": 2015,
      "Ġmot": 2016,
      "Ġoctober": 2017,
      "Ġphil": 2018,
      "fully": 2019,
      "ien": 2020,
      "els": 2021,
      "ert": 2022,
      "ming": 2023,
      "ai": 2024,
      "lished": 2025,
      "give": 2026,
      "Ġapril": 2027,
      "Ġhistory": 2028,
      "Ġformer": 2029,
      "iving": 2030,
      "ffect": 2031,
      "Ġperform": 2032,
      "Ġsingle": 2033,
      "will": 2034,
      "cil": 2035,
      "vember": 2036,
      "Ġlord": 2037,
      "Ġjuly": 2038,
      "Ġhus": 2039,
      "Ġlady": 2040,
      "Ġrepl": 2041,
      "Ġamong": 2042,
      "ousand": 2043,
      "Ġcre": 2044,
      "Ġturned": 2045,
      "Ġtrou": 2046,
      "med": 2047,
      "ee": 2048,
      "Ġcourt": 2049,
      "----": 2050,
      "anger": 2051,
      "mbers": 2052,
      "Ġlived": 2053,
      "Ġbir": 2054,
      "ipp": 2055,
      "ell": 2056,
      "Ġfollowing": 2057,
      "unch": 2058,
      "Ġincluding": 2059,
      "Ġmod": 2060,
      "which": 2061,
      "Ġexpect": 2062,
      "Ġstation": 2063,
      "Ġfrench": 2064,
      "ey": 2065,
      "ones": 2066,
      "Ġtot": 2067,
      "Ġ11": 2068,
      "Ġseven": 2069,
      "Ġusing": 2070,
      "Ġoutside": 2071,
      "Ġcheck": 2072,
      "Ġdest": 2073,
      "bruary": 2074,
      "take": 2075,
      "Ġfelt": 2076,
      "Ġstreet": 2077,
      "Ġfur": 2078,
      "Ġbri": 2079,
      "Ġfield": 2080,
      "Ġdecember": 2081,
      "Ġpoor": 2082,
      "vision": 2083,
      "Ġcost": 2084,
      "hel": 2085,
      "ature": 2086,
      "ead": 2087,
      "Ġacross": 2088,
      "Ġbox": 2089,
      "idge": 2090,
      "ery": 2091,
      "chn": 2092,
      "eth": 2093,
      "Ġmonths": 2094,
      "Ġdin": 2095,
      "Ġthousand": 2096,
      "Ġsuper": 2097,
      "Ġhours": 2098,
      "ding": 2099,
      "Ġeffect": 2100,
      "wait": 2101,
      "Ġbuilding": 2102,
      "work": 2103,
      "Ġhair": 2104,
      "ounds": 2105,
      "aged": 2106,
      "Ġnovember": 2107,
      "Ġran": 2108,
      "Ġworked": 2109,
      "Ġpress": 2110,
      "Ġpossible": 2111,
      "Ġregion": 2112,
      "Ġservice": 2113,
      "Ġru": 2114,
      "Ġrequ": 2115,
      "Ġvict": 2116,
      "Ġappro": 2117,
      "Ġhy": 2118,
      "Ġtill": 2119,
      "ached": 2120,
      "Ġda": 2121,
      "Ġtreat": 2122,
      "unk": 2123,
      "Ġcareer": 2124,
      "Ġchance": 2125,
      "Ġexc": 2126,
      "Ġhusband": 2127,
      "Ġwish": 2128,
      "Ġsend": 2129,
      "ruct": 2130,
      "Ġir": 2131,
      "aint": 2132,
      "Ġusually": 2133,
      "Ġmor": 2134,
      "Ġsweet": 2135,
      "aring": 2136,
      "Ġmembers": 2137,
      "Ġlevel": 2138,
      "anc": 2139,
      "fer": 2140,
      "Ġleague": 2141,
      "ino": 2142,
      "Ġblue": 2143,
      "Ġgotta": 2144,
      "Ġtried": 2145,
      "Ġauth": 2146,
      "Ġeduc": 2147,
      "ata": 2148,
      "eral": 2149,
      "Ġdoctor": 2150,
      "Ġjud": 2151,
      "Ġfebruary": 2152,
      "Ġbuilt": 2153,
      "bur": 2154,
      "Ġcollege": 2155,
      "Ġcross": 2156,
      "Ġprev": 2157,
      "Ġproper": 2158,
      "ograph": 2159,
      "Ġcup": 2160,
      "Ġflo": 2161,
      "Ġcompet": 2162,
      "Ġmoved": 2163,
      "Ġ13": 2164,
      "room": 2165,
      "Ġconcer": 2166,
      "arr": 2167,
      "Ġparent": 2168,
      "attle": 2169,
      "dom": 2170,
      "Ġabs": 2171,
      "Ġfeet": 2172,
      "Ġlow": 2173,
      "Ġgeor": 2174,
      "por": 2175,
      "lls": 2176,
      "Ġworks": 2177,
      "Ġ14": 2178,
      "Ġbird": 2179,
      "Ġrepresent": 2180,
      "Ġteac": 2181,
      "Ġ2010": 2182,
      "Ġgets": 2183,
      "aff": 2184,
      "Ġarmy": 2185,
      "10": 2186,
      "fo": 2187,
      "Ġpull": 2188,
      "Ġtable": 2189,
      "Ġhey": 2190,
      "tell": 2191,
      "airs": 2192,
      "Ġsister": 2193,
      "itch": 2194,
      "raid": 2195,
      "Ġang": 2196,
      "Ġtwenty": 2197,
      "ribut": 2198,
      "Ġcentury": 2199,
      "ination": 2200,
      "Ġanyone": 2201,
      "Ġparticular": 2202,
      "ana": 2203,
      "Ġplayer": 2204,
      "Ġcast": 2205,
      "Ġpost": 2206,
      "Ġcry": 2207,
      "gest": 2208,
      "ns": 2209,
      "Ġchair": 2210,
      "view": 2211,
      "Ġcomplete": 2212,
      "Ġvir": 2213,
      "Ġevent": 2214,
      "Ġvie": 2215,
      "ula": 2216,
      "from": 2217,
      "Ġphone": 2218,
      "Ġgames": 2219,
      "Ġworry": 2220,
      "Ġsn": 2221,
      "Ġver": 2222,
      "Ġlocal": 2223,
      "vered": 2224,
      "ified": 2225,
      "Ġgirls": 2226,
      "ony": 2227,
      "18": 2228,
      "Ġanswer": 2229,
      "Ġboys": 2230,
      "Ġeasy": 2231,
      "Ġwhether": 2232,
      "Ġlay": 2233,
      "Ġpopulation": 2234,
      "Ġhill": 2235,
      "Ġbuy": 2236,
      "Ġcold": 2237,
      "Ġgra": 2238,
      "Ġprop": 2239,
      "Ġvide": 2240,
      "Ġbased": 2241,
      "bye": 2242,
      "Ġknows": 2243,
      "ondon": 2244,
      "Ġmine": 2245,
      "Ġtour": 2246,
      "ky": 2247,
      "Ġbra": 2248,
      "Ġvi": 2249,
      "Ġfell": 2250,
      "Ġdeep": 2251,
      "itions": 2252,
      "Ġlives": 2253,
      "Ġtechn": 2254,
      "idence": 2255,
      "Ġsus": 2256,
      "Ġfav": 2257,
      "Ġvol": 2258,
      "Ġtit": 2259,
      "Ġwritten": 2260,
      "soci": 2261,
      "Ġhuh": 2262,
      "Ġeveryone": 2263,
      "ases": 2264,
      "Ġaward": 2265,
      "Ġcurrent": 2266,
      "iod": 2267,
      "list": 2268,
      "Ġpract": 2269,
      "Ġstat": 2270,
      "Ġcannot": 2271,
      "would": 2272,
      "hold": 2273,
      "gress": 2274,
      "Ġrob": 2275,
      "Ġnet": 2276,
      "though": 2277,
      "Ġdefe": 2278,
      "Ġground": 2279,
      "irty": 2280,
      "Ġdescri": 2281,
      "Ġ``": 2282,
      "Ġview": 2283,
      "yed": 2284,
      "Ġconne": 2285,
      "Ġexactly": 2286,
      "Ġcontrol": 2287,
      "avy": 2288,
      "Ġfast": 2289,
      "Ġauthor": 2290,
      "Ġ30": 2291,
      "Ġpot": 2292,
      "ken": 2293,
      "ald": 2294,
      "Ġseems": 2295,
      "Ġmass": 2296,
      "ara": 2297,
      "Ġlaugh": 2298,
      "Ġtomorrow": 2299,
      "ances": 2300,
      "asure": 2301,
      "Ġtelevision": 2302,
      "Ġbirth": 2303,
      "cut": 2304,
      "wel": 2305,
      "Ġprocess": 2306,
      "Ġcond": 2307,
      "iding": 2308,
      "Ġcouple": 2309,
      "lled": 2310,
      "Ġsoci": 2311,
      "Ġafraid": 2312,
      "Ġinformation": 2313,
      "Ġcam": 2314,
      "Ġhosp": 2315,
      "Ġones": 2316,
      "21": 2317,
      "Ġsex": 2318,
      "Ġdirect": 2319,
      "Ġkids": 2320,
      "Ġmiddle": 2321,
      "Ġsocial": 2322,
      "Ġsense": 2323,
      "Ġant": 2324,
      "hy": 2325,
      "Ġtur": 2326,
      "Ġdraw": 2327,
      "Ġlim": 2328,
      "Ġhig": 2329,
      "Ġep": 2330,
      "Ġbott": 2331,
      "Ġinternational": 2332,
      "Ġcos": 2333,
      "Ġinvol": 2334,
      "ising": 2335,
      "Ġwrote": 2336,
      "Ġtruth": 2337,
      "Ġlondon": 2338,
      "Ġwrite": 2339,
      "ument": 2340,
      "Ġrese": 2341,
      "Ġluck": 2342,
      "ob": 2343,
      "Ġital": 2344,
      "Ġpaper": 2345,
      "Ġdiffic": 2346,
      "Ġtype": 2347,
      "Ġsud": 2348,
      "Ġfly": 2349,
      "ement": 2350,
      "ada": 2351,
      "Ġtree": 2352,
      "these": 2353,
      "Ġcorn": 2354,
      "Ġseemed": 2355,
      "time": 2356,
      "Ġtrave": 2357,
      "Ġrev": 2358,
      "Ġfut": 2359,
      "Ġhealth": 2360,
      "Ġincre": 2361,
      "Ġlonger": 2362,
      "ission": 2363,
      "itive": 2364,
      "car": 2365,
      "Ġcook": 2366,
      "Ġchampions": 2367,
      "Ġsomebody": 2368,
      "Ġengland": 2369,
      "Ġtonight": 2370,
      "Ġden": 2371,
      "Ġcommand": 2372,
      "ressed": 2373,
      "urs": 2374,
      "Ġdi": 2375,
      "hard": 2376,
      "Ġcharacter": 2377,
      "Ġmun": 2378,
      "Ġspace": 2379,
      "Ġfro": 2380,
      "yal": 2381,
      "Ġrunning": 2382,
      "sha": 2383,
      "ization": 2384,
      "Ġforce": 2385,
      "Ġforget": 2386,
      "oose": 2387,
      "ike": 2388,
      "Ġchanged": 2389,
      "stop": 2390,
      "entle": 2391,
      "pre": 2392,
      "Ġsam": 2393,
      "Ġshot": 2394,
      "Ġmem": 2395,
      "Ġvillage": 2396,
      "Ġperhaps": 2397,
      "Ġsupposed": 2398,
      "Ġaustral": 2399,
      "Ġperiod": 2400,
      "ffe": 2401,
      "Ġdisco": 2402,
      "Ġtrad": 2403,
      "bor": 2404,
      "Ġassoci": 2405,
      "night": 2406,
      "ille": 2407,
      "Ġgerman": 2408,
      "Ġtrouble": 2409,
      "Ġfail": 2410,
      "Ġlanguage": 2411,
      "Ġsen": 2412,
      "Ġhurt": 2413,
      "conom": 2414,
      "Ġmaster": 2415,
      "over": 2416,
      "uk": 2417,
      "sa": 2418,
      "uation": 2419,
      "Ġconv": 2420,
      "Ġamerica": 2421,
      "two": 2422,
      "Ġcult": 2423,
      "Ġclean": 2424,
      "Ġlik": 2425,
      "Ġ25": 2426,
      "cially": 2427,
      "ging": 2428,
      "Ġeverybody": 2429,
      "ival": 2430,
      "Ġinstead": 2431,
      "ae": 2432,
      "Ġvers": 2433,
      "Ġneeds": 2434,
      "Ġcy": 2435,
      "ept": 2436,
      "lin": 2437,
      "ording": 2438,
      "thanks": 2439,
      "icip": 2440,
      "Ġarm": 2441,
      "Ġposition": 2442,
      "Ġlat": 2443,
      "rodu": 2444,
      "Ġmist": 2445,
      "Ġtrust": 2446,
      "mal": 2447,
      "Ġwhatever": 2448,
      "sorry": 2449,
      "Ġtouch": 2450,
      "ray": 2451,
      "Ġstri": 2452,
      "22": 2453,
      "off": 2454,
      "Ġhall": 2455,
      "sp": 2456,
      "Ġbank": 2457,
      "ored": 2458,
      "nes": 2459,
      "van": 2460,
      "mhm": 2461,
      "Ġreceived": 2462,
      "Ġlad": 2463,
      "Ġeye": 2464,
      "acy": 2465,
      "itary": 2466,
      "Ġruss": 2467,
      "Ġcouncil": 2468,
      "ef": 2469,
      "Ġarri": 2470,
      "Ġspir": 2471,
      "ption": 2472,
      "Ġpriv": 2473,
      "Ġben": 2474,
      "Ġ0": 2475,
      "Ġpeter": 2476,
      "even": 2477,
      "Ġnin": 2478,
      "ales": 2479,
      "cing": 2480,
      "Ġsummer": 2481,
      "str": 2482,
      "Ġengine": 2483,
      "Ġkept": 2484,
      "Ġwaiting": 2485,
      "somet": 2486,
      "Ġcomput": 2487,
      "Ġdro": 2488,
      "Ġbud": 2489,
      "oof": 2490,
      "ggest": 2491,
      "Ġcreated": 2492,
      "emy": 2493,
      "Ġentire": 2494,
      "ilar": 2495,
      "Ġsett": 2496,
      "Ġsudden": 2497,
      "ublic": 2498,
      "ping": 2499,
      "avid": 2500,
      "Ġaccept": 2501,
      "Ġfucking": 2502,
      "Ġcaptain": 2503,
      "line": 2504,
      "Ġproject": 2505,
      "Ġthemselves": 2506,
      "ror": 2507,
      "Ġfuture": 2508,
      "hen": 2509,
      "Ġpicture": 2510,
      "Ġsurpr": 2511,
      "Ġrul": 2512,
      "Ġrail": 2513,
      "Ġhop": 2514,
      "Ġbooks": 2515,
      "Ġinvest": 2516,
      "Ġled": 2517,
      "Ġlie": 2518,
      "ency": 2519,
      "spe": 2520,
      "Ġber": 2521,
      "owers": 2522,
      "Ġdue": 2523,
      "Ġhospital": 2524,
      "Ġain": 2525,
      "Ġafric": 2526,
      "bt": 2527,
      "Ġstraight": 2528,
      "gre": 2529,
      "ogn": 2530,
      "Ġabove": 2531,
      "Ġciv": 2532,
      "Ġfinal": 2533,
      "Ġhorse": 2534,
      "Ġhu": 2535,
      "bers": 2536,
      "teen": 2537,
      "wor": 2538,
      "Ġspecies": 2539,
      "Ġparents": 2540,
      "Ġaut": 2541,
      "Ġsand": 2542,
      "Ġlu": 2543,
      "Ġsuggest": 2544,
      "ager": 2545,
      "Ġeconom": 2546,
      "Ġphys": 2547,
      "Ġring": 2548,
      "Ġperfect": 2549,
      "back": 2550,
      "Ġvideo": 2551,
      "Ġburn": 2552,
      "Ġdut": 2553,
      "oint": 2554,
      "Ġsan": 2555,
      "Ġcho": 2556,
      "Ġtakes": 2557,
      "Ġange": 2558,
      "Ġimag": 2559,
      "estern": 2560,
      "Ġmart": 2561,
      "inal": 2562,
      "olution": 2563,
      "ician": 2564,
      "yle": 2565,
      "Ġfeeling": 2566,
      "Ġworth": 2567,
      "Ġrespect": 2568,
      "Ġpiece": 2569,
      "ially": 2570,
      "Ġshut": 2571,
      "Ġprison": 2572,
      "Ġmouth": 2573,
      "Ġpopular": 2574,
      "Ġaren": 2575,
      "Ġcarry": 2576,
      "gs": 2577,
      "Ġminister": 2578,
      "ergy": 2579,
      "Ġproblems": 2580,
      "Ġshit": 2581,
      "zz": 2582,
      "Ġmach": 2583,
      "Ġtrack": 2584,
      "Ġnine": 2585,
      "Ġletter": 2586,
      "Ġprince": 2587,
      "Ġexist": 2588,
      "ser": 2589,
      "Ġjour": 2590,
      "Ġdecided": 2591,
      "nel": 2592,
      "Ġhang": 2593,
      "Ġmis": 2594,
      "Ġinclude": 2595,
      "Ġsoft": 2596,
      "Ġitself": 2597,
      "Ġdem": 2598,
      "Ġcenter": 2599,
      "Ġgard": 2600,
      "does": 2601,
      "Ġbrown": 2602,
      "tom": 2603,
      "je": 2604,
      "Ġfinished": 2605,
      "gar": 2606,
      "Ġsca": 2607,
      "dr": 2608,
      "Ġbeat": 2609,
      "Ġfix": 2610,
      "Ġboard": 2611,
      "Ġcover": 2612,
      "Ġfort": 2613,
      "old": 2614,
      "Ġobject": 2615,
      "hael": 2616,
      "15": 2617,
      "Ġherself": 2618,
      "Ġsafe": 2619,
      "pes": 2620,
      "aha": 2621,
      "Ġlos": 2622,
      "Ġum": 2623,
      "Ġactiv": 2624,
      "Ġcolor": 2625,
      "Ġgentle": 2626,
      "Ġwilliam": 2627,
      "Ġslow": 2628,
      "omin": 2629,
      "Ġserved": 2630,
      "Ġfurther": 2631,
      "cher": 2632,
      "ivid": 2633,
      "Ġban": 2634,
      "Ġcontinu": 2635,
      "Ġarch": 2636,
      "Ġalthough": 2637,
      "Ġbroad": 2638,
      "Ġanyway": 2639,
      "Ġshoot": 2640,
      "Ġ*": 2641,
      "Ġhappens": 2642,
      "Ġprotect": 2643,
      "cal": 2644,
      "Ġthanks": 2645,
      "Ġshop": 2646,
      "Ġric": 2647,
      "Ġphot": 2648,
      "ays": 2649,
      "Ġdifficult": 2650,
      "Ġdu": 2651,
      "Ġsave": 2652,
      "ration": 2653,
      "Ġappear": 2654,
      "Ġcivil": 2655,
      "Ġfed": 2656,
      "really": 2657,
      "Ġmoder": 2658,
      "Ġglad": 2659,
      "king": 2660,
      "olute": 2661,
      "Ġpan": 2662,
      "pecially": 2663,
      "Ġtelling": 2664,
      "Ġcommunity": 2665,
      "Ġfill": 2666,
      "Ġinfl": 2667,
      "Ġrecogn": 2668,
      "Ġfle": 2669,
      "Ġcool": 2670,
      "Ġhen": 2671,
      "Ġcapital": 2672,
      "17": 2673,
      "Ġfish": 2674,
      "Ġdanger": 2675,
      "Ġ24": 2676,
      "val": 2677,
      "Ġweeks": 2678,
      "Ġhung": 2679,
      "itor": 2680,
      "ression": 2681,
      "Ġchampionship": 2682,
      "Ġbear": 2683,
      "ris": 2684,
      "Ġfigure": 2685,
      "Ġcrit": 2686,
      "empt": 2687,
      "Ġevening": 2688,
      "Ġterri": 2689,
      "iment": 2690,
      "ston": 2691,
      "Ġbull": 2692,
      "Ġwat": 2693,
      "Ġgar": 2694,
      "rel": 2695,
      "sure": 2696,
      "Ġbag": 2697,
      "omb": 2698,
      "know": 2699,
      "Ġmeeting": 2700,
      "ift": 2701,
      "Ġunion": 2702,
      "light": 2703,
      "mas": 2704,
      "Ġrepublic": 2705,
      "Ġkey": 2706,
      "Ġlearn": 2707,
      "Ġmeant": 2708,
      "Ġenjo": 2709,
      "Ġ2014": 2710,
      "Ġseat": 2711,
      "Ġfamous": 2712,
      "Ġta": 2713,
      "Ġpassed": 2714,
      "Ġcirc": 2715,
      "nothing": 2716,
      "Ġgrad": 2717,
      "Ġchief": 2718,
      "Ġself": 2719,
      "Ġcrazy": 2720,
      "under": 2721,
      "Ġfunny": 2722,
      "12": 2723,
      "Ġmunicip": 2724,
      "Ġice": 2725,
      "Ġwild": 2726,
      "Ġahead": 2727,
      "Ġestab": 2728,
      "Ġindust": 2729,
      "Ġindian": 2730,
      "Ġnon": 2731,
      "Ġclot": 2732,
      "Ġhol": 2733,
      "itted": 2734,
      "Ġgermany": 2735,
      "Ġexcept": 2736,
      "Ġrain": 2737,
      "Ġsociety": 2738,
      "ius": 2739,
      "Ġquiet": 2740,
      "Ġsick": 2741,
      "Ġ100": 2742,
      "Ġcentral": 2743,
      "Ġhun": 2744,
      "Ġpeace": 2745,
      "rem": 2746,
      "?âĢĿ": 2747,
      "Ġdrive": 2748,
      "Ġqueen": 2749,
      "Ġcard": 2750,
      "Ġsuff": 2751,
      "lect": 2752,
      "Ġbreat": 2753,
      "field": 2754,
      "Ġlou": 2755,
      "Ġur": 2756,
      "Ġmult": 2757,
      "wood": 2758,
      "gl": 2759,
      "Ġmarket": 2760,
      "Ġfem": 2761,
      "Ġrole": 2762,
      "Ġrelation": 2763,
      "Ġ2018": 2764,
      "Ġdoll": 2765,
      "Ġpaul": 2766,
      "yn": 2767,
      "riage": 2768,
      "pa": 2769,
      "Ġproduct": 2770,
      "Ġclos": 2771,
      "Ġpolitical": 2772,
      "Ġsimilar": 2773,
      "ference": 2774,
      "Ġ192": 2775,
      "Ġaccount": 2776,
      "ishing": 2777,
      "Ġcatch": 2778,
      "xic": 2779,
      "Ġsad": 2780,
      "Ġthrow": 2781,
      "Ġcomb": 2782,
      "ĠĠĠĠĠĠĠĠĠĠĠĠĠĠĠĠ": 2783,
      "Ġbeginning": 2784,
      "Ġoriginal": 2785,
      "Ġleaving": 2786,
      "Ġeff": 2787,
      "Ġsport": 2788,
      "Ġopened": 2789,
      "amb": 2790,
      "iff": 2791,
      "Ġ2011": 2792,
      "Ġdinner": 2793,
      "ume": 2794,
      "Ġroman": 2795,
      "Ġhoney": 2796,
      "iforn": 2797,
      "Ġbecom": 2798,
      "min": 2799,
      "16": 2800,
      "ya": 2801,
      "Ġ#": 2802,
      "ceed": 2803,
      "god": 2804,
      "Ġreturned": 2805,
      "ires": 2806,
      "Ġbattle": 2807,
      "iers": 2808,
      "Ġenergy": 2809,
      "Ġfac": 2810,
      "Ġbase": 2811,
      "Ġdisapp": 2812,
      "Ġfloor": 2813,
      "Ġstood": 2814,
      "Ġstudents": 2815,
      "Ġrelig": 2816,
      "Ġ(\"": 2817,
      "fin": 2818,
      "pet": 2819,
      "Ġradio": 2820,
      "Ġviol": 2821,
      "Ġrid": 2822,
      "Ġannoun": 2823,
      "itz": 2824,
      "Ġplaces": 2825,
      "Ġmal": 2826,
      "Ġeducation": 2827,
      "Ġstick": 2828,
      "ifornia": 2829,
      "Ġdaddy": 2830,
      "Ġrace": 2831,
      "Ġfeat": 2832,
      "dam": 2833,
      "Ġforest": 2834,
      "Ġstage": 2835,
      "Ġclaim": 2836,
      "Ġtotal": 2837,
      "Ġneigh": 2838,
      "Ġsubject": 2839,
      "Ġmater": 2840,
      "Ġfellow": 2841,
      "dad": 2842,
      "Ġkiss": 2843,
      "Ġwhom": 2844,
      "Ġforward": 2845,
      "Ġale": 2846,
      "Ġjer": 2847,
      "Ġfing": 2848,
      "Ġnatural": 2849,
      "Ġwed": 2850,
      "Ġparts": 2851,
      "listen": 2852,
      "Ġfrank": 2853,
      "Ġspend": 2854,
      "Ġcause": 2855,
      "rit": 2856,
      "Ġ2013": 2857,
      "Ġcommune": 2858,
      "14": 2859,
      "Ġwel": 2860,
      "Ġdestro": 2861,
      "cap": 2862,
      "Ġident": 2863,
      "Ġgeorge": 2864,
      "Ġsitting": 2865,
      "ero": 2866,
      "ka": 2867,
      "Ġintrodu": 2868,
      "Ġclim": 2869,
      "Ġrespons": 2870,
      "Ġgiving": 2871,
      "Ġ2017": 2872,
      "ply": 2873,
      "Ġ`": 2874,
      "Ġpolic": 2875,
      "nock": 2876,
      "Ġfinally": 2877,
      "Ġnecess": 2878,
      "Ġdirector": 2879,
      "Ġquestions": 2880,
      "Ġstudy": 2881,
      "Ġcountries": 2882,
      "Ġmatch": 2883,
      "Ġbal": 2884,
      "uel": 2885,
      "Ġinteresting": 2886,
      "Ġbow": 2887,
      "Ġsepar": 2888,
      "Ġmention": 2889,
      "Ġmary": 2890,
      "\")": 2891,
      "erson": 2892,
      "Ġgas": 2893,
      "Ġagre": 2894,
      "Ġyours": 2895,
      "Ġindivid": 2896,
      "only": 2897,
      "vir": 2898,
      "13": 2899,
      "ole": 2900,
      "Ġaud": 2901,
      "keep": 2902,
      "Ġhost": 2903,
      "Ġarg": 2904,
      "edi": 2905,
      "Ġcalifornia": 2906,
      "Ġreached": 2907,
      "ago": 2908,
      "Ġ2020": 2909,
      "Ġbene": 2910,
      "lie": 2911,
      "50": 2912,
      "ids": 2913,
      "Ġdevelopment": 2914,
      "Ġlose": 2915,
      "esus": 2916,
      "era": 2917,
      "Ġrose": 2918,
      "Ġquickly": 2919,
      "Ġord": 2920,
      "Ġlock": 2921,
      "Ġris": 2922,
      "Ġwhose": 2923,
      "Ġdar": 2924,
      "Ġblock": 2925,
      "Ġforgot": 2926,
      "ste": 2927,
      "Ġexam": 2928,
      "play": 2929,
      "Ġalive": 2930,
      "rap": 2931,
      "Ġfear": 2932,
      "Ġmilitary": 2933,
      "cul": 2934,
      "Ġsuppose": 2935,
      "Ġsimple": 2936,
      "hood": 2937,
      "Ġresearch": 2938,
      "alright": 2939,
      "Ġtowards": 2940,
      "Ġdance": 2941,
      "Ġmodern": 2942,
      "Ġrich": 2943,
      "Ġnature": 2944,
      "Ġkingdom": 2945,
      "cast": 2946,
      "Ġamount": 2947,
      "cious": 2948,
      "gn": 2949,
      "Ġmoving": 2950,
      "Ġdru": 2951,
      "Ġmiles": 2952,
      "Ġwindow": 2953,
      "Ġteacher": 2954,
      "set": 2955,
      "Ġappeared": 2956,
      "Ġcertainly": 2957,
      "Ġperm": 2958,
      "Ġjapanese": 2959,
      "Ġ2012": 2960,
      "Ġlocated": 2961,
      "Ġwide": 2962,
      "Ġmir": 2963,
      "Ġquar": 2964,
      "Ġindia": 2965,
      "Ġdefin": 2966,
      "ear": 2967,
      "face": 2968,
      "Ġvisit": 2969,
      "ĠĠĠ": 2970,
      "Ġprim": 2971,
      "Ġcand": 2972,
      "Ġpack": 2973,
      "Ġconsider": 2974,
      "Ġanymore": 2975,
      "Ġshar": 2976,
      "Ġ2015": 2977,
      "Ġalright": 2978,
      "Ġdemo": 2979,
      "Ġscience": 2980,
      "Ġpublished": 2981,
      "Ġindepend": 2982,
      "Ġspirit": 2983,
      "father": 2984,
      "Ġstrange": 2985,
      "hod": 2986,
      "illy": 2987,
      "Ġhistor": 2988,
      "Ġ2008": 2989,
      "Ġcried": 2990,
      "uses": 2991,
      "Ġcaught": 2992,
      "house": 2993,
      "Ġexperience": 2994,
      "Ġfamil": 2995,
      "Ġaction": 2996,
      "Ġfollowed": 2997,
      "ruction": 2998,
      "llen": 2999,
      "Ġways": 3000,
      "Ġinstit": 3001,
      "Ġdecl": 3002,
      "hist": 3003,
      "Ġut": 3004,
      "ville": 3005,
      "bel": 3006,
      "Ġroyal": 3007,
      "Ġdig": 3008,
      "bet": 3009,
      "Ġneeded": 3010,
      "has": 3011,
      "Ġii": 3012,
      "Ġdress": 3013,
      "Ġfool": 3014,
      "inct": 3015,
      "Ġscient": 3016,
      "Ġanybody": 3017,
      "Ġbelong": 3018,
      "upid": 3019,
      "wr": 3020,
      "Ġtv": 3021,
      "Ġ2016": 3022,
      "Ġglo": 3023,
      "Ġbat": 3024,
      "iled": 3025,
      "Ġsituation": 3026,
      "Ġprin": 3027,
      "Ġemplo": 3028,
      "Ġjump": 3029,
      "ensive": 3030,
      "Ġterms": 3031,
      "dd": 3032,
      "Ġ)": 3033,
      "Ġwriting": 3034,
      "ades": 3035,
      "Ġsurv": 3036,
      "idered": 3037,
      "Ġanimals": 3038,
      "30": 3039,
      "Ġfir": 3040,
      "Ġaff": 3041,
      "Ġtax": 3042,
      "ites": 3043,
      "Ġglass": 3044,
      "Ġprofessional": 3045,
      "Ġ21": 3046,
      "Ġequal": 3047,
      "iny": 3048,
      "Ġdavid": 3049,
      "wered": 3050,
      "ann": 3051,
      "people": 3052,
      "ica": 3053,
      "Ġdiscuss": 3054,
      "Ġstopped": 3055,
      "Ġallowed": 3056,
      "vent": 3057,
      "Ġfund": 3058,
      "Ġ2007": 3059,
      "while": 3060,
      "Ġaccording": 3061,
      "Ġplays": 3062,
      "Ġespecially": 3063,
      "say": 3064,
      "Ġdoc": 3065,
      "Ġdate": 3066,
      "Ġegg": 3067,
      "Ġjames": 3068,
      "irt": 3069,
      "first": 3070,
      "asons": 3071,
      "Ġplant": 3072,
      "Ġstone": 3073,
      "Ġfat": 3074,
      "west": 3075,
      "Ġmix": 3076,
      "Ġcens": 3077,
      "Ġshows": 3078,
      "Ġserious": 3079,
      "Ġinflu": 3080,
      "Ġstars": 3081,
      "Ġearli": 3082,
      "Ġwestern": 3083,
      "cour": 3084,
      "Ġwashing": 3085,
      "Ġaddition": 3086,
      "nal": 3087,
      "Ġrights": 3088,
      "Ġ2009": 3089,
      "Ġacad": 3090,
      "Ġmaterial": 3091,
      "Ġdepend": 3092,
      "Ġvan": 3093,
      "could": 3094,
      "Ġneg": 3095,
      "Ġvarious": 3096,
      "Ġjim": 3097,
      "Ġvalue": 3098,
      "Ġ22": 3099,
      "Ġhate": 3100,
      "bar": 3101,
      "ura": 3102,
      "Ġhous": 3103,
      "Ġ2006": 3104,
      "urity": 3105,
      "Ġarms": 3106,
      "Ġdivision": 3107,
      "pap": 3108,
      "oops": 3109,
      "Ġcust": 3110,
      "Ġdemocr": 3111,
      "200": 3112,
      "Ġpsy": 3113,
      "bu": 3114,
      "Ġcab": 3115,
      "ining": 3116,
      "Ġinvolved": 3117,
      "Ġmommy": 3118,
      "Ġprovince": 3119,
      "Ġrac": 3120,
      "Ġpaid": 3121,
      "inist": 3122,
      "Ġpu": 3123,
      "Ġdata": 3124,
      "aining": 3125,
      "cient": 3126,
      ".,": 3127,
      "lle": 3128,
      "Ġuncle": 3129,
      "Ġseeing": 3130,
      "Ġofficial": 3131,
      "ga": 3132,
      "Ġfavor": 3133,
      "Ġindeed": 3134,
      "Ġsnow": 3135,
      "Ġcompan": 3136,
      "ners": 3137,
      "Ġmel": 3138,
      "Ġspent": 3139,
      "pper": 3140,
      "Ġtar": 3141,
      "âĢĺ": 3142,
      "never": 3143,
      "mat": 3144,
      "Ġcoast": 3145,
      "about": 3146,
      "Ġtor": 3147,
      "Ġbought": 3148,
      "Ġmodel": 3149,
      "Ġobv": 3150,
      "erve": 3151,
      "Ġsour": 3152,
      "ĠÂ": 3153,
      "Ġbrain": 3154,
      "iction": 3155,
      ".'": 3156,
      "ki": 3157,
      "Ġgarden": 3158,
      "Ġproduced": 3159,
      "Ġ23": 3160,
      "Ġcomputer": 3161,
      "Ġheavy": 3162,
      "ength": 3163,
      "Ġasking": 3164,
      "action": 3165,
      "mus": 3166,
      "Ġimmedi": 3167,
      "Ġpun": 3168,
      "bour": 3169,
      "ato": 3170,
      "olutely": 3171,
      "Ġrelationship": 3172,
      "wow": 3173,
      "Ġjoined": 3174,
      "phone": 3175,
      "ences": 3176,
      "ram": 3177,
      "Ġwear": 3178,
      "Ġ2019": 3179,
      "Ġliter": 3180,
      "aven": 3181,
      "bes": 3182,
      "Ġsomewhere": 3183,
      "Ġstanding": 3184,
      "vi": 3185,
      "Ġbi": 3186,
      "Ġattempt": 3187,
      "Ġlargest": 3188,
      "11": 3189,
      "col": 3190,
      "Ġprivate": 3191,
      "Ġnobody": 3192,
      "Ġrefer": 3193,
      "yer": 3194,
      "....": 3195,
      "Ġtitle": 3196,
      "mom": 3197,
      "nded": 3198,
      "board": 3199,
      "Ġpoints": 3200,
      "Ġ50": 3201,
      "Ġhom": 3202,
      "cons": 3203,
      "Ġloved": 3204,
      "bon": 3205,
      "Ġconsidered": 3206,
      "Ġgives": 3207,
      "aur": 3208,
      "Ġanswered": 3209,
      "had": 3210,
      "Ġbroke": 3211,
      "Ġsize": 3212,
      "ify": 3213,
      "Ġsquare": 3214,
      "miss": 3215,
      "Ġnorthern": 3216,
      "Ġlower": 3217,
      "inary": 3218,
      "Ġnumbers": 3219,
      "ibility": 3220,
      "exc": 3221,
      "Ġcollect": 3222,
      "Ġ190": 3223,
      "Ġpersonal": 3224,
      "ancy": 3225,
      "Ġareas": 3226,
      "Ġexe": 3227,
      "Ġpath": 3228,
      "bing": 3229,
      "anch": 3230,
      "reek": 3231,
      "Ġgrew": 3232,
      "net": 3233,
      "Ġsell": 3234,
      "chen": 3235,
      "Ġstruct": 3236,
      "iling": 3237,
      "Ġ26": 3238,
      "Ġboat": 3239,
      "Ġ:": 3240,
      "itude": 3241,
      "Ġsearch": 3242,
      "oph": 3243,
      "aug": 3244,
      "Ġattend": 3245,
      "icle": 3246,
      "ffee": 3247,
      "Ġbes": 3248,
      "Ġmoon": 3249,
      "ooh": 3250,
      "Ġpolitician": 3251,
      "Ġpurp": 3252,
      "Ġtired": 3253,
      "wise": 3254,
      "cell": 3255,
      "ises": 3256,
      "des": 3257,
      "Ġstupid": 3258,
      "Ġeuropean": 3259,
      "ability": 3260,
      "Ġcensus": 3261,
      "down": 3262,
      "Ġrap": 3263,
      "Ġclothes": 3264,
      "Ġlake": 3265,
      "Ġpray": 3266,
      "those": 3267,
      "Ġparis": 3268,
      "Ġsky": 3269,
      "ential": 3270,
      "Ġspan": 3271,
      "Ġaver": 3272,
      "ground": 3273,
      "Ġmanage": 3274,
      "Ġah": 3275,
      "Ġkn": 3276,
      "ba": 3277,
      "Ġ28": 3278,
      "gon": 3279,
      "char": 3280,
      "Ġextra": 3281,
      "Ġnearly": 3282,
      "Ġsounds": 3283,
      "Ġspeed": 3284,
      "Ġcell": 3285,
      "!âĢĿ": 3286,
      "Ġfunction": 3287,
      "burg": 3288,
      "Ġshare": 3289,
      "Ġimpro": 3290,
      "rect": 3291,
      "Ġbright": 3292,
      "Ġincluded": 3293,
      "Ġ27": 3294,
      "Ġsar": 3295,
      "Ġsouthern": 3296,
      "terday": 3297,
      "Ġsight": 3298,
      "Ġrout": 3299,
      "cape": 3300,
      "Ġbeha": 3301,
      "resh": 3302,
      "lymp": 3303,
      "Ġtrees": 3304,
      "istic": 3305,
      "Ġtick": 3306,
      "tered": 3307,
      "Ġcompletely": 3308,
      "Ġhero": 3309,
      "Ġstore": 3310,
      "Ġamaz": 3311,
      "Ġnames": 3312,
      "ails": 3313,
      "noon": 3314,
      "Ġpsych": 3315,
      "Ġmc": 3316,
      "Ġadded": 3317,
      "Ġfer": 3318,
      "Ġleader": 3319,
      "bi": 3320,
      "Ġelection": 3321,
      "Â´": 3322,
      "dered": 3323,
      "Ġder": 3324,
      "Ġwonderful": 3325,
      "Ġsimply": 3326,
      "great": 3327,
      "Ġcontract": 3328,
      "Ġmethod": 3329,
      "Ġkit": 3330,
      "Ġofficer": 3331,
      "Ġsuddenly": 3332,
      "Ġdirected": 3333,
      "Ġevidence": 3334,
      "oon": 3335,
      "Ġbridge": 3336,
      "Ġdoubt": 3337,
      "john": 3338,
      "Ġhonor": 3339,
      "Ġpromise": 3340,
      "Ġmountain": 3341,
      "war": 3342,
      "Ġconstit": 3343,
      "ique": 3344,
      "incip": 3345,
      "Ġsens": 3346,
      "antic": 3347,
      "aker": 3348,
      "Ġhi": 3349,
      "Ġbroken": 3350,
      "ils": 3351,
      "three": 3352,
      "olic": 3353,
      "viron": 3354,
      "Ġissu": 3355,
      "Ġchina": 3356,
      "cos": 3357,
      "Ġinit": 3358,
      "Ġguard": 3359,
      "Ġmunicipality": 3360,
      "Ġsoul": 3361,
      "reng": 3362,
      "uit": 3363,
      "Ġdifference": 3364,
      "Ġactor": 3365,
      "Ġfaith": 3366,
      "Ġmichael": 3367,
      "Ġthirty": 3368,
      "Ġmexic": 3369,
      "Ġcaused": 3370,
      "Ġmac": 3371,
      "xim": 3372,
      "Ġmovement": 3373,
      "cra": 3374,
      "Ġtradition": 3375,
      "Ġspring": 3376,
      "hal": 3377,
      "oted": 3378,
      "ography": 3379,
      "Ġtea": 3380,
      "Ġblow": 3381,
      "sm": 3382,
      "ounded": 3383,
      "Ġarr": 3384,
      "Ġtraining": 3385,
      "Ġpenn": 3386,
      "oles": 3387,
      "Ġtalked": 3388,
      "ban": 3389,
      "Ġcow": 3390,
      "fuck": 3391,
      "Ġcharge": 3392,
      "Ġcommitt": 3393,
      "Ġmuse": 3394,
      "Ġchristmas": 3395,
      "iday": 3396,
      "Ġcontinued": 3397,
      "Ġolymp": 3398,
      "Ġassist": 3399,
      "comm": 3400,
      "Ġgroups": 3401,
      "Ġavail": 3402,
      "iel": 3403,
      "astic": 3404,
      "excuse": 3405,
      "Ġepis": 3406,
      "Ġcomfort": 3407,
      "Ġaustralia": 3408,
      "Ġattention": 3409,
      "Ġwatching": 3410,
      "mother": 3411,
      "cus": 3412,
      "ological": 3413,
      "Ġyellow": 3414,
      "ida": 3415,
      "Ġbottom": 3416,
      "sue": 3417,
      "Ġox": 3418,
      "Ġsite": 3419,
      "order": 3420,
      "omas": 3421,
      "Ġmum": 3422,
      "Ġuk": 3423,
      "Ġappoint": 3424,
      "mic": 3425,
      "Ġwarm": 3426,
      "year": 3427,
      "ively": 3428,
      "istics": 3429,
      "call": 3430,
      "ators": 3431,
      "Ġbirthday": 3432,
      "Ġhigher": 3433,
      "Ġhelped": 3434,
      "Ġversion": 3435,
      "Ġcro": 3436,
      "Ġarrest": 3437,
      "Ġmedic": 3438,
      "Ġregular": 3439,
      "Ġmachine": 3440,
      "Ġmeaning": 3441,
      "Ġmarry": 3442,
      "Ġdise": 3443,
      "vin": 3444,
      "Ġemb": 3445,
      "Ġshouldn": 3446,
      "Ġfifty": 3447,
      "Ġfit": 3448,
      "ledge": 3449,
      "va": 3450,
      "Ġpercent": 3451,
      "Ġenviron": 3452,
      "Ġschools": 3453,
      "Ġwa": 3454,
      "Ġalex": 3455,
      "Ġchoice": 3456,
      "sir": 3457,
      "bal": 3458,
      "Ġreach": 3459,
      "lla": 3460,
      "Ġnormal": 3461,
      "iced": 3462,
      "Ġservices": 3463,
      "Ġopport": 3464,
      "Ġprofessor": 3465,
      "Ġweap": 3466,
      "Ġstories": 3467,
      "Ġpictures": 3468,
      "oop": 3469,
      "Ġknock": 3470,
      "Ġvirgin": 3471,
      "Ġcrow": 3472,
      "antly": 3473,
      "Ġprep": 3474,
      "lim": 3475,
      "Ġfinish": 3476,
      "inese": 3477,
      "Ġthreat": 3478,
      "Ġ2000": 3479,
      "Ġmarriage": 3480,
      "Ġsongs": 3481,
      "Ġtherefore": 3482,
      "Ġstarting": 3483,
      "Ġwal": 3484,
      "Ġfounded": 3485,
      "Ġbath": 3486,
      "itely": 3487,
      "Ġcalling": 3488,
      "Ġhappening": 3489,
      "Ġmurder": 3490,
      "Ġwinter": 3491,
      "Ġafternoon": 3492,
      "Ġopportun": 3493,
      "Ġgri": 3494,
      "Ġbelow": 3495,
      "Ġinterested": 3496,
      "Ġrecords": 3497,
      "lebr": 3498,
      "za": 3499,
      "Ġbor": 3500,
      "Ġsecurity": 3501,
      "Ġshowed": 3502,
      "Ġvall": 3503,
      "Ġredu": 3504,
      "Ġagree": 3505,
      "Ġwit": 3506,
      "Ġchristian": 3507,
      "Ġpage": 3508,
      "Ġgovernor": 3509,
      "Ġpounds": 3510,
      "Ġclosed": 3511,
      "Ġcoffee": 3512,
      "Ġfarm": 3513,
      "ena": 3514,
      "Ġmm": 3515,
      "Ġadminist": 3516,
      "Ġlength": 3517,
      "Ġfox": 3518,
      "Ġtemper": 3519,
      "Ġnovel": 3520,
      "Ġoppos": 3521,
      "ushed": 3522,
      "Ġprincess": 3523,
      "Ġformed": 3524,
      "Ġannounced": 3525,
      "ek": 3526,
      "ples": 3527,
      "aps": 3528,
      "vies": 3529,
      "usion": 3530,
      "Ġprincip": 3531,
      "Ġnone": 3532,
      "Ġcapt": 3533,
      "comp": 3534,
      "sec": 3535,
      "aves": 3536,
      "Ġweren": 3537,
      "Ġformula": 3538,
      "Ġheaven": 3539,
      "Ġtast": 3540,
      "Ġrub": 3541,
      "Ġhan": 3542,
      "Ġmuseum": 3543,
      "bre": 3544,
      "Ġneck": 3545,
      "ification": 3546,
      "Ġbey": 3547,
      "Ġ()": 3548,
      "Ġchick": 3549,
      "Ġcustom": 3550,
      "Ġstreng": 3551,
      "Ġfeed": 3552,
      "shire": 3553,
      "Ġtext": 3554,
      "Ġkick": 3555,
      "Ġlovely": 3556,
      "Ġlines": 3557,
      "Ġaccess": 3558,
      "ests": 3559,
      "Ġet": 3560,
      "Ġaccident": 3561,
      "Ġaunt": 3562,
      "Ġinf": 3563,
      "Ġplus": 3564,
      "Ġtex": 3565,
      "ibly": 3566,
      "Ġach": 3567,
      "Ġ29": 3568,
      "Ġcentre": 3569,
      "Ġken": 3570,
      "Ġwashington": 3571,
      "da": 3572,
      "lor": 3573,
      "Ġund": 3574,
      "iot": 3575,
      "Ġdesp": 3576,
      "Ġforces": 3577,
      "Ġworse": 3578,
      "Ġfol": 3579,
      "ilities": 3580,
      "Ġbay": 3581,
      "Ġgall": 3582,
      "Ġinj": 3583,
      "Ġchem": 3584,
      "reen": 3585,
      "asion": 3586,
      "Ġchanges": 3587,
      "Ġspoke": 3588,
      "Ġinvestig": 3589,
      "Ġtall": 3590,
      "Ġoffer": 3591,
      "ket": 3592,
      "berg": 3593,
      "Ġdeveloped": 3594,
      "Ġcanada": 3595,
      "Ġdeterm": 3596,
      "isf": 3597,
      "Ġrule": 3598,
      "Ġyouth": 3599,
      "Ġcarried": 3600,
      "Ġregard": 3601,
      "Ġemer": 3602,
      "Ġ2005": 3603,
      "Ġyesterday": 3604,
      "Ġearlier": 3605,
      "ech": 3606,
      "Ġride": 3607,
      "sit": 3608,
      "ria": 3609,
      "Ġmilk": 3610,
      "Ġaverage": 3611,
      "vo": 3612,
      "Ġended": 3613,
      "Ġcru": 3614,
      "aded": 3615,
      "Ġhuge": 3616,
      "Ġsac": 3617,
      "Ġ189": 3618,
      "Ġavailable": 3619,
      "Ġmultip": 3620,
      "ari": 3621,
      "Ġsinger": 3622,
      "Ġtrade": 3623,
      "Ġintell": 3624,
      "Ġhello": 3625,
      "Ġstyle": 3626,
      "Ġdecision": 3627,
      "Ġmessage": 3628,
      "pping": 3629,
      "sequ": 3630,
      "Ġmovies": 3631,
      "Ġbusy": 3632,
      "Ġcommittee": 3633,
      "Ġexplain": 3634,
      "rian": 3635,
      "Ġthus": 3636,
      "Ġassociation": 3637,
      "Ġcelebr": 3638,
      "Ġros": 3639,
      "ented": 3640,
      "Ġputting": 3641,
      "Ġwelcome": 3642,
      "ppy": 3643,
      "Ġsund": 3644,
      "Ġenvironment": 3645,
      "Ġleaves": 3646,
      "Ġboss": 3647,
      "Ġancient": 3648,
      "Ġproduction": 3649,
      "something": 3650,
      "Ġnose": 3651,
      "Ġcareful": 3652,
      "Ġhonest": 3653,
      "fast": 3654,
      "Ġdry": 3655,
      "ipe": 3656,
      "Ġskin": 3657,
      "atives": 3658,
      "Ġcorner": 3659,
      "Ġcondu": 3660,
      "syl": 3661,
      "Ġdrop": 3662,
      "Ġspread": 3663,
      "rom": 3664,
      "aries": 3665,
      "ips": 3666,
      "Ġanal": 3667,
      "Ġjew": 3668,
      "Ġanimal": 3669,
      "arily": 3670,
      "aked": 3671,
      "hmm": 3672,
      "Ġcrime": 3673,
      "welve": 3674,
      "before": 3675,
      "Ġafrica": 3676,
      "Ġprime": 3677,
      "Ġprote": 3678,
      "Ġpred": 3679,
      "dis": 3680,
      "Ġmedical": 3681,
      "Ġflat": 3682,
      "acc": 3683,
      "ables": 3684,
      "Ġsuit": 3685,
      "should": 3686,
      "Ġlearned": 3687,
      "Ġeffort": 3688,
      "Ġcreate": 3689,
      "Ġitalian": 3690,
      "Ġbob": 3691,
      "Ġcred": 3692,
      "Ġcases": 3693,
      "Ġjose": 3694,
      "Ġestablished": 3695,
      "lement": 3696,
      "hest": 3697,
      "Ġoffe": 3698,
      "ental": 3699,
      "uts": 3700,
      "Ġjoin": 3701,
      "ession": 3702,
      "Ġprice": 3703,
      "Ġtheory": 3704,
      "Ġfourth": 3705,
      "road": 3706,
      "Ġque": 3707,
      "Ġreview": 3708,
      "Ġdemand": 3709,
      "Ġflowers": 3710,
      "Ġcit": 3711,
      "Ġrepe": 3712,
      "Ġoce": 3713,
      "Ġterrible": 3714,
      "istan": 3715,
      "Ġbell": 3716,
      "Ġlegs": 3717,
      "Ġpig": 3718,
      "Ġble": 3719,
      "sing": 3720,
      "Ġsilver": 3721,
      "Ġstaff": 3722,
      "Ġoccur": 3723,
      "Ġcars": 3724,
      "aren": 3725,
      "pter": 3726,
      "Ġdistribut": 3727,
      "ossible": 3728,
      "Ġevents": 3729,
      "lected": 3730,
      "Ġlouis": 3731,
      "Ġ40": 3732,
      "Ġ..": 3733,
      "Ġrichard": 3734,
      "hand": 3735,
      "Ġ2004": 3736,
      "ander": 3737,
      "liament": 3738,
      "Ġliked": 3739,
      "Ġfest": 3740,
      "Ġhotel": 3741,
      "Ġrange": 3742,
      "Ġscared": 3743,
      "Ġought": 3744,
      "Ġfault": 3745,
      "Ġcontact": 3746,
      "Ġnote": 3747,
      "lands": 3748,
      "Ġspot": 3749,
      "Ġreve": 3750,
      "law": 3751,
      "vania": 3752,
      "ously": 3753,
      "nie": 3754,
      "Ġgro": 3755,
      "Ġze": 3756,
      "rain": 3757,
      "Ġsymp": 3758,
      "Ġeating": 3759,
      "Ġchinese": 3760,
      "Ġess": 3761,
      "Ġimmediately": 3762,
      "Ġspeaking": 3763,
      "reme": 3764,
      "Ġdeli": 3765,
      "Ġmagaz": 3766,
      "ension": 3767,
      "Ġwis": 3768,
      "sey": 3769,
      "ctions": 3770,
      "Ġswim": 3771,
      "het": 3772,
      "Ġideas": 3773,
      "Ġiron": 3774,
      "everything": 3775,
      "Ġoil": 3776,
      "iles": 3777,
      "since": 3778,
      "Ġaffect": 3779,
      "Ġchic": 3780,
      "Ġdouble": 3781,
      "Ġdom": 3782,
      "oid": 3783,
      "Ġdistance": 3784,
      "Ġreading": 3785,
      "Ġly": 3786,
      "Ġanne": 3787,
      "viet": 3788,
      "Ġliber": 3789,
      "Ġolder": 3790,
      "Ġspl": 3791,
      "Ġflight": 3792,
      "Ġkore": 3793,
      "ĠĠĠĠĠĠ": 3794,
      "Ġgoal": 3795,
      "mark": 3796,
      "Ġbeyond": 3797,
      "Ġtruck": 3798,
      "Ġq": 3799,
      "aign": 3800,
      "nor": 3801,
      "Ġfighting": 3802,
      "cont": 3803,
      "Ġforeign": 3804,
      "rupt": 3805,
      "Ġconvers": 3806,
      "illa": 3807,
      "damn": 3808,
      "sl": 3809,
      "Ġpieces": 3810,
      "Ġspecific": 3811,
      "Ġstorm": 3812,
      "Ġcoach": 3813,
      "Ġjudge": 3814,
      "Ġstock": 3815,
      "Ġlying": 3816,
      "Ġmostly": 3817,
      "Ġcontinue": 3818,
      "hib": 3819,
      "Ġgir": 3820,
      "Ġcongress": 3821,
      "Ġbang": 3822,
      "Ġrussian": 3823,
      "zil": 3824,
      "Ġbrothers": 3825,
      "Ġjesus": 3826,
      "Ġlibr": 3827,
      "onel": 3828,
      "ja": 3829,
      "laugh": 3830,
      "Ġparliament": 3831,
      "stairs": 3832,
      "Ġlikely": 3833,
      "Ġscene": 3834,
      "Ġcommission": 3835,
      "gree": 3836,
      "Ġsigned": 3837,
      "Ġgolden": 3838,
      "Ġacqu": 3839,
      "ieve": 3840,
      "bles": 3841,
      "book": 3842,
      "Ġtexas": 3843,
      "Ġraised": 3844,
      "Ġ2021": 3845,
      "Ġlink": 3846,
      "Ġnetwork": 3847,
      "ems": 3848,
      "sylvania": 3849,
      "Ġjul": 3850,
      "Ġimagine": 3851,
      "Ġfemale": 3852,
      "ita": 3853,
      "Ġrules": 3854,
      "Ġgrant": 3855,
      "Ġ186": 3856,
      "Ġnecessary": 3857,
      "Ġspanish": 3858,
      "Ġbrand": 3859,
      "Ġbelieved": 3860,
      "foot": 3861,
      "win": 3862,
      "Ġcommunic": 3863,
      "Ġpractice": 3864,
      "Ġeastern": 3865,
      "Ġindividual": 3866,
      "asing": 3867,
      "lli": 3868,
      "iar": 3869,
      "Ġdiscovered": 3870,
      "Ġaddress": 3871,
      "mit": 3872,
      "Ġfresh": 3873,
      "Ġgreater": 3874,
      "Ġarrived": 3875,
      "Ġstudent": 3876,
      "Ġwedding": 3877,
      "asant": 3878,
      "Ġnotice": 3879,
      "itar": 3880,
      "Ġswed": 3881,
      "Ġweak": 3882,
      "Ġwalked": 3883,
      "wom": 3884,
      "Ġweight": 3885,
      "Ġprint": 3886,
      "Ġnation": 3887,
      "last": 3888,
      "gas": 3889,
      "gun": 3890,
      "Ġpalace": 3891,
      "known": 3892,
      "gged": 3893,
      "Ġmedia": 3894,
      "Ġwalking": 3895,
      "Ġelected": 3896,
      "rer": 3897,
      "Ġattract": 3898,
      "Ġplayers": 3899,
      "Ġchat": 3900,
      "Ġrobert": 3901,
      "Ġholding": 3902,
      "Ġtail": 3903,
      "Ġcampaign": 3904,
      "Ġsuccessful": 3905,
      "Ġaged": 3906,
      "Ġhide": 3907,
      "zen": 3908,
      "Ġcharles": 3909,
      "Ġenjoy": 3910,
      "Ġloss": 3911,
      "Ġcompl": 3912,
      "once": 3913,
      "Ġparticip": 3914,
      "Ġcath": 3915,
      "friend": 3916,
      "Ġfrog": 3917,
      "atory": 3918,
      "ighs": 3919,
      "Ġapart": 3920,
      "Ġamb": 3921,
      "Ġsmell": 3922,
      "Ġletters": 3923,
      "Ġwhis": 3924,
      "Ġhenry": 3925,
      "Ġgal": 3926,
      "Ġcart": 3927,
      "Ġrelease": 3928,
      "hur": 3929,
      "Ġlift": 3930,
      "Ġcovered": 3931,
      "Ġcode": 3932,
      "using": 3933,
      "Ġdamn": 3934,
      "Ġpolicy": 3935,
      "Ġpennsylvania": 3936,
      "Ġenter": 3937,
      "Ġtwelve": 3938,
      "Ġtrick": 3939,
      "Ġknowledge": 3940,
      "Ġtwice": 3941,
      "Ġjun": 3942,
      "think": 3943,
      "Ġscott": 3944,
      "Ġ1990": 3945,
      "Ġbound": 3946,
      "Ġvalley": 3947,
      "Ġslight": 3948,
      "Ġdirection": 3949,
      "Ġangry": 3950,
      "gi": 3951,
      "Ġba": 3952,
      "Ġenemy": 3953,
      "Ġtells": 3954,
      "Ġven": 3955,
      "Ġsle": 3956,
      "Ġ2001": 3957,
      "Ġissue": 3958,
      "Ġprem": 3959,
      "ateg": 3960,
      "Ġrab": 3961,
      "Ġsoldiers": 3962,
      "Ġeventually": 3963,
      "Ġcomed": 3964,
      "want": 3965,
      "iation": 3966,
      "Ġnar": 3967,
      "ini": 3968,
      "Ġpurpose": 3969,
      "Ġtrip": 3970,
      "Ġdick": 3971,
      "aled": 3972,
      "Ġpoet": 3973,
      "Ġwol": 3974,
      "Ġlots": 3975,
      "Ġbirds": 3976,
      "ses": 3977,
      "Ġpositive": 3978,
      "uments": 3979,
      "vert": 3980,
      "Ġmanager": 3981,
      "40": 3982,
      "Ġchallen": 3983,
      "Ġdescribed": 3984,
      "Ġfederal": 3985,
      "oe": 3986,
      "remember": 3987,
      "Ġhors": 3988,
      "history": 3989,
      "Ġmemory": 3990,
      "Ġbuck": 3991,
      "Ġsecretary": 3992,
      "Ġocean": 3993,
      "Ġow": 3994,
      "ora": 3995,
      "Ġelectric": 3996,
      "iana": 3997,
      "ware": 3998,
      "Ġsports": 3999,
      "Ġdangerous": 4000,
      "Ġjournal": 4001,
      "Ġmut": 4002,
      "Ġjoy": 4003,
      "Ġabsolutely": 4004,
      "Ġsystems": 4005,
      "ients": 4006,
      "Ġshown": 4007,
      "Ġthroughout": 4008,
      ";&": 4009,
      "Ġfranc": 4010,
      "ulf": 4011,
      "Ġrate": 4012,
      "Ġnewspap": 4013,
      "Ġsurface": 4014,
      "tering": 4015,
      "eds": 4016,
      "Ġdebut": 4017,
      "ols": 4018,
      "kes": 4019,
      "Ġstudio": 4020,
      "anda": 4021,
      "Ġ188": 4022,
      "Ġproperty": 4023,
      "apt": 4024,
      "Ġmissing": 4025,
      "Ġlucky": 4026,
      "four": 4027,
      "Ġcastle": 4028,
      "Ġstrength": 4029,
      "Ġpressure": 4030,
      "Ġreplied": 4031,
      "Ġteams": 4032,
      "Ġinno": 4033,
      "Ġ1980": 4034,
      "Ġbrazil": 4035,
      "Ġrevolution": 4036,
      "isn": 4037,
      "Ġmission": 4038,
      "aching": 4039,
      "americ": 4040,
      "Ġtal": 4041,
      "cu": 4042,
      "Ġcalls": 4043,
      "Ġproud": 4044,
      "Ġsatisf": 4045,
      "vey": 4046,
      "Ġshout": 4047,
      "izing": 4048,
      "wa": 4049,
      "little": 4050,
      "Ġfreed": 4051,
      "Ġcondition": 4052,
      "Ġthou": 4053,
      "Ġ2003": 4054,
      "fit": 4055,
      "Ġextreme": 4056,
      "ills": 4057,
      "Ġsoviet": 4058,
      "Ġplanet": 4059,
      "were": 4060,
      "turn": 4061,
      "Ġrecorded": 4062,
      "Ġlaughing": 4063,
      "five": 4064,
      "Ġeasily": 4065,
      "Ġempire": 4066,
      "boy": 4067,
      "ota": 4068,
      "Ġnick": 4069,
      "Ġfrequ": 4070,
      "Ġdisease": 4071,
      "Ġscream": 4072,
      "craft": 4073,
      "Ġshad": 4074,
      "25": 4075,
      "ashion": 4076,
      "met": 4077,
      "ado": 4078,
      "Ġscreen": 4079,
      "kin": 4080,
      "Ġscr": 4081,
      "Ġcompos": 4082,
      "oved": 4083,
      "Ġhasn": 4084,
      "Ġgradu": 4085,
      "Ġchicago": 4086,
      "Ġya": 4087,
      "isters": 4088,
      "Ġunless": 4089,
      "Ġchoose": 4090,
      "aret": 4091,
      "Ġcarol": 4092,
      "Ġkitchen": 4093,
      "make": 4094,
      "Ġdegree": 4095,
      "Ġthinks": 4096,
      "Ġqual": 4097,
      "Ġweather": 4098,
      "Ġdollars": 4099,
      "mend": 4100,
      "eg": 4101,
      "Ġast": 4102,
      "Ġbon": 4103,
      "Ġtransport": 4104,
      "Ġanywhere": 4105,
      "Ġactress": 4106,
      "Ġ2002": 4107,
      "Ġtechnology": 4108,
      "ulations": 4109,
      "Ġbasket": 4110,
      "Ġitaly": 4111,
      "Ġtheat": 4112,
      "Ġartist": 4113,
      "Ġperformance": 4114,
      "life": 4115,
      "Ġfred": 4116,
      "Ġsignific": 4117,
      "Ġlunch": 4118,
      "Ġcomplet": 4119,
      "Ġplaced": 4120,
      "claim": 4121,
      "ller": 4122,
      "ji": 4123,
      "Ġtravel": 4124,
      "Ġhouses": 4125,
      "Ġpush": 4126,
      "Ġ2022": 4127,
      "Ġexecut": 4128,
      "Ġawards": 4129,
      "Ġtend": 4130,
      "Ġentered": 4131,
      "Ġmistake": 4132,
      "nat": 4133,
      "imate": 4134,
      "Ġlee": 4135,
      "Ġleading": 4136,
      "Ġmas": 4137,
      "isions": 4138,
      "Ġculture": 4139,
      "Ġbeach": 4140,
      "Ġmars": 4141,
      "Ġjoe": 4142,
      "enth": 4143,
      "Ġbigger": 4144,
      "ios": 4145,
      "ams": 4146,
      "Ġvictim": 4147,
      "Ġcorrect": 4148,
      "Ġshoes": 4149,
      "Ġopin": 4150,
      "Ġdropped": 4151,
      "Ġindustry": 4152,
      "Ġcities": 4153,
      "Ġacademy": 4154,
      "Ġremain": 4155,
      "yl": 4156,
      "part": 4157,
      "Ġforty": 4158,
      "Ġpil": 4159,
      "Ġgrass": 4160,
      "Ġsurprise": 4161,
      "another": 4162,
      "Ġcrim": 4163,
      "sw": 4164,
      "semb": 4165,
      "Ġwriter": 4166,
      "Ġsant": 4167,
      "Ġsmart": 4168,
      "itation": 4169,
      "jack": 4170,
      "Ġmicro": 4171,
      "long": 4172,
      "Ġthomas": 4173,
      "Ġsection": 4174,
      "Ġscot": 4175,
      "Ġtun": 4176,
      "bell": 4177,
      "Ġsmith": 4178,
      "Ġfamilies": 4179,
      "Ġsin": 4180,
      "Ġcancer": 4181,
      "Ġrat": 4182,
      "Ġgay": 4183,
      "adian": 4184,
      "Ġphilos": 4185,
      "gypt": 4186,
      "Ġamazing": 4187,
      "Ġwil": 4188,
      "Ġescape": 4189,
      "Ġbye": 4190,
      "Ġpock": 4191,
      "dra": 4192,
      "Ġopportunity": 4193,
      "Ġtaught": 4194,
      "Ġincludes": 4195,
      "cise": 4196,
      "ĠâĢĺ": 4197,
      "Ġheat": 4198,
      "isl": 4199,
      "Ġcurrently": 4200,
      "Ġteach": 4201,
      "iety": 4202,
      "Ġeld": 4203,
      "Ġchannel": 4204,
      "Ġ187": 4205,
      "Ġoccup": 4206,
      "cks": 4207,
      "Ġstandard": 4208,
      "Ġdisp": 4209,
      "Ġobviously": 4210,
      "their": 4211,
      "Ġcompetition": 4212,
      "Ġruns": 4213,
      "shit": 4214,
      "Ġbomb": 4215,
      "Ġrisk": 4216,
      "itect": 4217,
      "Ġsmile": 4218,
      "Ġhole": 4219,
      "Ġlog": 4220,
      "Ġhurry": 4221,
      "perhaps": 4222,
      "Ġspr": 4223,
      "Ġbac": 4224,
      "ev": 4225,
      "Ġsubst": 4226,
      "Ġrailway": 4227,
      "Ġcommer": 4228,
      "help": 4229,
      "Ġcitiz": 4230,
      "Ġrow": 4231,
      "rugg": 4232,
      "Ġduck": 4233,
      "Ġcontribut": 4234,
      "igned": 4235,
      "Ġopening": 4236,
      "tle": 4237,
      "ette": 4238,
      "mi": 4239,
      "Ġmotor": 4240,
      "Ġsurr": 4241,
      "Ġsmaller": 4242,
      "Ġprize": 4243,
      "Ġmont": 4244,
      "pir": 4245,
      "Ġhid": 4246,
      "Ġgreatest": 4247,
      "Ġnative": 4248,
      "Ġgrowing": 4249,
      "Ġslowly": 4250,
      "Ġbless": 4251,
      "Ġdriving": 4252,
      "Ġrank": 4253,
      "fact": 4254,
      "nice": 4255,
      "osh": 4256,
      "iverse": 4257,
      "Ġleaders": 4258,
      "Ġevil": 4259,
      "Ġbeauty": 4260,
      "lend": 4261,
      "Ġstudied": 4262,
      "Ġunit": 4263,
      "Ġdun": 4264,
      "Ġorganization": 4265,
      "kins": 4266,
      "Ġworried": 4267,
      "Ġimpossible": 4268,
      "said": 4269,
      "Ġblind": 4270,
      "Ġjustice": 4271,
      "jan": 4272,
      "Ġsword": 4273,
      "Ġbecomes": 4274,
      "Ġladies": 4275,
      "Ġlaid": 4276,
      "fortun": 4277,
      "Ġmale": 4278,
      "Ġresults": 4279,
      "Ġedge": 4280,
      "Ġvictor": 4281,
      "Ġpin": 4282,
      "Ġuses": 4283,
      "Ġobser": 4284,
      "199": 4285,
      "--------": 4286,
      "anced": 4287,
      "vere": 4288,
      "rey": 4289,
      "Ġlearning": 4290,
      "also": 4291,
      "Ġforced": 4292,
      "ening": 4293,
      "Ġ1970": 4294,
      "esty": 4295,
      "Ġtypes": 4296,
      "Ġneither": 4297,
      "Ġpleasure": 4298,
      "care": 4299,
      "Ġplans": 4300,
      "Ġfirm": 4301,
      "ishop": 4302,
      "Ġagreed": 4303,
      "Ġbreath": 4304,
      "Ġhighest": 4305,
      "Ġindependent": 4306,
      "change": 4307,
      "Ġrough": 4308,
      "Ġoriginally": 4309,
      "ores": 4310,
      "Ġtape": 4311,
      "Ġheads": 4312,
      "Ġpit": 4313,
      "Ġremained": 4314,
      "Ġpra": 4315,
      "Ġparticularly": 4316,
      "run": 4317,
      "Ġstarts": 4318,
      "heart": 4319,
      "Ġwake": 4320,
      "Ġprovide": 4321,
      "Ġsinging": 4322,
      "icated": 4323,
      "Ġsaint": 4324,
      "Ġforth": 4325,
      "Ġfinger": 4326,
      "Ġflor": 4327,
      "Ġsaved": 4328,
      "Ġpicked": 4329,
      "Ġhungry": 4330,
      "Ġgenerally": 4331,
      "Ġdim": 4332,
      "Ġvote": 4333,
      "Ġexpress": 4334,
      "Ġcompanies": 4335,
      "Ġcrew": 4336,
      "Ġbread": 4337,
      "Ġtransl": 4338,
      "_,": 4339,
      "Ġsaf": 4340,
      "Ġmentioned": 4341,
      "Ġcalm": 4342,
      "Ġkar": 4343,
      "Ġquarter": 4344,
      "Ġappre": 4345,
      "Ġshape": 4346,
      "Ġprogress": 4347,
      "Ġbreakfast": 4348,
      "Ġmyster": 4349,
      "Ġol": 4350,
      "Ġwearing": 4351,
      "Ġkinds": 4352,
      "eless": 4353,
      "aches": 4354,
      "Ġterrit": 4355,
      "Ġmagazine": 4356,
      "pret": 4357,
      "Ġairport": 4358,
      "Ġplane": 4359,
      "ĠĠĠĠĠ": 4360,
      "nam": 4361,
      "Ġconcept": 4362,
      "Ġwitness": 4363,
      "Ġapplic": 4364,
      "rad": 4365,
      "Ġmagic": 4366,
      "Ġexpected": 4367,
      "Ġcrack": 4368,
      "rid": 4369,
      "icles": 4370,
      "ulous": 4371,
      "Ġbod": 4372,
      "Ġ00": 4373,
      "rael": 4374,
      "aling": 4375,
      "tained": 4376,
      "Ġexcuse": 4377,
      "Ġlibrary": 4378,
      "Ġinterview": 4379,
      "abs": 4380,
      "bered": 4381,
      "Ġcomplex": 4382,
      "Ġlarger": 4383,
      "sometimes": 4384,
      "Ġarchitect": 4385,
      "die": 4386,
      "music": 4387,
      "Ġspeech": 4388,
      "Ġstudies": 4389,
      "'.": 4390,
      "Ġpaint": 4391,
      "Ġhorses": 4392,
      "watch": 4393,
      "Ġdeb": 4394,
      "Ġlabor": 4395,
      "imp": 4396,
      "Ġegypt": 4397,
      "Ġinstr": 4398,
      "Ġweird": 4399,
      "istry": 4400,
      "Ġminus": 4401,
      "Ġfestival": 4402,
      "Ġdefinitely": 4403,
      "nis": 4404,
      "water": 4405,
      "Ġtoward": 4406,
      "arm": 4407,
      "Ġdesigned": 4408,
      "Ġstructure": 4409,
      "Ġassemb": 4410,
      "Ġstuck": 4411,
      "Ġsource": 4412,
      "Ġentertain": 4413,
      "Ġcas": 4414,
      "phan": 4415,
      "Ġbrief": 4416,
      "Ġcrowd": 4417,
      "Ġrelated": 4418,
      "iance": 4419,
      "Ġlikes": 4420,
      "Ġopt": 4421,
      "ona": 4422,
      "Ġnic": 4423,
      "Ġkne": 4424,
      "oken": 4425,
      "Ġreported": 4426,
      "Ġplants": 4427,
      "Ġfal": 4428,
      "isted": 4429,
      "oy": 4430,
      "stood": 4431,
      "again": 4432,
      "Ġstrugg": 4433,
      "Ġtu": 4434,
      "Ġconnect": 4435,
      "Ġplat": 4436,
      "clock": 4437,
      "Ġadult": 4438,
      "Ġresour": 4439,
      "fine": 4440,
      "Ġfeatures": 4441,
      "Ġmountains": 4442,
      "Ġsunday": 4443,
      "Ġsides": 4444,
      "Ġray": 4445,
      "Ġtro": 4446,
      "host": 4447,
      "Ġempty": 4448,
      "Ġarts": 4449,
      "try": 4450,
      "Ġemot": 4451,
      "aud": 4452,
      "Ġwet": 4453,
      "Ġmartin": 4454,
      "mrs": 4455,
      "Ġfright": 4456,
      "Ġorders": 4457,
      "Ġ1999": 4458,
      "Ġnegative": 4459,
      "ucle": 4460,
      "Ġdogs": 4461,
      "Ġbloody": 4462,
      "sch": 4463,
      "Ġaware": 4464,
      "mond": 4465,
      "Ġham": 4466,
      "Ġissues": 4467,
      "Ġflying": 4468,
      "Ġpretend": 4469,
      "60": 4470,
      "Ġpair": 4471,
      "Ġvirginia": 4472,
      "Ġpowerful": 4473,
      "Ġforms": 4474,
      "real": 4475,
      "Ġforever": 4476,
      "Ġrot": 4477,
      "pol": 4478,
      "Ġperformed": 4479,
      "Ġzero": 4480,
      "Ġduty": 4481,
      "eter": 4482,
      "Ġmechan": 4483,
      "Ġmexico": 4484,
      "âĻ«": 4485,
      "Ġatl": 4486,
      "Ġwindows": 4487,
      "Ġgreek": 4488,
      "Ġlack": 4489,
      "Ġtight": 4490,
      "Ġmere": 4491,
      "Ġtarget": 4492,
      "Ġacting": 4493,
      "Ġpatient": 4494,
      "Ġneighbor": 4495,
      "ost": 4496,
      "Ġturns": 4497,
      "asy": 4498,
      "Ġthick": 4499,
      "mes": 4500,
      "aning": 4501,
      "Ġhandle": 4502,
      "Ġretired": 4503,
      "Ġislands": 4504,
      "ansas": 4505,
      "door": 4506,
      "whoa": 4507,
      "gor": 4508,
      "Ġcolour": 4509,
      "ju": 4510,
      "ques": 4511,
      "Ġfilled": 4512,
      "Ġlegal": 4513,
      "hered": 4514,
      "Ġmayor": 4515,
      "Ġcorpor": 4516,
      "place": 4517,
      "Ġconditions": 4518,
      "Ġteeth": 4519,
      "Ġcopy": 4520,
      "Ġvot": 4521,
      "Ġcloud": 4522,
      "Ġupper": 4523,
      "ker": 4524,
      "love": 4525,
      "Ġmort": 4526,
      "Ġgate": 4527,
      "uten": 4528,
      "Ġsymb": 4529,
      "Ġgentlemen": 4530,
      "Ġbitch": 4531,
      "Ġscar": 4532,
      "ano": 4533,
      "Ġserve": 4534,
      "Ġafrican": 4535,
      "enn": 4536,
      "Ġrod": 4537,
      "ipped": 4538,
      "Ġdare": 4539,
      "Ġdelight": 4540,
      "Ġfrancis": 4541,
      "Ġkilling": 4542,
      "Ġfreedom": 4543,
      "both": 4544,
      "Ġrare": 4545,
      "Ġdetect": 4546,
      "Ġphysical": 4547,
      "Ġreasons": 4548,
      "Ġsake": 4549,
      "Ġstatistics": 4550,
      "bab": 4551,
      "Ġconference": 4552,
      "pha": 4553,
      "Ġcharacters": 4554,
      "Ġroll": 4555,
      "ties": 4556,
      "Ġmeasure": 4557,
      "Ġtemple": 4558,
      "Ġdocument": 4559,
      "Ġwine": 4560,
      "Ġchuck": 4561,
      "Ġnoise": 4562,
      "Ġrealize": 4563,
      "Ġfinan": 4564,
      "Ġbasically": 4565,
      "Ġdemon": 4566,
      "Ġeth": 4567,
      "cies": 4568,
      "Ġmissed": 4569,
      "Ġourselves": 4570,
      "Ġdrew": 4571,
      "Ġloud": 4572,
      "rick": 4573,
      "Ġemper": 4574,
      "Ġoffered": 4575,
      "Ġagent": 4576,
      "iano": 4577,
      "Ġbiggest": 4578,
      "leave": 4579,
      "aye": 4580,
      "rial": 4581,
      "Ġfan": 4582,
      "cles": 4583,
      "Ġhardly": 4584,
      "him": 4585,
      "Ġincrease": 4586,
      "uce": 4587,
      "nament": 4588,
      "ko": 4589,
      "tar": 4590,
      "24": 4591,
      "today": 4592,
      "Ġtransfer": 4593,
      "23": 4594,
      "Ġcrying": 4595,
      "Ġbecoming": 4596,
      "oking": 4597,
      "during": 4598,
      "Ġoperation": 4599,
      "Ġsuspect": 4600,
      "Ġtotally": 4601,
      "Ġepisode": 4602,
      "Ġconserv": 4603,
      "oring": 4604,
      "Ġwaste": 4605,
      "Ġdivided": 4606,
      "Ġmeat": 4607,
      "Ġlies": 4608,
      "urday": 4609,
      "Ġholy": 4610,
      "Ġgrown": 4611,
      "hum": 4612,
      "ola": 4613,
      "Ġwheel": 4614,
      "Ġimage": 4615,
      "Ġnav": 4616,
      "Ġordered": 4617,
      "Ġseparate": 4618,
      "many": 4619,
      "Ġcatholic": 4620,
      "Ġactive": 4621,
      "ern": 4622,
      "Ġaustralian": 4623,
      "didn": 4624,
      "Ġresponsible": 4625,
      "Ġpy": 4626,
      "Ġcamera": 4627,
      "Ġeconomic": 4628,
      "Ġ1960": 4629,
      "Ġram": 4630,
      "ckey": 4631,
      "Ġ1998": 4632,
      "Ġboo": 4633,
      "Ġcoo": 4634,
      "quar": 4635,
      "Ġbutter": 4636,
      "Ġcanadian": 4637,
      "Ġdefend": 4638,
      "Ġcritic": 4639,
      "Ġ31": 4640,
      "sur": 4641,
      "Ġdecide": 4642,
      "ads": 4643,
      "Ġspain": 4644,
      "Ġminor": 4645,
      "Ġdemocratic": 4646,
      "Ġrand": 4647,
      "Ġmetal": 4648,
      "Ġeggs": 4649,
      "Ġire": 4650,
      "Ġturning": 4651,
      "Ġna": 4652,
      "actually": 4653,
      "Ġ1996": 4654,
      "Ġremind": 4655,
      "lied": 4656,
      "Ġlawyer": 4657,
      "Ġcandid": 4658,
      "Ġgiant": 4659,
      "Ġauthority": 4660,
      "Ġodd": 4661,
      "Ġintellig": 4662,
      "Ġplain": 4663,
      "lam": 4664,
      "Ġwilling": 4665,
      "Ġpromised": 4666,
      "Ġflag": 4667,
      "Ġchairman": 4668,
      "Ġprevious": 4669,
      "Ġreplaced": 4670,
      "Ġdirectly": 4671,
      "Ġclearly": 4672,
      "Ġplanning": 4673,
      "Ġdomin": 4674,
      "pat": 4675,
      "fall": 4676,
      "nobody": 4677,
      "Ġsilly": 4678,
      "Ġseconds": 4679,
      "Ġmanagement": 4680,
      "Ġprove": 4681,
      "Ġtong": 4682,
      "Ġrome": 4683,
      "Ġrussia": 4684,
      "oned": 4685,
      "Ġtaste": 4686,
      "Ġobs": 4687,
      "Ġreligious": 4688,
      "next": 4689,
      "Ġdreams": 4690,
      "Ġninet": 4691,
      "stra": 4692,
      "Ġinn": 4693,
      "Ġears": 4694,
      "Ġkil": 4695,
      "rie": 4696,
      "Ġfocus": 4697,
      "Ġextend": 4698,
      "Ġath": 4699,
      "Ġdrug": 4700,
      "stay": 4701,
      "Ġconstruction": 4702,
      "Ġdarling": 4703,
      "happy": 4704,
      "Ġnorm": 4705,
      "Ġresist": 4706,
      "resp": 4707,
      "Ġroof": 4708,
      "Ġanti": 4709,
      "Ġfailed": 4710,
      "Ġmedicine": 4711,
      "oma": 4712,
      "dro": 4713,
      "Ġlaws": 4714,
      "eration": 4715,
      "open": 4716,
      "odes": 4717,
      "isher": 4718,
      "Ġcous": 4719,
      "kend": 4720,
      "Ġdrama": 4721,
      "Ġadvent": 4722,
      "Ġveh": 4723,
      "aging": 4724,
      "Ġbuildings": 4725,
      "Ġbast": 4726,
      "bra": 4727,
      "Ġappreci": 4728,
      "bc": 4729,
      "vis": 4730,
      "Ġisrael": 4731,
      "Ġonto": 4732,
      "Ġshock": 4733,
      "ali": 4734,
      "shut": 4735,
      "Ġrecently": 4736,
      "Ġtower": 4737,
      "Ġtyp": 4738,
      "Ġbroadcast": 4739,
      "umn": 4740,
      "Ġinfluence": 4741,
      "Ġbother": 4742,
      "Ġappointed": 4743,
      "Ġfavour": 4744,
      "Ġpattern": 4745,
      "ashed": 4746,
      "Ġnucle": 4747,
      "Ġlanguages": 4748,
      "Ġpure": 4749,
      "80": 4750,
      "Ġsurprised": 4751,
      "Ġintroduced": 4752,
      "Ġquality": 4753,
      "Ġcollection": 4754,
      "Ġteaching": 4755,
      "Ġpound": 4756,
      "ti": 4757,
      "Ġkeeping": 4758,
      "agon": 4759,
      "aughed": 4760,
      "Ġroute": 4761,
      "Ġthro": 4762,
      "Ġmaid": 4763,
      "Ġdrunk": 4764,
      "Ġproduce": 4765,
      "Ġnations": 4766,
      "nic": 4767,
      "dan": 4768,
      "rences": 4769,
      "Ġpulled": 4770,
      "Ġjourney": 4771,
      "still": 4772,
      "Ġcrown": 4773,
      "Ġarab": 4774,
      "Ġconcerned": 4775,
      "Ġdyn": 4776,
      "Ġmeas": 4777,
      "Ġbranch": 4778,
      "pres": 4779,
      "Ġweb": 4780,
      "Ġfashion": 4781,
      "zo": 4782,
      "Ġworst": 4783,
      "27": 4784,
      "iger": 4785,
      "Ġmedal": 4786,
      "ctors": 4787,
      "Ġsleeping": 4788,
      "thr": 4789,
      "Ġlistening": 4790,
      "Ġstream": 4791,
      "\"?": 4792,
      "Ġopinion": 4793,
      "Ġasleep": 4794,
      "rs": 4795,
      "Ġmap": 4796,
      "Ġprepared": 4797,
      "Ġrang": 4798,
      "Ġofficers": 4799,
      "km": 4800,
      "Ġremem": 4801,
      "Ġconstitution": 4802,
      "Ġeasier": 4803,
      "cor": 4804,
      "tery": 4805,
      "Ġangeles": 4806,
      "uch": 4807,
      "Ġsucceed": 4808,
      "Ġadop": 4809,
      "arently": 4810,
      "ault": 4811,
      "hu": 4812,
      "Ġdestroyed": 4813,
      "Ġpac": 4814,
      "Ġscore": 4815,
      "Ġphilosop": 4816,
      "Ġpink": 4817,
      "Ġflorida": 4818,
      "Ġemperor": 4819,
      "Ġtrial": 4820,
      "Ġpossibly": 4821,
      "Ġcolonel": 4822,
      "Ġbul": 4823,
      "inois": 4824,
      "ushing": 4825,
      "big": 4826,
      "cel": 4827,
      "Ġflower": 4828,
      "Ġ1995": 4829,
      "Ġpool": 4830,
      "uries": 4831,
      "rif": 4832,
      "Ġdying": 4833,
      "Ġsafety": 4834,
      "Ġhorn": 4835,
      "Ġmusical": 4836,
      "gers": 4837,
      "Ġapple": 4838,
      "Ġexperien": 4839,
      "Ġ1994": 4840,
      "Ġstan": 4841,
      "rat": 4842,
      "Ġcub": 4843,
      "idents": 4844,
      "Ġsequ": 4845,
      "Ġstro": 4846,
      "Ġmob": 4847,
      "chuck": 4848,
      "Ġkim": 4849,
      "Ġyounger": 4850,
      "aly": 4851,
      "Ġjoseph": 4852,
      "Ġactual": 4853,
      "Ġuniverse": 4854,
      "step": 4855,
      "Ġgang": 4856,
      "Ġthy": 4857,
      "Ġdamage": 4858,
      "Ġinstitute": 4859,
      "Ġplate": 4860,
      "Ġsharp": 4861,
      "Ġdiam": 4862,
      "Ġsteps": 4863,
      "lock": 4864,
      "abor": 4865,
      "abeth": 4866,
      "Ġsmoke": 4867,
      "utenant": 4868,
      "Ġcant": 4869,
      "Ġfixed": 4870,
      "Ġpor": 4871,
      "Ġcash": 4872,
      "Ġheight": 4873,
      "uals": 4874,
      "Ġdirty": 4875,
      "Ġot": 4876,
      "Ġlaughed": 4877,
      "Ġautom": 4878,
      "Ġends": 4879,
      "Ġthrew": 4880,
      "american": 4881,
      "Ġexer": 4882,
      "Ġmainly": 4883,
      "Ġash": 4884,
      "oul": 4885,
      "Ġfant": 4886,
      "ili": 4887,
      "Ġmanaged": 4888,
      "Ġcoat": 4889,
      "Ġguns": 4890,
      "Ġreligion": 4891,
      "Ġawful": 4892,
      "icient": 4893,
      "move": 4894,
      "lyn": 4895,
      "Ġdutch": 4896,
      "Ġghost": 4897,
      "Ġadvant": 4898,
      "Ġvari": 4899,
      "Ġpartner": 4900,
      "Ġ60": 4901,
      "reg": 4902,
      "Ġhonour": 4903,
      "Ġhockey": 4904,
      "Ġappears": 4905,
      "everybody": 4906,
      "ima": 4907,
      "christ": 4908,
      "Ġknowing": 4909,
      "onse": 4910,
      "Ġgift": 4911,
      "however": 4912,
      "ropical": 4913,
      "Ġwatched": 4914,
      "Ġusual": 4915,
      "Ġeverywhere": 4916,
      "orge": 4917,
      "icide": 4918,
      "Ġpocket": 4919,
      "Ġexcell": 4920,
      "Ġshowing": 4921,
      "lection": 4922,
      "Ġfingers": 4923,
      "Ġenc": 4924,
      "sk": 4925,
      "six": 4926,
      "Ġmax": 4927,
      "Ġwalls": 4928,
      "Ġillinois": 4929,
      "everyone": 4930,
      "Ġhadn": 4931,
      "ardon": 4932,
      "Ġcontinues": 4933,
      "Ġjane": 4934,
      "Ġmajesty": 4935,
      "Ġmanner": 4936,
      "shall": 4937,
      "ulty": 4938,
      "anyway": 4939,
      "Ġcircum": 4940,
      "Ġinha": 4941,
      "fection": 4942,
      "Ġloves": 4943,
      "Ġrestaur": 4944,
      "Ġbritain": 4945,
      "Ġfeels": 4946,
      "lu": 4947,
      "Ġworkers": 4948,
      "ucky": 4949,
      "Ġconversation": 4950,
      "Ġassum": 4951,
      "too": 4952,
      "Ġpapers": 4953,
      "fred": 4954,
      "Ġprovided": 4955,
      "Ġlegisl": 4956,
      "Ġscrew": 4957,
      "Ġexpression": 4958,
      "woman": 4959,
      "Ġburied": 4960,
      "Ġnap": 4961,
      "urance": 4962,
      "Ġconfir": 4963,
      "oured": 4964,
      "umber": 4965,
      "Ġ1992": 4966,
      "Ġcabin": 4967,
      "Ġreality": 4968,
      "san": 4969,
      "whatever": 4970,
      "Ġthee": 4971,
      "Ġmotion": 4972,
      "sim": 4973,
      "Ġkent": 4974,
      "Ġhills": 4975,
      "Ġoccasion": 4976,
      "Ġwrest": 4977,
      "Ġtroops": 4978,
      "itzer": 4979,
      "Ġreact": 4980,
      "itan": 4981,
      "Ġspoken": 4982,
      "Ġremains": 4983,
      "Ġgeorg": 4984,
      "Ġ1997": 4985,
      "Ġult": 4986,
      "coming": 4987,
      "Ġfeelings": 4988,
      "Ġaltern": 4989,
      "Ġfifth": 4990,
      "Ġfinancial": 4991,
      "Ġhind": 4992,
      "Ġappearance": 4993,
      "Ġstayed": 4994,
      "Ġbond": 4995,
      "Ġeh": 4996,
      "Ġfile": 4997,
      "Â¶": 4998,
      "Ġowned": 4999,
      "Ġstret": 5000,
      "Ġdepart": 5001,
      "Ġhumans": 5002,
      "Ġchemical": 5003,
      "Ġprior": 5004,
      "Ġflow": 5005,
      "Ġwave": 5006,
      "Ġlights": 5007,
      "26": 5008,
      "Ġvac": 5009,
      "Ġsugar": 5010,
      "Ġanx": 5011,
      "Ġsav": 5012,
      "Ġlocation": 5013,
      "Ġimprove": 5014,
      "Ġmate": 5015,
      "Ġupset": 5016,
      "Ġdriver": 5017,
      "Ġwinning": 5018,
      "Ġharm": 5019,
      "Ġtreatment": 5020,
      "Ġguitar": 5021,
      "Ġunits": 5022,
      "lies": 5023,
      "child": 5024,
      "Ġsli": 5025,
      "going": 5026,
      "pic": 5027,
      "Ġles": 5028,
      "Ġweekend": 5029,
      "Ġcake": 5030,
      "Ġnoticed": 5031,
      "Ġcomplic": 5032,
      "Ġtiny": 5033,
      "fire": 5034,
      "ocol": 5035,
      "lar": 5036,
      "Ġcolon": 5037,
      "Ġtraditional": 5038,
      "Ġlosing": 5039,
      "Ġshr": 5040,
      "enced": 5041,
      "inst": 5042,
      "yep": 5043,
      "Ġrequired": 5044,
      "mad": 5045,
      "theast": 5046,
      "Ġgrace": 5047,
      "Ġhook": 5048,
      "thur": 5049,
      "Ġorange": 5050,
      "Ġlands": 5051,
      "Ġrequest": 5052,
      "Ġtraff": 5053,
      "someone": 5054,
      "Ġcircle": 5055,
      "Ġfavorite": 5056,
      "Ġcere": 5057,
      "ni": 5058,
      "Ġconstant": 5059,
      "Ġcomedy": 5060,
      "Ġamericans": 5061,
      "Ġpak": 5062,
      "Ġjobs": 5063,
      "Ġcheap": 5064,
      "Ġsaturday": 5065,
      "Ġprefer": 5066,
      "Ġcontent": 5067,
      "Ġfinding": 5068,
      "Ġcredit": 5069,
      "Ġlect": 5070,
      "Ġsche": 5071,
      "Ġbottle": 5072,
      "Ġswear": 5073,
      "Ġborder": 5074,
      "Ġ1993": 5075,
      "Ġthousands": 5076,
      "Ġireland": 5077,
      "Ġrequire": 5078,
      "sen": 5079,
      "Ġpropos": 5080,
      "worth": 5081,
      "rated": 5082,
      "leg": 5083,
      "sub": 5084,
      "Ġremark": 5085,
      "sed": 5086,
      "Ġlic": 5087,
      "hang": 5088,
      "Ġchicken": 5089,
      "utions": 5090,
      "Ġwing": 5091,
      "Ġdrugs": 5092,
      "Ġraise": 5093,
      "Ġnerv": 5094,
      "Ġopposite": 5095,
      "Ġtheatre": 5096,
      "wing": 5097,
      "Ġjoke": 5098,
      "Ġdisappe": 5099,
      "ila": 5100,
      "Ġadvice": 5101,
      "Ġrise": 5102,
      "ani": 5103,
      "Ġwha": 5104,
      "aks": 5105,
      "icked": 5106,
      "Ġcells": 5107,
      "them": 5108,
      "erman": 5109,
      "Ġencour": 5110,
      "Ġsail": 5111,
      "Ġrelative": 5112,
      "Ġsevent": 5113,
      "sar": 5114,
      "Ġwid": 5115,
      "Ġterror": 5116,
      "Ġax": 5117,
      "ingu": 5118,
      "Ġcompleted": 5119,
      "fa": 5120,
      "Ġsilence": 5121,
      "Ġhelping": 5122,
      "isa": 5123,
      "Ġga": 5124,
      "Ġschol": 5125,
      "Ġthoughts": 5126,
      "Ġtournament": 5127,
      "ben": 5128,
      "Ġbare": 5129,
      "Ġmathe": 5130,
      "Ġbub": 5131,
      "rol": 5132,
      "Ġships": 5133,
      "Ġvice": 5134,
      "Ġmatters": 5135,
      "Ġindic": 5136,
      "owa": 5137,
      "Ġjail": 5138,
      "mn": 5139,
      "Ġwebs": 5140,
      "Ġreven": 5141,
      "Ġcream": 5142,
      "Ġmatches": 5143,
      "welcome": 5144,
      "Ġfought": 5145,
      "Ġability": 5146,
      "Ġdelic": 5147,
      "Ġsplit": 5148,
      "sam": 5149,
      "ading": 5150,
      "Ġdrum": 5151,
      "Ġthin": 5152,
      "Ġfruit": 5153,
      "Ġscri": 5154,
      "Ġelement": 5155,
      "Ġprimary": 5156,
      "Ġsom": 5157,
      "ira": 5158,
      "ache": 5159,
      "28": 5160,
      "Ġafford": 5161,
      "Ġeffects": 5162,
      "Ġgentleman": 5163,
      "ez": 5164,
      "Ġmike": 5165,
      "Ġfired": 5166,
      "wers": 5167,
      "Ġstatement": 5168,
      "Ġrecom": 5169,
      "Ġstruck": 5170,
      "Ġbatt": 5171,
      "Ġbasis": 5172,
      "Ġstrike": 5173,
      "Ġscotland": 5174,
      "rate": 5175,
      "Ġcloser": 5176,
      "...?": 5177,
      "Ġtap": 5178,
      "Ġgraph": 5179,
      "Ġexhib": 5180,
      "Ġtears": 5181,
      "Ġgy": 5182,
      "Ġ1991": 5183,
      "looking": 5184,
      "acle": 5185,
      "Ġassembly": 5186,
      "Ġforgotten": 5187,
      "Ġstreets": 5188,
      "Ġdaily": 5189,
      "aine": 5190,
      "Ġuseful": 5191,
      "Ġpowers": 5192,
      "such": 5193,
      "Ġterritory": 5194,
      "Ġlips": 5195,
      "master": 5196,
      "Ġcarl": 5197,
      "Ġmagn": 5198,
      "looks": 5199,
      "Ġexperiment": 5200,
      "icks": 5201,
      "Ġninety": 5202,
      "Ġlif": 5203,
      "urt": 5204,
      "Ġprevent": 5205,
      "certain": 5206,
      "Ġlatin": 5207,
      "Ġetc": 5208,
      "29": 5209,
      "pass": 5210,
      "Ġcu": 5211,
      "Ġbodies": 5212,
      "Ġpad": 5213,
      "Ġearn": 5214,
      "70": 5215,
      "yan": 5216,
      "chief": 5217,
      "Ġinternet": 5218,
      "Ġlion": 5219,
      "Ġresponse": 5220,
      "Ġweapons": 5221,
      "Ġtru": 5222,
      "Ġpresence": 5223,
      "Ġmam": 5224,
      "Ġmajority": 5225,
      "Ġcla": 5226,
      "asty": 5227,
      "Ġrecent": 5228,
      "bey": 5229,
      "bury": 5230,
      "ufact": 5231,
      "Ġbun": 5232,
      "Ġjam": 5233,
      "Ġfalling": 5234,
      "mont": 5235,
      "lfriend": 5236,
      "Ġtrail": 5237,
      "bow": 5238,
      "aland": 5239,
      "igan": 5240,
      "Ġrapid": 5241,
      "emic": 5242,
      "Ġhearing": 5243,
      "Ġknight": 5244,
      "Ġves": 5245,
      "ala": 5246,
      "Ġnewspaper": 5247,
      "Ġgrave": 5248,
      "Ġchampion": 5249,
      "Ġolympics": 5250,
      "Ġted": 5251,
      "Ġing": 5252,
      "gend": 5253,
      "Ġfilms": 5254,
      "Ġbasic": 5255,
      "Ġdesire": 5256,
      "Ġshore": 5257,
      "asc": 5258,
      "Ġ185": 5259,
      "rier": 5260,
      "Ġbringing": 5261,
      "Ġnom": 5262,
      "Ġfifteen": 5263,
      "Ġdressed": 5264,
      "Ġrent": 5265,
      "Ġawarded": 5266,
      "Ġsenior": 5267,
      "Ġtemperature": 5268,
      "Ġselected": 5269,
      "ception": 5270,
      "azz": 5271,
      "Ġreceive": 5272,
      "Ġlimited": 5273,
      "Ġshadow": 5274,
      "Ġaim": 5275,
      "Ġdivor": 5276,
      "Ġfaster": 5277,
      "Ġaccepted": 5278,
      "Ġmole": 5279,
      "flict": 5280,
      "Ġexcited": 5281,
      "Ġdetail": 5282,
      "Ġvictory": 5283,
      "sighs": 5284,
      "Ġded": 5285,
      "Ġbilly": 5286,
      "Ġwo": 5287,
      "Ġau": 5288,
      "person": 5289,
      "bill": 5290,
      "Ġdeclared": 5291,
      "although": 5292,
      "ias": 5293,
      "osen": 5294,
      "Ġnomin": 5295,
      "Ġcomment": 5296,
      "Ġdust": 5297,
      "ox": 5298,
      "45": 5299,
      "Ġbillion": 5300,
      "Ġperfectly": 5301,
      "Ġsixty": 5302,
      "Ġdestroy": 5303,
      "Ġsons": 5304,
      "olved": 5305,
      "Ġapproach": 5306,
      "mart": 5307,
      "lying": 5308,
      "ilty": 5309,
      "Ġbishop": 5310,
      "Ġotherwise": 5311,
      "lig": 5312,
      "Ġdrawing": 5313,
      "Ġthroat": 5314,
      "wan": 5315,
      "Ġpainting": 5316,
      "Ġprotest": 5317,
      "Ġactivity": 5318,
      "Ġsignal": 5319,
      "Ġspect": 5320,
      "chapter": 5321,
      "Ġdrinking": 5322,
      "Ġnineteen": 5323,
      "inated": 5324,
      "Ġentirely": 5325,
      "Ġadam": 5326,
      "Ġsolution": 5327,
      "arian": 5328,
      "Ġcontains": 5329,
      "Ġaudience": 5330,
      "Ġprotection": 5331,
      "Ġsignificant": 5332,
      "grand": 5333,
      "Ġhabit": 5334,
      "Ġfoundation": 5335,
      "Ġlone": 5336,
      "Ġchallenge": 5337,
      "Ġresources": 5338,
      "Ġsoldier": 5339,
      "Ġfields": 5340,
      "sex": 5341,
      "ysis": 5342,
      "Ġdancing": 5343,
      "hor": 5344,
      "Ġclock": 5345,
      "claimed": 5346,
      "club": 5347,
      "vy": 5348,
      "Ġtha": 5349,
      "ching": 5350,
      "Ġfriday": 5351,
      ".)": 5352,
      "eh": 5353,
      "Ġcontr": 5354,
      "fortunately": 5355,
      "Ġgoals": 5356,
      "Ġ1989": 5357,
      "35": 5358,
      "Ġconsum": 5359,
      "ett": 5360,
      "Ġcommander": 5361,
      "hon": 5362,
      "Ġ1950": 5363,
      "Ġbid": 5364,
      "Ġconnected": 5365,
      "daddy": 5366,
      "Ġedward": 5367,
      "Ġforgive": 5368,
      "Ġconcent": 5369,
      "Ġcarefully": 5370,
      "stein": 5371,
      "Ġtough": 5372,
      "star": 5373,
      "Ġsab": 5374,
      "Ġiran": 5375,
      "Ġunderstood": 5376,
      "Ġwash": 5377,
      "Ġsexual": 5378,
      "Ġflu": 5379,
      "Ġarrange": 5380,
      "Ġvent": 5381,
      "Î¿": 5382,
      "Ġscientific": 5383,
      "Ġachieve": 5384,
      "show": 5385,
      "Ġrecommend": 5386,
      "Ġkidding": 5387,
      "Ġmixed": 5388,
      "Ġhaw": 5389,
      "Ġdespite": 5390,
      "Ġmultiple": 5391,
      "ito": 5392,
      "Ġkeeps": 5393,
      "Ġapartment": 5394,
      "Ġcharlie": 5395,
      "Ġknife": 5396,
      "Ġwings": 5397,
      "Ġbeside": 5398,
      "Ġheav": 5399,
      "Ġstatus": 5400,
      "Ġcousin": 5401,
      "Ġcooper": 5402,
      ".]": 5403,
      "aming": 5404,
      "Ġharry": 5405,
      "Ġprograms": 5406,
      "Ġnotes": 5407,
      "ulated": 5408,
      "Ġplanned": 5409,
      "Ġfalls": 5410,
      "cend": 5411,
      "Ġproducer": 5412,
      "Ġmanufact": 5413,
      "zer": 5414,
      "Ġsales": 5415,
      "Ġpotential": 5416,
      "stone": 5417,
      "Ġross": 5418,
      "Ġplenty": 5419,
      "Ġfigures": 5420,
      "Ġrecording": 5421,
      "chester": 5422,
      "Ġthor": 5423,
      "yo": 5424,
      "Ġtask": 5425,
      "ais": 5426,
      "gency": 5427,
      "Ġgran": 5428,
      "Ġfully": 5429,
      "Ġgrey": 5430,
      "Ġeighty": 5431,
      "Ġcoal": 5432,
      "hurry": 5433,
      "Ġquant": 5434,
      "Ġsettled": 5435,
      "mor": 5436,
      "rant": 5437,
      "awa": 5438,
      "Ġsched": 5439,
      "laughs": 5440,
      "Ġbunch": 5441,
      "anne": 5442,
      "Ġchest": 5443,
      "Ġug": 5444,
      "urse": 5445,
      "Ġjackson": 5446,
      "laughter": 5447,
      "Ġremoved": 5448,
      "Ġpassing": 5449,
      "hall": 5450,
      "ador": 5451,
      "Ġaffairs": 5452,
      "jam": 5453,
      "Ġpleased": 5454,
      "Ġincreased": 5455,
      "peter": 5456,
      "Ġhighly": 5457,
      "izabeth": 5458,
      "Ġartists": 5459,
      "Ġrabbit": 5460,
      "ulate": 5461,
      "Ġpregn": 5462,
      "Ġactivities": 5463,
      "._": 5464,
      "mary": 5465,
      "Ġsomehow": 5466,
      "Ġparish": 5467,
      "Ġgrowth": 5468,
      "Ġmemor": 5469,
      "Ġrum": 5470,
      "Ġeditor": 5471,
      "through": 5472,
      "Ġfailure": 5473,
      "Ġseriously": 5474,
      "Ġaircraft": 5475,
      "Ġdevil": 5476,
      "Ġchanging": 5477,
      "Ġnavy": 5478,
      "Ġelements": 5479,
      "gment": 5480,
      "Ġgray": 5481,
      "class": 5482,
      "Ġfaces": 5483,
      "Ġpier": 5484,
      "Ġproceed": 5485,
      "cop": 5486,
      "Ġopera": 5487,
      "Ġgrandfather": 5488,
      "point": 5489,
      "Ġafterwards": 5490,
      "tim": 5491,
      "inde": 5492,
      "Ġslightly": 5493,
      "Ġtone": 5494,
      "198": 5495,
      "Ġcock": 5496,
      "Ġscored": 5497,
      "Ġtongue": 5498,
      "Ġplatform": 5499,
      "Ġnervous": 5500,
      "rible": 5501,
      "Ġwise": 5502,
      "Ġapolog": 5503,
      "Ġsheep": 5504,
      "Ġmail": 5505,
      "Ġroles": 5506,
      "Ġtraffic": 5507,
      "Ġpill": 5508,
      "Ġstad": 5509,
      "Ġangel": 5510,
      "Ġvirt": 5511,
      "Ġtan": 5512,
      "Ġsyn": 5513,
      "Ġtransform": 5514,
      "gie": 5515,
      "eding": 5516,
      "Ġspin": 5517,
      "Ġcomfortable": 5518,
      "Ġchosen": 5519,
      "Ġpurcha": 5520,
      "Ġstring": 5521,
      "Ġwealth": 5522,
      "Ġpaying": 5523,
      "Ġlatter": 5524,
      "Ġgirlfriend": 5525,
      "Ġarrested": 5526,
      "case": 5527,
      "lot": 5528,
      "Ġscale": 5529,
      "Ġmond": 5530,
      "Ġcounter": 5531,
      "Ġproducts": 5532,
      "Ġjoint": 5533,
      "Ġcris": 5534,
      "Ġshooting": 5535,
      "Ġgrab": 5536,
      "bring": 5537,
      "Ġavoid": 5538,
      "37": 5539,
      "Ġinvited": 5540,
      "Ġreform": 5541,
      "Ġnumer": 5542,
      "Ġupstairs": 5543,
      "according": 5544,
      "bly": 5545,
      "Ġjac": 5546,
      "Ġamy": 5547,
      "Ġpoison": 5548,
      "Ġhiding": 5549,
      "Ġjewish": 5550,
      "Ġhamm": 5551,
      "oses": 5552,
      "anything": 5553,
      "Ġdefeated": 5554,
      "lad": 5555,
      "ros": 5556,
      "Ġdoors": 5557,
      "eping": 5558,
      "Ġcommercial": 5559,
      "wide": 5560,
      "inda": 5561,
      "porary": 5562,
      "Ġextremely": 5563,
      "Ġsuggested": 5564,
      "Ġcheese": 5565,
      "Ġunderstanding": 5566,
      "Ġcalcul": 5567,
      "Ġelectron": 5568,
      "Ġscen": 5569,
      "Ġcheer": 5570,
      "Ġgeneration": 5571,
      "Ġrepublican": 5572,
      "erved": 5573,
      "izes": 5574,
      "aria": 5575,
      "Ġselling": 5576,
      "pot": 5577,
      "iring": 5578,
      "agn": 5579,
      "Ġward": 5580,
      "Ġchain": 5581,
      "Ġpossess": 5582,
      "Ġ(;": 5583,
      "note": 5584,
      "ishment": 5585,
      "Ġsweden": 5586,
      "...\"": 5587,
      "itzerland": 5588,
      "Ġbrave": 5589,
      "Ġwolf": 5590,
      "Ġwire": 5591,
      "compl": 5592,
      "Ġeleven": 5593,
      "Ġincred": 5594,
      "Ġpow": 5595,
      "Ġdisplay": 5596,
      "Ġarticle": 5597,
      "Ġrepresented": 5598,
      "Ġguilty": 5599,
      "Ġhunting": 5600,
      "Ġcircumst": 5601,
      "lord": 5602,
      "Ġpros": 5603,
      "Ġproof": 5604,
      "Ġguest": 5605,
      "Ġ1988": 5606,
      "Ġsteel": 5607,
      "apped": 5608,
      "ropri": 5609,
      "Ġcateg": 5610,
      "Ġmouse": 5611,
      "Ġmental": 5612,
      "Ġren": 5613,
      "Ġorche": 5614,
      "Ġnarrow": 5615,
      "Ġbol": 5616,
      "Ġsees": 5617,
      "Ġconnection": 5618,
      "Ġadvantage": 5619,
      "Ġshel": 5620,
      "Ġblame": 5621,
      "Ġmuslim": 5622,
      "Ġbelief": 5623,
      "Ġwars": 5624,
      "Ġbasketball": 5625,
      "Ġgaz": 5626,
      "ricult": 5627,
      "urb": 5628,
      "Ġexpand": 5629,
      "Ġcarrying": 5630,
      "Ġlabour": 5631,
      "Ġflew": 5632,
      "Ġprepar": 5633,
      "Ġ80": 5634,
      "Ġbrook": 5635,
      "Ġpakistan": 5636,
      "gging": 5637,
      "mony": 5638,
      "Ġhanging": 5639,
      "ivity": 5640,
      "\").": 5641,
      "Ġwrit": 5642,
      "Ġdip": 5643,
      "Ġowner": 5644,
      "bec": 5645,
      "Ġsilent": 5646,
      "Ġbeast": 5647,
      "Ġbaseball": 5648,
      "Ġconscious": 5649,
      "Ġlieutenant": 5650,
      "Ġsupre": 5651,
      "Ġrelax": 5652,
      "Ġoperations": 5653,
      "ds": 5654,
      "Ġasia": 5655,
      "cre": 5656,
      "Ġdraft": 5657,
      "Ġkitt": 5658,
      "Ġped": 5659,
      "Ġcarbon": 5660,
      "Ġcher": 5661,
      "Ġseasons": 5662,
      "Ġsupply": 5663,
      "Ġcolumb": 5664,
      "inter": 5665,
      "standing": 5666,
      "Ġhidden": 5667,
      "bus": 5668,
      "Ġconsist": 5669,
      ",'": 5670,
      "without": 5671,
      "Ġexchange": 5672,
      "Ġadvert": 5673,
      "Ġpriest": 5674,
      "isation": 5675,
      "Ġeve": 5676,
      "inate": 5677,
      "Ġsolid": 5678,
      "Ġveget": 5679,
      "eman": 5680,
      "Ġcriminal": 5681,
      "Ġtelephone": 5682,
      "Ġweapon": 5683,
      "works": 5684,
      "Ġos": 5685,
      "unts": 5686,
      "Ġinstance": 5687,
      "pop": 5688,
      "Ġcontest": 5689,
      "icted": 5690,
      "Ġillust": 5691,
      "ua": 5692,
      "Ġaven": 5693,
      "Ġinnocent": 5694,
      "non": 5695,
      "Ġrocks": 5696,
      "Ġrespond": 5697,
      "Ġchampionships": 5698,
      "Ġexecutive": 5699,
      "Ġgather": 5700,
      "cho": 5701,
      "Ġpiano": 5702,
      "Ġonline": 5703,
      "Ġreck": 5704,
      "Ġassistant": 5705,
      "Ġfran": 5706,
      "Ġhast": 5707,
      "Ġfeature": 5708,
      "Ġkiller": 5709,
      "Ġbuddy": 5710,
      "Ġcauses": 5711,
      "Ġescap": 5712,
      "Ġhal": 5713,
      "pers": 5714,
      "Ġwoods": 5715,
      "Ġbudget": 5716,
      "erves": 5717,
      "Ġdetails": 5718,
      "Ġfamiliar": 5719,
      "Ġnurs": 5720,
      "Ġeconomy": 5721,
      "Ġirish": 5722,
      "Ġintegr": 5723,
      "Ġscientists": 5724,
      "Ġsisters": 5725,
      "Ġrealized": 5726,
      "Ġswitzerland": 5727,
      "Ġiowa": 5728,
      "rose": 5729,
      "Ġsenate": 5730,
      "Ġcarolina": 5731,
      "Ġexpensive": 5732,
      "Ġlevels": 5733,
      "Ġchamber": 5734,
      "Ġ1987": 5735,
      "Ġapproxim": 5736,
      "Ġclimate": 5737,
      "Ġpassion": 5738,
      "Ġpolitics": 5739,
      "Ġzealand": 5740,
      "Ġblank": 5741,
      "Ġcards": 5742,
      "Ġcosts": 5743,
      "Ġsarah": 5744,
      "Ġsupported": 5745,
      "vation": 5746,
      "kill": 5747,
      "text": 5748,
      "Ġfairy": 5749,
      "Ġimpact": 5750,
      "ran": 5751,
      "Ġbron": 5752,
      "Ġjohnson": 5753,
      "early": 5754,
      "):": 5755,
      "rd": 5756,
      "Ġlabel": 5757,
      "orter": 5758,
      "Ġkat": 5759,
      "Ġgram": 5760,
      "Ġtam": 5761,
      "Ġsole": 5762,
      "Ġanth": 5763,
      "athy": 5764,
      "Ġrings": 5765,
      "Ġnut": 5766,
      "Ġremembered": 5767,
      "hin": 5768,
      "Ġclasses": 5769,
      "Ġfate": 5770,
      "Ġdeput": 5771,
      "Ġfairly": 5772,
      "ule": 5773,
      "Ġsuffe": 5774,
      "bad": 5775,
      "verse": 5776,
      "Ġadministr": 5777,
      "Ġimper": 5778,
      "Ġswitch": 5779,
      "box": 5780,
      "Ġ90": 5781,
      "Ġate": 5782,
      "gery": 5783,
      "bird": 5784,
      "Ġbreaking": 5785,
      "Ġjeff": 5786,
      "girl": 5787,
      "Ġchart": 5788,
      "Ġwondering": 5789,
      "gue": 5790,
      "ige": 5791,
      "Ġislam": 5792,
      "bridge": 5793,
      "unting": 5794,
      "Ġtra": 5795,
      "Ġsquad": 5796,
      "bb": 5797,
      "rison": 5798,
      "Ġshame": 5799,
      "Ġgods": 5800,
      "Ġstaying": 5801,
      "Ġdisappoint": 5802,
      "Ġresponsibility": 5803,
      "Ġpoly": 5804,
      "',": 5805,
      "36": 5806,
      "writer": 5807,
      "Ġstations": 5808,
      "talk": 5809,
      "Ġdread": 5810,
      "otion": 5811,
      "Ġpleasant": 5812,
      "Ġfolks": 5813,
      "Ġstadium": 5814,
      "Ġoldest": 5815,
      "jud": 5816,
      "pel": 5817,
      "Ġ1984": 5818,
      "Ġinqu": 5819,
      "fam": 5820,
      "Ġentr": 5821,
      "Ġparties": 5822,
      "Ġvessel": 5823,
      "dist": 5824,
      "together": 5825,
      "Ġshirt": 5826,
      "gle": 5827,
      "Ġhappiness": 5828,
      "Ġcapac": 5829,
      "andy": 5830,
      "Ġcrick": 5831,
      "swe": 5832,
      "Ġvision": 5833,
      "follow": 5834,
      "Ġdefense": 5835,
      "black": 5836,
      "47": 5837,
      "lause": 5838,
      "tan": 5839,
      "Ġbegins": 5840,
      "39": 5841,
      "based": 5842,
      "Ġfinds": 5843,
      "Ġhomes": 5844,
      "cur": 5845,
      "Ġidiot": 5846,
      "allow": 5847,
      "Ġdor": 5848,
      "oms": 5849,
      "Ġlaun": 5850,
      "Ġfancy": 5851,
      "pal": 5852,
      "Ġagricult": 5853,
      "Ġnormally": 5854,
      "Ġmama": 5855,
      "Ġbass": 5856,
      "thew": 5857,
      "prob": 5858,
      "alous": 5859,
      "Ġsale": 5860,
      "iest": 5861,
      "Ġliqu": 5862,
      "Ġpartners": 5863,
      "Ġshoulder": 5864,
      "white": 5865,
      "tic": 5866,
      "Ġflood": 5867,
      "Ġdesert": 5868,
      "esh": 5869,
      "Ġlit": 5870,
      "Ġbeer": 5871,
      "rical": 5872,
      "Ġpir": 5873,
      "Ġaband": 5874,
      "Ġ35": 5875,
      "mind": 5876,
      "Ġ1979": 5877,
      "Ġconsequ": 5878,
      "Ġkorea": 5879,
      "Ġindustrial": 5880,
      "low": 5881,
      "Ġvariety": 5882,
      "Ġfurn": 5883,
      "Ġlas": 5884,
      "Ġpul": 5885,
      "Ġpreviously": 5886,
      "kind": 5887,
      "Ġconflict": 5888,
      "Ġpas": 5889,
      "Ġneighbour": 5890,
      "Ġpresented": 5891,
      "omy": 5892,
      "Ġassociated": 5893,
      "rich": 5894,
      "Ġattacked": 5895,
      "Ġfalse": 5896,
      "vior": 5897,
      "acing": 5898,
      "38": 5899,
      "isse": 5900,
      "Ġnuclear": 5901,
      "vest": 5902,
      "Ġcontain": 5903,
      "brother": 5904,
      "Ġ1981": 5905,
      "inson": 5906,
      "Ġexamples": 5907,
      "Ġbackground": 5908,
      "lan": 5909,
      "Ġchose": 5910,
      "Ġsalt": 5911,
      "Ġliterature": 5912,
      "made": 5913,
      "Ġsteam": 5914,
      "Ġjersey": 5915,
      "Ġrefused": 5916,
      "din": 5917,
      "Ġtie": 5918,
      "Ġquit": 5919,
      "Ġentertainment": 5920,
      "general": 5921,
      "Ġglobal": 5922,
      "Ġneare": 5923,
      "Ġ1972": 5924,
      "Ġwaited": 5925,
      "quarters": 5926,
      "jesus": 5927,
      "Ġpale": 5928,
      "Ġ1986": 5929,
      "tot": 5930,
      "Ġsang": 5931,
      "grees": 5932,
      "Ġ/": 5933,
      "Ġtowns": 5934,
      "Ġadmit": 5935,
      "Ġ<": 5936,
      "Ġridic": 5937,
      "Ġdetermined": 5938,
      "Ġ--&": 5939,
      "Ġagreement": 5940,
      "Ġthri": 5941,
      "Ġframe": 5942,
      "Ġstated": 5943,
      "Ġfold": 5944,
      "ops": 5945,
      "Ġalc": 5946,
      "Ġ70": 5947,
      "clus": 5948,
      "Ġhelps": 5949,
      "Ġwales": 5950,
      "Ġsoftware": 5951,
      "urally": 5952,
      "Ġsettle": 5953,
      "Ġunus": 5954,
      "Ġboston": 5955,
      "197": 5956,
      "Ġbutton": 5957,
      "pered": 5958,
      "Ġsubs": 5959,
      "respond": 5960,
      "Ġdisappeared": 5961,
      "Ġscript": 5962,
      "Ġbite": 5963,
      "Ġpubl": 5964,
      "Ġsuffered": 5965,
      "Ġlt": 5966,
      "secut": 5967,
      "Ġnaz": 5968,
      "Ġequip": 5969,
      "Ġsuicide": 5970,
      "Ġoccurred": 5971,
      "Ġbanks": 5972,
      "34": 5973,
      "ipping": 5974,
      "Ġobserv": 5975,
      "gro": 5976,
      "Ġdrawn": 5977,
      "Ġhundreds": 5978,
      "Ġloose": 5979,
      "Ġgain": 5980,
      "lliant": 5981,
      "adel": 5982,
      "Ġinstrument": 5983,
      "Ġrug": 5984,
      "Ġlocked": 5985,
      "Ġdemonstr": 5986,
      "Ġ1983": 5987,
      "Ġtony": 5988,
      "enger": 5989,
      "Ġcig": 5990,
      "etic": 5991,
      "Ġdegrees": 5992,
      "ummy": 5993,
      "Ġhistorical": 5994,
      "entially": 5995,
      "Ġadvance": 5996,
      "Ġdragon": 5997,
      "count": 5998,
      "Ġlegend": 5999,
      "Ġtruly": 6000,
      "Ġcourage": 6001,
      "force": 6002,
      "Ġtouched": 6003,
      "onia": 6004,
      "Ġconvention": 6005,
      "ologist": 6006,
      "Ġsmo": 6007,
      "Ġattended": 6008,
      "paul": 6009,
      "Ġsymbol": 6010,
      "Ġhydro": 6011,
      "Ġproposed": 6012,
      "aka": 6013,
      "Ġseek": 6014,
      "Ġmaria": 6015,
      "Ġmaxim": 6016,
      "Ġ1985": 6017,
      "Ġexistence": 6018,
      "Ġmonster": 6019,
      "Ġtropical": 6020,
      "Ġfallen": 6021,
      "angle": 6022,
      "Ġ1982": 6023,
      "bby": 6024,
      "Ġincome": 6025,
      "Ġconqu": 6026,
      "Ġjimmy": 6027,
      "Ġtownship": 6028,
      "Ġyard": 6029,
      "Ġairl": 6030,
      "Ġdiss": 6031,
      "Ġera": 6032,
      "Ġstands": 6033,
      "Ġestablish": 6034,
      "sil": 6035,
      "Ġunknown": 6036,
      "greg": 6037,
      "Ġadministration": 6038,
      "Ġinhabit": 6039,
      "Ġsupreme": 6040,
      "Ġvalues": 6041,
      "Ġconsult": 6042,
      "Ġcute": 6043,
      "Ġbran": 6044,
      "Ġadmir": 6045,
      "Ġrestaurant": 6046,
      "Ġpic": 6047,
      "Ã¸": 6048,
      "Ġbible": 6049,
      "Ġreferred": 6050,
      "Ġsentence": 6051,
      "Ġobjects": 6052,
      "nah": 6053,
      "Ġkings": 6054,
      "lets": 6055,
      "Ġearned": 6056,
      "Ġexcellent": 6057,
      "hus": 6058,
      "jim": 6059,
      "Ġfel": 6060,
      "Ġhandsome": 6061,
      "Ġapparently": 6062,
      "hl": 6063,
      "inent": 6064,
      "Ġincreasing": 6065,
      "fish": 6066,
      "Ġkeys": 6067,
      "Ġoverall": 6068,
      "Ġtied": 6069,
      "Ġsetting": 6070,
      "ieved": 6071,
      "Ġelephan": 6072,
      "aki": 6073,
      "geant": 6074,
      "Ġcultural": 6075,
      "Ġviolence": 6076,
      "Ġign": 6077,
      "Ġmud": 6078,
      "Ġaspect": 6079,
      "somebody": 6080,
      "cript": 6081,
      "tra": 6082,
      "Ġbeg": 6083,
      "Ġiii": 6084,
      "aya": 6085,
      "walk": 6086,
      "Ġmile": 6087,
      "wis": 6088,
      "gra": 6089,
      "Ġconcert": 6090,
      "Ġbord": 6091,
      "Ġjuice": 6092,
      "Ġtreated": 6093,
      "ika": 6094,
      "Ġburning": 6095,
      "phe": 6096,
      "Ġbehavior": 6097,
      "Ġpha": 6098,
      "Ġjohnny": 6099,
      "Ġjr": 6100,
      "Ġvic": 6101,
      "Ġkong": 6102,
      "Ġboyfriend": 6103,
      "must": 6104,
      "Ġko": 6105,
      "Ġrooms": 6106,
      "Ġwitch": 6107,
      "Ġsevere": 6108,
      "Ġsteal": 6109,
      "rb": 6110,
      "Ġconduct": 6111,
      "Ġchris": 6112,
      "half": 6113,
      "Ġindependence": 6114,
      "500": 6115,
      "90": 6116,
      "Ġdiscover": 6117,
      "**": 6118,
      "Ġleon": 6119,
      "Ġappreciate": 6120,
      "Ġjones": 6121,
      "Ġgree": 6122,
      "Ġkansas": 6123,
      "Ġduke": 6124,
      "hamm": 6125,
      "Ġfarmer": 6126,
      "Ġbowl": 6127,
      "Ġordinary": 6128,
      "Ġengaged": 6129,
      "Ġjean": 6130,
      "Ġbenefit": 6131,
      "idae": 6132,
      "Ġclever": 6133,
      "Ġdarkness": 6134,
      "ĠâĢĶ": 6135,
      "Ġaid": 6136,
      "Ġclient": 6137,
      "Ġhoping": 6138,
      "david": 6139,
      "Ġfu": 6140,
      "later": 6141,
      "name": 6142,
      "iro": 6143,
      "Ġcompared": 6144,
      "Ġdram": 6145,
      "Ġinsurance": 6146,
      "Ġali": 6147,
      "until": 6148,
      "gian": 6149,
      "Ġrecognized": 6150,
      "Ġron": 6151,
      "mel": 6152,
      "Ġmonday": 6153,
      "Ġestim": 6154,
      "Ġportug": 6155,
      "Ġwhist": 6156,
      "iii": 6157,
      "Ġstom": 6158,
      "Ġracing": 6159,
      "phy": 6160,
      "Ġ1976": 6161,
      "Ġelder": 6162,
      "\"),": 6163,
      "48": 6164,
      "probably": 6165,
      "Ġfollows": 6166,
      "Ġestate": 6167,
      "michael": 6168,
      "enny": 6169,
      "Ġdrove": 6170,
      "Ġfeatured": 6171,
      "Ġnurse": 6172,
      "empl": 6173,
      "exactly": 6174,
      "iece": 6175,
      "Ġemergency": 6176,
      "Ġtort": 6177,
      "sters": 6178,
      "sal": 6179,
      "Ġalpha": 6180,
      "Ġsuffering": 6181,
      "Ġlimit": 6182,
      "Ġathlet": 6183,
      "Ġteen": 6184,
      "Ġserving": 6185,
      "Ġ500": 6186,
      "Ġbesides": 6187,
      "Ġmyth": 6188,
      "Ġ1978": 6189,
      "Ġanc": 6190,
      "Ġunlike": 6191,
      "pan": 6192,
      "Ġargument": 6193,
      "Ġsev": 6194,
      "Ġturkey": 6195,
      "ricane": 6196,
      "Ġreports": 6197,
      "Ġmaintain": 6198,
      "unte": 6199,
      "Ġholiday": 6200,
      "far": 6201,
      "Ġinvestigation": 6202,
      "Ġdiamond": 6203,
      "Ġborrow": 6204,
      "Ġtip": 6205,
      "Ġpope": 6206,
      "illed": 6207,
      "Ġatm": 6208,
      "aa": 6209,
      "Ġdesk": 6210,
      "Ġsurvive": 6211,
      "Ġjunior": 6212,
      "Ġages": 6213,
      "chuckles": 6214,
      "Ġhighway": 6215,
      "Ġluc": 6216,
      "Ġgoodness": 6217,
      "Ġadditional": 6218,
      "Ġdeliver": 6219,
      "state": 6220,
      "Ġsurely": 6221,
      "frank": 6222,
      "trans": 6223,
      "sect": 6224,
      "dog": 6225,
      "baby": 6226,
      "aylor": 6227,
      "Ġroot": 6228,
      "Ġrecognize": 6229,
      "Ġregional": 6230,
      "Ġarmed": 6231,
      "osphere": 6232,
      "Ġswimming": 6233,
      "Ġequipment": 6234,
      "Ġromantic": 6235,
      "Ġagency": 6236,
      "Ġvel": 6237,
      "Ġtoy": 6238,
      "etch": 6239,
      "okes": 6240,
      "Ġalan": 6241,
      "Ġdistinct": 6242,
      "Ġteachers": 6243,
      "Ġbones": 6244,
      "bled": 6245,
      "mann": 6246,
      "Ġmood": 6247,
      "tes": 6248,
      "chi": 6249,
      "Ġperman": 6250,
      "Ġwebsite": 6251,
      "oln": 6252,
      "emies": 6253,
      "Ġbastard": 6254,
      "Ġari": 6255,
      "Ġpride": 6256,
      "captain": 6257,
      "Ġemploy": 6258,
      "33": 6259,
      "Ġamend": 6260,
      "Ġproperly": 6261,
      "Ġtracks": 6262,
      "find": 6263,
      "rog": 6264,
      "Ġsigns": 6265,
      "Ġdub": 6266,
      "Ġfortune": 6267,
      "Ġsed": 6268,
      "Ġrepeated": 6269,
      "Ġcreature": 6270,
      "Ġlin": 6271,
      "Ġbreast": 6272,
      "Ġemploye": 6273,
      "Ġfolk": 6274,
      "Ġpoll": 6275,
      "mill": 6276,
      "Ġsteve": 6277,
      "eight": 6278,
      "Ġsettlement": 6279,
      "Ġmathemat": 6280,
      "isy": 6281,
      "sn": 6282,
      "roll": 6283,
      "Ġbabies": 6284,
      "Ġindividuals": 6285,
      "Ġstor": 6286,
      "Ġ1974": 6287,
      "Ġpatients": 6288,
      "Ġmig": 6289,
      "Ġfactory": 6290,
      "second": 6291,
      "Ġintelligence": 6292,
      "Ġunique": 6293,
      "Ġlisted": 6294,
      "Ġ1973": 6295,
      "Ġjung": 6296,
      "arrass": 6297,
      "wich": 6298,
      "world": 6299,
      "Ġriding": 6300,
      "usted": 6301,
      "Ġengineering": 6302,
      "--\"": 6303,
      "conscious": 6304,
      "dri": 6305,
      "100": 6306,
      "cia": 6307,
      "ingly": 6308,
      "Ġandrew": 6309,
      "196": 6310,
      "Ġgoods": 6311,
      "check": 6312,
      "ante": 6313,
      "ava": 6314,
      "anged": 6315,
      "Ġexplos": 6316,
      "Ġyo": 6317,
      "ocolate": 6318,
      "saint": 6319,
      "Ġofficially": 6320,
      "del": 6321,
      "Ġvalu": 6322,
      "Ġig": 6323,
      "Ġdies": 6324,
      "Ġnoted": 6325,
      "Ġooh": 6326,
      "oom": 6327,
      "into": 6328,
      "Ġorganiz": 6329,
      "Ġurban": 6330,
      "Ġpushed": 6331,
      "Ġmarks": 6332,
      "ropol": 6333,
      "Ġmeal": 6334,
      "Ġholds": 6335,
      "Ġanalysis": 6336,
      "Ġsuck": 6337,
      "rock": 6338,
      "Ġbush": 6339,
      "Ġbrings": 6340,
      "atherine": 6341,
      "Ġobvious": 6342,
      "Ġsomewhat": 6343,
      "Ġannual": 6344,
      "Ġcircumstances": 6345,
      "western": 6346,
      "Ġexact": 6347,
      "Ġwaters": 6348,
      "arrator": 6349,
      "Ġrivers": 6350,
      "Ġelizabeth": 6351,
      "word": 6352,
      "Ġminim": 6353,
      "Ġphilipp": 6354,
      "Ġhearts": 6355,
      "Ġacts": 6356,
      "Ġneighborhood": 6357,
      "Ġjon": 6358,
      "alex": 6359,
      "Ġimportance": 6360,
      "Ġlonely": 6361,
      "Ġmoves": 6362,
      "49": 6363,
      "Ġcraw": 6364,
      "mag": 6365,
      "Ġcommitted": 6366,
      "ij": 6367,
      "Ġalbums": 6368,
      "achus": 6369,
      "Ġdepends": 6370,
      "vol": 6371,
      "Ġasian": 6372,
      "phil": 6373,
      "etts": 6374,
      "Ġsixth": 6375,
      "Ġspell": 6376,
      "Ġdawn": 6377,
      "Ġmunicipal": 6378,
      "ternal": 6379,
      "Ġwinner": 6380,
      "Ġpacific": 6381,
      "Ġger": 6382,
      "Ġvia": 6383,
      "Ġrush": 6384,
      "Ġphilosophy": 6385,
      "Ġsne": 6386,
      "Ġturk": 6387,
      "Ġintended": 6388,
      "Ġarthur": 6389,
      "Ġsid": 6390,
      "otic": 6391,
      "Ġstole": 6392,
      "acks": 6393,
      "Ġlaunched": 6394,
      "Ġhorrible": 6395,
      "Ġwhoa": 6396,
      "Ġlaura": 6397,
      "Ġcitizens": 6398,
      "hol": 6399,
      "mur": 6400,
      "Ġexplained": 6401,
      "Ã¦": 6402,
      "Ġsmiling": 6403,
      "being": 6404,
      "Ġcorrespond": 6405,
      "Ġwand": 6406,
      "Ġ45": 6407,
      "estic": 6408,
      "Ġrepresentatives": 6409,
      "Ġphotograph": 6410,
      "Ġflash": 6411,
      "Ġ1969": 6412,
      "Ġslept": 6413,
      "Ġadvanced": 6414,
      "Ġalcoh": 6415,
      "wind": 6416,
      "iform": 6417,
      "Ġgeorgia": 6418,
      "Ġdecor": 6419,
      "Ġsolve": 6420,
      "Ġfame": 6421,
      "Ġreaction": 6422,
      "Ġsplend": 6423,
      "Ġec": 6424,
      "Ġfishing": 6425,
      "Ġapplied": 6426,
      "46": 6427,
      "Ġmich": 6428,
      "Ġ1968": 6429,
      "Ġancest": 6430,
      "Ġaside": 6431,
      "avis": 6432,
      "Ġowe": 6433,
      "front": 6434,
      "Ġeaten": 6435,
      "bid": 6436,
      "Ġbrig": 6437,
      "wal": 6438,
      "Ġcommit": 6439,
      "Ġ1975": 6440,
      "Ġatlantic": 6441,
      "Ġhunt": 6442,
      "alled": 6443,
      "Ġcommonly": 6444,
      "Ġvolunte": 6445,
      "Ġ01": 6446,
      "Ġdoctors": 6447,
      "cong": 6448,
      "Ġsurgery": 6449,
      "poor": 6450,
      "Ġnominated": 6451,
      "acher": 6452,
      "Ġnearby": 6453,
      "Ġbudd": 6454,
      "Ġbride": 6455,
      "Ġacid": 6456,
      "Ġbedroom": 6457,
      "Ġmeg": 6458,
      "onder": 6459,
      "Ġfriendly": 6460,
      "Ġtender": 6461,
      "Ġ1971": 6462,
      "Ġnoble": 6463,
      "Ġheadquarters": 6464,
      "Ġrh": 6465,
      "Ġsurround": 6466,
      "inger": 6467,
      "Ġnights": 6468,
      "Ġdescribe": 6469,
      "start": 6470,
      "Ġfrancisco": 6471,
      "Ġleaf": 6472,
      "burgh": 6473,
      "Ġsitu": 6474,
      "Ġbullet": 6475,
      "Ġsanta": 6476,
      "Ġtel": 6477,
      "Ġactions": 6478,
      "away": 6479,
      "Ġmi": 6480,
      "Ġgil": 6481,
      "ograp": 6482,
      "Ġ1977": 6483,
      "Ġbom": 6484,
      "Ġclaimed": 6485,
      "Ġtrains": 6486,
      "Ġcurious": 6487,
      "Ġiv": 6488,
      "Ġaccomp": 6489,
      "Ġprovin": 6490,
      "Ġpresidential": 6491,
      "Ġpuzz": 6492,
      "Ġtoys": 6493,
      "incoln": 6494,
      "heim": 6495,
      "Ġhousehold": 6496,
      "Ġsimon": 6497,
      "Ġrural": 6498,
      "prof": 6499,
      "Ġrhy": 6500,
      "Ġretire": 6501,
      "Ġfactor": 6502,
      "Ġzone": 6503,
      "Ġ1930": 6504,
      "Ġclosely": 6505,
      "Ġcritical": 6506,
      "01": 6507,
      "pur": 6508,
      "better": 6509,
      "tv": 6510,
      "asked": 6511,
      "Ġapplication": 6512,
      "jac": 6513,
      "Ġdesper": 6514,
      "Ġberlin": 6515,
      "Ġtools": 6516,
      "Ġbark": 6517,
      "Ġbutt": 6518,
      "Ġclar": 6519,
      "Ġtommy": 6520,
      "Ġnether": 6521,
      "Ġbeneath": 6522,
      "Ġbone": 6523,
      "Ġsubsequ": 6524,
      "Ġcompeted": 6525,
      "Ġvolume": 6526,
      "Ġembarrass": 6527,
      "tu": 6528,
      "Ġbent": 6529,
      "Ġallows": 6530,
      "Ġridiculous": 6531,
      "Ġgig": 6532,
      "Ġhay": 6533,
      "Ġfab": 6534,
      "Ġtheme": 6535,
      "Ġroads": 6536,
      "might": 6537,
      "Ġgat": 6538,
      "Ġbathroom": 6539,
      "Ġgotten": 6540,
      "Ġwhenever": 6541,
      "Ġ1940": 6542,
      "Ġspite": 6543,
      "Ġwished": 6544,
      "Ġdude": 6545,
      "Ġcord": 6546,
      "iments": 6547,
      "Ġproved": 6548,
      "Ġshell": 6549,
      "burn": 6550,
      "sho": 6551,
      "ux": 6552,
      "Ġconcern": 6553,
      "Ġmaterials": 6554,
      "Ġnorthwest": 6555,
      "Ġinsp": 6556,
      "Ġstronger": 6557,
      "Ġremaining": 6558,
      "Ġgene": 6559,
      "div": 6560,
      "Ġsingles": 6561,
      "Ġvehicle": 6562,
      "Ġconce": 6563,
      "achusetts": 6564,
      "break": 6565,
      "Ġsets": 6566,
      "Ġrig": 6567,
      "Ġstranger": 6568,
      "Ġrelations": 6569,
      "hamed": 6570,
      "Ġballs": 6571,
      "vant": 6572,
      "called": 6573,
      "nding": 6574,
      "Ġaccompl": 6575,
      "Ġsweetie": 6576,
      "Ġcomposed": 6577,
      "Ġbuzz": 6578,
      "Ġsending": 6579,
      "bro": 6580,
      "Ġ1964": 6581,
      "Ġmerely": 6582,
      "lers": 6583,
      "Ġsoil": 6584,
      "Ġalice": 6585,
      "rot": 6586,
      "wall": 6587,
      "Ġmarked": 6588,
      "william": 6589,
      "Ġfrightened": 6590,
      "cat": 6591,
      "Ġstol": 6592,
      "Ġauthorities": 6593,
      "Ġgrade": 6594,
      "Ġholly": 6595,
      "Ġbuff": 6596,
      "Ġviet": 6597,
      "Ġnumerous": 6598,
      "Ġdiscip": 6599,
      "Ġilleg": 6600,
      "kel": 6601,
      "Ġspo": 6602,
      "Ġpregnant": 6603,
      "Ġcolors": 6604,
      "Ġours": 6605,
      "Ġbrilliant": 6606,
      "Ġfoc": 6607,
      "Ġexercise": 6608,
      "Ġreward": 6609,
      "Ġproced": 6610,
      "equ": 6611,
      "32": 6612,
      "Ġpolish": 6613,
      "Ġinfant": 6614,
      "Ġugly": 6615,
      "free": 6616,
      "jul": 6617,
      "Ġenemies": 6618,
      "Ġmethods": 6619,
      "Ġregret": 6620,
      "Ġedition": 6621,
      "Ġlane": 6622,
      "Ġskills": 6623,
      "Ġukrain": 6624,
      "Ġefforts": 6625,
      "ropriate": 6626,
      "ele": 6627,
      "encies": 6628,
      "Ġwore": 6629,
      "Ġhistoric": 6630,
      "31": 6631,
      "Ġkorean": 6632,
      "Ġcav": 6633,
      "wanna": 6634,
      "Ġwins": 6635,
      "Ġcert": 6636,
      "clusion": 6637,
      "Ġshared": 6638,
      "Ġincident": 6639,
      "Ġburst": 6640,
      "Ġhired": 6641,
      "Ġcaptured": 6642,
      "Ġinspect": 6643,
      "Ġmand": 6644,
      "orpor": 6645,
      "ami": 6646,
      "Ġmath": 6647,
      "Ġrandom": 6648,
      "garet": 6649,
      "Ġbav": 6650,
      "onsense": 6651,
      "Ġelections": 6652,
      "aska": 6653,
      "Ġplot": 6654,
      "Ġcrash": 6655,
      "Ġcamer": 6656,
      "Ġapply": 6657,
      "Ġfleet": 6658,
      "Ġprogramme": 6659,
      "dar": 6660,
      "Ġdevice": 6661,
      "Ġmirror": 6662,
      "Ġphr": 6663,
      "Ġsimpl": 6664,
      "pos": 6665,
      "Ġguar": 6666,
      "Ġattacks": 6667,
      "Ġcin": 6668,
      "Ġpursu": 6669,
      "jection": 6670,
      "Ġcopies": 6671,
      "mommy": 6672,
      "Ġwow": 6673,
      "itable": 6674,
      "ateful": 6675,
      "Ġpump": 6676,
      "Ġnest": 6677,
      "una": 6678,
      "Ġcorps": 6679,
      "Ġorganized": 6680,
      "Ġrif": 6681,
      "Ġstomach": 6682,
      "dear": 6683,
      "Ġshortly": 6684,
      "Ġorchestra": 6685,
      "top": 6686,
      "osis": 6687,
      "Ġload": 6688,
      "Ġdefeat": 6689,
      ",--": 6690,
      "Ġbot": 6691,
      "Ġcore": 6692,
      "Ġconfess": 6693,
      "Ġdealing": 6694,
      "Ġanton": 6695,
      "been": 6696,
      "forget": 6697,
      "Ġharder": 6698,
      "Ġshook": 6699,
      "Ġwarning": 6700,
      "Ġlap": 6701,
      "always": 6702,
      "Ġticket": 6703,
      "commun": 6704,
      "honey": 6705,
      "iffe": 6706,
      "Ġsuspic": 6707,
      "Ġinhabitants": 6708,
      "Ġenjoyed": 6709,
      "Ġpity": 6710,
      "sell": 6711,
      "Ġrelief": 6712,
      "Ġ1967": 6713,
      "dem": 6714,
      "Ġstones": 6715,
      "Ġinstant": 6716,
      "Ġdistributed": 6717,
      "Ġadopted": 6718,
      "ifying": 6719,
      "erable": 6720,
      "Ġfuel": 6721,
      "ouri": 6722,
      "Ġdelay": 6723,
      "55": 6724,
      "each": 6725,
      "Ġ(,": 6726,
      "Ġoblig": 6727,
      "Ġwaves": 6728,
      "Ġseats": 6729,
      "Ġcruel": 6730,
      "Ġjealous": 6731,
      "Ġaer": 6732,
      "Ġinitial": 6733,
      "Ġdeputy": 6734,
      "onent": 6735,
      "Ġdna": 6736,
      "Ġdish": 6737,
      "ogue": 6738,
      "Ġdanny": 6739,
      "young": 6740,
      "Ġargent": 6741,
      "ares": 6742,
      "Ġâ": 6743,
      "Ġdow": 6744,
      "Ġshake": 6745,
      "Ġunusual": 6746,
      "Ġswing": 6747,
      "produ": 6748,
      "agues": 6749,
      "berry": 6750,
      "Ġrice": 6751,
      "Ġmichigan": 6752,
      "Ġfrag": 6753,
      "Ġdaniel": 6754,
      "mir": 6755,
      "Ġcandidate": 6756,
      "Ġsorts": 6757,
      "Ġtreasure": 6758,
      "Ġeffective": 6759,
      "Ġblocks": 6760,
      "Ġscottish": 6761,
      "Ġsel": 6762,
      "Ġthrown": 6763,
      "Ġmassachusetts": 6764,
      "Ġangle": 6765,
      "Ġgained": 6766,
      "Ġrib": 6767,
      "Ġseventy": 6768,
      "'?": 6769,
      "Ġdeck": 6770,
      "Ġark": 6771,
      "ordon": 6772,
      "aving": 6773,
      "Ġvoices": 6774,
      "Ġphoto": 6775,
      "Ġcomplicated": 6776,
      "Ġdur": 6777,
      "py": 6778,
      "omed": 6779,
      "Ġoperating": 6780,
      "cue": 6781,
      "ras": 6782,
      "Ġsnake": 6783,
      "Ġpermission": 6784,
      "Ġolympic": 6785,
      "Ġbure": 6786,
      "Ġstress": 6787,
      "iev": 6788,
      "Ġchase": 6789,
      "Ġburned": 6790,
      "Ġunable": 6791,
      "supp": 6792,
      "Ġcreation": 6793,
      "Ġidentity": 6794,
      "44": 6795,
      "Ġfond": 6796,
      "Ġattor": 6797,
      "Ġpages": 6798,
      "Ġowners": 6799,
      "Ġpilot": 6800,
      "ashing": 6801,
      "Ġspare": 6802,
      "Ġdistingu": 6803,
      "Ġmerry": 6804,
      "Ġbrid": 6805,
      "Ġstruggle": 6806,
      "Ġfeather": 6807,
      "Ġguide": 6808,
      "aws": 6809,
      "Ġell": 6810,
      "Ġpants": 6811,
      "blood": 6812,
      "esome": 6813,
      "Ġky": 6814,
      "thought": 6815,
      "Ġattitude": 6816,
      "fly": 6817,
      "inte": 6818,
      "Ġlesson": 6819,
      "Ġlam": 6820,
      "found": 6821,
      "things": 6822,
      "ructed": 6823,
      "Ġbalance": 6824,
      "fun": 6825,
      "Ġsites": 6826,
      "Ġcycl": 6827,
      "add": 6828,
      "high": 6829,
      "ati": 6830,
      "Ġchocolate": 6831,
      "ivered": 6832,
      "cription": 6833,
      "reck": 6834,
      "Ġgrandma": 6835,
      "Ġbadly": 6836,
      "Ġ1945": 6837,
      "leton": 6838,
      "Ġmoral": 6839,
      "Ġdigital": 6840,
      "Ġnetherlands": 6841,
      "phia": 6842,
      "Ġsuffer": 6843,
      "Ġlecture": 6844,
      "uls": 6845,
      "soft": 6846,
      "Ġvast": 6847,
      "Ġcreating": 6848,
      "rets": 6849,
      "Ġargu": 6850,
      "lom": 6851,
      "Ġsmooth": 6852,
      "Ġdump": 6853,
      "Ġregions": 6854,
      "uous": 6855,
      "Ġapproximately": 6856,
      "won": 6857,
      "Ġdiet": 6858,
      "doesn": 6859,
      "aints": 6860,
      "Ġohio": 6861,
      "Ġwilliams": 6862,
      "Ġrising": 6863,
      "Ġimpress": 6864,
      "oto": 6865,
      "Ġcooking": 6866,
      "Ġobserved": 6867,
      "Ġlaunch": 6868,
      "iques": 6869,
      "umes": 6870,
      "Ġrus": 6871,
      "bas": 6872,
      "mmm": 6873,
      "yet": 6874,
      "Ġassume": 6875,
      "Ġselect": 6876,
      "Ġarrow": 6877,
      "Ġconsists": 6878,
      "Ġexplan": 6879,
      "hem": 6880,
      "Ġwounded": 6881,
      "Ġreject": 6882,
      "Ġloyal": 6883,
      "Ġbuying": 6884,
      "fair": 6885,
      "dge": 6886,
      "Ġmead": 6887,
      "Ġastron": 6888,
      "Ġthir": 6889,
      "Ġbits": 6890,
      "twenty": 6891,
      "Ġhunter": 6892,
      "Ġdistribution": 6893,
      "tit": 6894,
      "Ġengage": 6895,
      "Ġdebt": 6896,
      "Ġcitizen": 6897,
      "wick": 6898,
      "dep": 6899,
      "var": 6900,
      "Ġira": 6901,
      "Ġstairs": 6902,
      "Ġleads": 6903,
      "otted": 6904,
      "outs": 6905,
      "Ġconver": 6906,
      "Ġbrad": 6907,
      "Ġoxy": 6908,
      "kar": 6909,
      "Ġcharges": 6910,
      "Ġfuneral": 6911,
      "Ġpainted": 6912,
      "besides": 6913,
      "ÂĴ": 6914,
      "Ġfiction": 6915,
      "oty": 6916,
      "Ġcricket": 6917,
      "Ġgif": 6918,
      "Ġhong": 6919,
      "organ": 6920,
      "kyo": 6921,
      "engers": 6922,
      "sat": 6923,
      "Ġkhan": 6924,
      "Ġbetray": 6925,
      "Ġpointed": 6926,
      "uma": 6927,
      "osa": 6928,
      "Ġbelongs": 6929,
      "Ġnan": 6930,
      "Ġhealthy": 6931,
      "Ġhug": 6932,
      "Ġeager": 6933,
      "Ġyards": 6934,
      "Ġspeaker": 6935,
      "Ġspending": 6936,
      "adelphia": 6937,
      "Ġtag": 6938,
      "Ġcave": 6939,
      "Ġfriendship": 6940,
      "||||": 6941,
      "Ġshan": 6942,
      "oren": 6943,
      "Ġtechnical": 6944,
      "dess": 6945,
      "james": 6946,
      "Ġreserve": 6947,
      "Ġcapable": 6948,
      "stal": 6949,
      "Ġreference": 6950,
      "Ġpant": 6951,
      "iate": 6952,
      "orig": 6953,
      "Ġvisited": 6954,
      "Ġtrump": 6955,
      "Ġtalks": 6956,
      "Ġshopping": 6957,
      "gorith": 6958,
      "Ġhurricane": 6959,
      "Ġpurple": 6960,
      "anes": 6961,
      "Ġexpert": 6962,
      "Ġdistricts": 6963,
      "Ġlamp": 6964,
      "robert": 6965,
      "icy": 6966,
      "speaking": 6967,
      "pri": 6968,
      "Ġministry": 6969,
      "Ġquietly": 6970,
      "ours": 6971,
      "Ġtrained": 6972,
      "isms": 6973,
      "ilton": 6974,
      "Ġrecon": 6975,
      "Ġaustria": 6976,
      "Ġay": 6977,
      "Ġruled": 6978,
      "Ġprincipal": 6979,
      "Ġevolution": 6980,
      "Ġmeters": 6981,
      "Ġmillions": 6982,
      "lee": 6983,
      "Ġdozen": 6984,
      "Ġmos": 6985,
      "Ġsources": 6986,
      "Ġcorporation": 6987,
      "intern": 6988,
      "Ġaffair": 6989,
      "Ġliver": 6990,
      "Ġaffected": 6991,
      "di": 6992,
      "riff": 6993,
      "Ġguests": 6994,
      "aughters": 6995,
      "Ġprisoners": 6996,
      "Ġstolen": 6997,
      "Ġwound": 6998,
      "isc": 6999,
      "Ġsquared": 7000,
      "Ġcommunication": 7001,
      "Ġsenator": 7002,
      "Ġcutting": 7003,
      "Ġak": 7004,
      "Ġmurdered": 7005,
      "Ġintroduce": 7006,
      "Ġcapacity": 7007,
      "hot": 7008,
      "Ġchapter": 7009,
      "Ġrevealed": 7010,
      "Ġmatthew": 7011,
      "42": 7012,
      "via": 7013,
      "Ġreflect": 7014,
      "Ġpersons": 7015,
      "Ġsher": 7016,
      "Ġinterrupt": 7017,
      "Ġvictoria": 7018,
      "Ġstudying": 7019,
      "Ġanswers": 7020,
      "Ġford": 7021,
      "Ġalgorith": 7022,
      "orted": 7023,
      "Ġ300": 7024,
      "gal": 7025,
      "ardo": 7026,
      "ursday": 7027,
      "iac": 7028,
      "Ġmetropol": 7029,
      "Ġdiscovery": 7030,
      "Ġrailroad": 7031,
      "Ġconclud": 7032,
      "Ġsolo": 7033,
      "Ġsecure": 7034,
      "Ġaccur": 7035,
      "Ġentrance": 7036,
      "Ġwinds": 7037,
      "soon": 7038,
      "dor": 7039,
      "Ġinterpret": 7040,
      "Ġtorn": 7041,
      "Ġfans": 7042,
      "Ġexciting": 7043,
      "sky": 7044,
      "Ġwra": 7045,
      "rend": 7046,
      "Ġwarri": 7047,
      "Ġfier": 7048,
      "Ġbos": 7049,
      "Ġextended": 7050,
      "Ġloan": 7051,
      "given": 7052,
      "Ġpipe": 7053,
      "Ġclick": 7054,
      "death": 7055,
      "Ġsink": 7056,
      "Ġgor": 7057,
      "quick": 7058,
      "Ġdeserve": 7059,
      "Ġmobile": 7060,
      "Ġhm": 7061,
      "Ġslave": 7062,
      "Ġadventure": 7063,
      "Ġtoile": 7064,
      "Ġkir": 7065,
      "Ġinterests": 7066,
      "Ġcats": 7067,
      "Ġalexander": 7068,
      "Ġpoetry": 7069,
      "Ġmoo": 7070,
      "Ġplastic": 7071,
      "Ġcenturies": 7072,
      "haw": 7073,
      "Ġtank": 7074,
      "Ġlung": 7075,
      "green": 7076,
      "Ġbold": 7077,
      "Ġelim": 7078,
      "Ġscreaming": 7079,
      "75": 7080,
      "Ġ36": 7081,
      "Ġlistened": 7082,
      "Ġcrap": 7083,
      "fits": 7084,
      "Ġclay": 7085,
      "chers": 7086,
      "zing": 7087,
      "akers": 7088,
      "aah": 7089,
      "Ġtai": 7090,
      "Ġgraduated": 7091,
      "norm": 7092,
      "Ġvon": 7093,
      "rome": 7094,
      "Ġcrossed": 7095,
      "Ġstir": 7096,
      "Ġrevol": 7097,
      "Ġmemorial": 7098,
      "Ġpoland": 7099,
      "othy": 7100,
      "chair": 7101,
      "Ġchop": 7102,
      "Ġgalax": 7103,
      "omer": 7104,
      "build": 7105,
      "Ġvictims": 7106,
      "Ġexped": 7107,
      "Ġlincoln": 7108,
      "ensity": 7109,
      "Ġgenus": 7110,
      "dou": 7111,
      "Ġsust": 7112,
      "Ġeag": 7113,
      "Ġanger": 7114,
      "Ġmatt": 7115,
      "Ġfacts": 7116,
      "Ġmagnet": 7117,
      "Ġalternative": 7118,
      "Ġsmiled": 7119,
      "Ġfunctions": 7120,
      "Ġ1966": 7121,
      "Ġmonkey": 7122,
      "Ġslide": 7123,
      "Ġbarb": 7124,
      "Ġsi": 7125,
      "alo": 7126,
      "Ġattorney": 7127,
      "Ġheavily": 7128,
      "Ġcem": 7129,
      "Ġbitter": 7130,
      "Ġreviews": 7131,
      "Ġbart": 7132,
      "ishes": 7133,
      "ondisse": 7134,
      "chant": 7135,
      "Ġglasses": 7136,
      "bri": 7137,
      "Ġpiss": 7138,
      "Ġinjury": 7139,
      "yd": 7140,
      "Ġindu": 7141,
      "Ġjess": 7142,
      "Ġscholars": 7143,
      "power": 7144,
      "Ġdisney": 7145,
      "hens": 7146,
      "Ġjerry": 7147,
      "Ġreco": 7148,
      "Ġdrag": 7149,
      "Ġprofession": 7150,
      "Ġatmosphere": 7151,
      "Ġshoulders": 7152,
      "Ġ1963": 7153,
      "ĠÂ£": 7154,
      "Ġexec": 7155,
      "ington": 7156,
      "Ġinner": 7157,
      "Ġjumped": 7158,
      "hh": 7159,
      "Ġchap": 7160,
      "Ġandy": 7161,
      "Ġengineer": 7162,
      "Ġtaylor": 7163,
      "ordan": 7164,
      "Ġchildhood": 7165,
      "Ġsupper": 7166,
      "lou": 7167,
      "Ġitems": 7168,
      "Ġprojects": 7169,
      "Ġexha": 7170,
      "Ġfigured": 7171,
      "Ġsucceeded": 7172,
      "Ġbranches": 7173,
      "rec": 7174,
      "Ġoak": 7175,
      "iders": 7176,
      "Ġbund": 7177,
      "rob": 7178,
      "Ġmystery": 7179,
      "iture": 7180,
      "Ġswedish": 7181,
      "Ġbrazilian": 7182,
      "Ġassign": 7183,
      "tical": 7184,
      "Ġcompar": 7185,
      "Ġstarring": 7186,
      "Ġwidely": 7187,
      "ums": 7188,
      "Ġbarn": 7189,
      "fight": 7190,
      "ulpt": 7191,
      "Ġpractical": 7192,
      "Ġformal": 7193,
      "Ġmissouri": 7194,
      "Ġvisual": 7195,
      "Ġbureau": 7196,
      "99": 7197,
      "lon": 7198,
      "Ġpip": 7199,
      "owing": 7200,
      "Ġwicked": 7201,
      "eder": 7202,
      "narrator": 7203,
      "pent": 7204,
      "Ġtheater": 7205,
      "Ġrefe": 7206,
      "Ġmodels": 7207,
      "Ġcolumbia": 7208,
      "uled": 7209,
      "Ġinitially": 7210,
      "Ġliberal": 7211,
      "Ġchecked": 7212,
      "Ġregist": 7213,
      "Ġmoments": 7214,
      "Ġstops": 7215,
      "Ġconfused": 7216,
      "Ġ1965": 7217,
      "Ġarranged": 7218,
      "Ġoxford": 7219,
      "Ġmexican": 7220,
      "stud": 7221,
      "Ġlover": 7222,
      "oked": 7223,
      "Ġreturning": 7224,
      "Ġrescue": 7225,
      "Ġthunder": 7226,
      "urg": 7227,
      "ordinary": 7228,
      "Ġdecisions": 7229,
      "Ġprovides": 7230,
      "41": 7231,
      "Ġclin": 7232,
      "Ġcollabor": 7233,
      "adesh": 7234,
      "Ġdumb": 7235,
      "Ġcreek": 7236,
      "Ġpear": 7237,
      "Ġnuts": 7238,
      "load": 7239,
      "Ġsubjects": 7240,
      "Ġdaughters": 7241,
      "Ġdiscussion": 7242,
      "Ġsorrow": 7243,
      "Ġcommunities": 7244,
      "ouch": 7245,
      "Ġreput": 7246,
      "Ġconfidence": 7247,
      "Ġ1948": 7248,
      "Ġwrestling": 7249,
      "Ġcrisis": 7250,
      "Ġfasc": 7251,
      "Ġrick": 7252,
      "Ġremove": 7253,
      "uesday": 7254,
      "doctor": 7255,
      "Ġsacrif": 7256,
      "Ġknees": 7257,
      "Ġclaims": 7258,
      "Ġheaded": 7259,
      "Ġsooner": 7260,
      "upon": 7261,
      "mouth": 7262,
      "Ġinstruct": 7263,
      "Ġsurrounded": 7264,
      "iley": 7265,
      "ela": 7266,
      "yard": 7267,
      "Ġmit": 7268,
      "Ġcovers": 7269,
      "pson": 7270,
      "Ġsouthwest": 7271,
      "Ġclassic": 7272,
      "Ġdave": 7273,
      "Ġresistance": 7274,
      "Ġbelt": 7275,
      "children": 7276,
      "Ġjury": 7277,
      "Ġringing": 7278,
      "Ġadvis": 7279,
      "Ġgathered": 7280,
      "iat": 7281,
      "Ġviews": 7282,
      "Ġcoord": 7283,
      "Ġservant": 7284,
      "Ġknocked": 7285,
      "Â°": 7286,
      "Ġcot": 7287,
      "Ġbeating": 7288,
      "stit": 7289,
      "Ġpron": 7290,
      "Ġemm": 7291,
      "agan": 7292,
      "Ġputs": 7293,
      "Ġpotato": 7294,
      "Ġprepare": 7295,
      "Ġinjured": 7296,
      "super": 7297,
      "Ġpapa": 7298,
      "Ġlux": 7299,
      "Ġescaped": 7300,
      "Ġchoo": 7301,
      "Ġsergeant": 7302,
      "Ġtries": 7303,
      "jun": 7304,
      "mission": 7305,
      "Ġbc": 7306,
      "olk": 7307,
      "Ġdrown": 7308,
      "mid": 7309,
      "osaur": 7310,
      "Ġconvin": 7311,
      "sea": 7312,
      "Ġ\"\"": 7313,
      "mers": 7314,
      "Ġske": 7315,
      "43": 7316,
      "Ġsoph": 7317,
      "eness": 7318,
      "iva": 7319,
      "Ġcanton": 7320,
      "mod": 7321,
      "Ġnotable": 7322,
      "Ġdepth": 7323,
      "Ġissued": 7324,
      "Ġenvironmental": 7325,
      "Ġjews": 7326,
      "george": 7327,
      "Ġminds": 7328,
      "Ġcampus": 7329,
      "Ġscheme": 7330,
      "Ġmachines": 7331,
      "Ġadministrative": 7332,
      "anta": 7333,
      "Ġinstitution": 7334,
      "Ġceremony": 7335,
      "cers": 7336,
      "uan": 7337,
      "Ġstamp": 7338,
      "Ġcritics": 7339,
      "Ġreduced": 7340,
      "Ġarchitecture": 7341,
      "onents": 7342,
      "Ġletting": 7343,
      "Ġcombined": 7344,
      "Ġinfin": 7345,
      "Ġpossibility": 7346,
      "Ġspiritual": 7347,
      "itage": 7348,
      "Ġgoo": 7349,
      "Ġnegot": 7350,
      "Ġprec": 7351,
      "song": 7352,
      "Ġdefence": 7353,
      "Ġtests": 7354,
      "ancing": 7355,
      "Ġwalter": 7356,
      "Ġopposition": 7357,
      "Ġhorror": 7358,
      "scream": 7359,
      "Ġkr": 7360,
      "except": 7361,
      "Ġstraw": 7362,
      "Ġpitch": 7363,
      "Ġbegun": 7364,
      "Ġentry": 7365,
      "Ġclubs": 7366,
      "Ġdeeply": 7367,
      "Ġalcohol": 7368,
      "Ġstab": 7369,
      "seven": 7370,
      "Ġpassage": 7371,
      "Ġappeal": 7372,
      "Ġinternal": 7373,
      "ccer": 7374,
      "Ġgranted": 7375,
      "etime": 7376,
      "cience": 7377,
      "Ġphiladelphia": 7378,
      "Ġbern": 7379,
      "toms": 7380,
      "Ġconservative": 7381,
      "Ġmah": 7382,
      "ailed": 7383,
      "fif": 7384,
      "pher": 7385,
      "Ġcod": 7386,
      "Ġimpression": 7387,
      "Ġhousing": 7388,
      "Ġhits": 7389,
      "Ġcops": 7390,
      "Ġmassive": 7391,
      "Ġdifficulty": 7392,
      ";/": 7393,
      "Ġrepresentative": 7394,
      "56": 7395,
      "vid": 7396,
      "Ġbreathing": 7397,
      "ographer": 7398,
      "lley": 7399,
      "olf": 7400,
      "sweet": 7401,
      "Ġillness": 7402,
      "Ġbrian": 7403,
      "Ġuser": 7404,
      "nedy": 7405,
      "Ġoxygen": 7406,
      "Ġreplace": 7407,
      "Ġaqu": 7408,
      "Ġawake": 7409,
      "uge": 7410,
      "Ġideal": 7411,
      "Ġ32": 7412,
      "nesday": 7413,
      "pretty": 7414,
      "inals": 7415,
      "Ġbeet": 7416,
      "Ġbeck": 7417,
      "ĠĠĠĠĠĠĠĠĠĠĠĠĠĠĠĠĠĠĠĠĠĠĠĠĠĠĠĠĠĠĠĠ": 7418,
      "Ġcustomers": 7419,
      "press": 7420,
      "umps": 7421,
      "Ġ1920": 7422,
      "gger": 7423,
      "cam": 7424,
      "Ġneut": 7425,
      "rons": 7426,
      "Ġrear": 7427,
      "urd": 7428,
      "close": 7429,
      "==": 7430,
      "Ġinsect": 7431,
      "Ġpersonally": 7432,
      "Ġcharged": 7433,
      "Ġstrict": 7434,
      "apping": 7435,
      "Ġevident": 7436,
      "Ġscare": 7437,
      "Ġnaturally": 7438,
      "Ġ1962": 7439,
      "Ġboats": 7440,
      "Ġcolumn": 7441,
      "Ġ1956": 7442,
      "Ġsplendid": 7443,
      "cules": 7444,
      "Ġimperial": 7445,
      "ounce": 7446,
      "Ġincredible": 7447,
      "Ġashamed": 7448,
      "Ġprisoner": 7449,
      "itors": 7450,
      "owed": 7451,
      "Ġsculpt": 7452,
      "Ġdetective": 7453,
      "Ġsig": 7454,
      "Ġintention": 7455,
      "ĠÂ¶": 7456,
      "Ġnecessarily": 7457,
      "Ġfoolish": 7458,
      "Ġnaked": 7459,
      "Ġstim": 7460,
      "Ġending": 7461,
      "Ġconfirmed": 7462,
      "absolutely": 7463,
      "mate": 7464,
      "tor": 7465,
      "Ġcass": 7466,
      "entions": 7467,
      "thy": 7468,
      "ategy": 7469,
      "fre": 7470,
      "Ġboots": 7471,
      "Ġdriven": 7472,
      "Ġjournalist": 7473,
      "Ġfever": 7474,
      "Ġgrateful": 7475,
      "Ġeric": 7476,
      "Ġprinciple": 7477,
      "Ġleap": 7478,
      "Ġbavaria": 7479,
      "Ġprecious": 7480,
      "none": 7481,
      "à¸": 7482,
      "Ġinput": 7483,
      "Ġsty": 7484,
      "Ġroger": 7485,
      "Ġcape": 7486,
      "Ġwag": 7487,
      "erg": 7488,
      "Ġgoodbye": 7489,
      "Ġgrav": 7490,
      "between": 7491,
      "Ġimages": 7492,
      "Ġimmig": 7493,
      "rac": 7494,
      "enough": 7495,
      "Ġdepos": 7496,
      "Ġreckon": 7497,
      "Ġcontext": 7498,
      "Ġshift": 7499,
      "Ġsusan": 7500,
      "Ġwilson": 7501,
      "Ġtale": 7502,
      "Ġgab": 7503,
      "Ġpersu": 7504,
      "Ġpicking": 7505,
      "Ġconstitu": 7506,
      "Ġtab": 7507,
      "course": 7508,
      "Ġtickets": 7509,
      "Ġtennis": 7510,
      "same": 7511,
      "rics": 7512,
      "Ġrud": 7513,
      "Ġseparated": 7514,
      "Ġ1958": 7515,
      "zes": 7516,
      "Ġdecre": 7517,
      "Ġdefined": 7518,
      "Ġhoriz": 7519,
      "Ġcomputers": 7520,
      "Ġbbc": 7521,
      "Ġrode": 7522,
      "Ġ1939": 7523,
      "Ġinspired": 7524,
      "ndy": 7525,
      "Ġuniform": 7526,
      "Ġelephant": 7527,
      "lete": 7528,
      "enses": 7529,
      "Ġ180": 7530,
      "Ġiniti": 7531,
      "Ġdat": 7532,
      "Ġsoup": 7533,
      "Ġpup": 7534,
      "Ġouter": 7535,
      "Ġpersonality": 7536,
      "Ġdepression": 7537,
      "Ġepisodes": 7538,
      "Ġdating": 7539,
      "Ġkentucky": 7540,
      "Ġappropriate": 7541,
      "log": 7542,
      "Ġslo": 7543,
      "âĢİ": 7544,
      "Ġvotes": 7545,
      "Ġrevenge": 7546,
      "Ġigno": 7547,
      "Ġpenal": 7548,
      "Ġpour": 7549,
      "Ġpoem": 7550,
      "ustration": 7551,
      "Ġarticles": 7552,
      "Ġclimb": 7553,
      "Ġcabinet": 7554,
      "Ġprayer": 7555,
      "Ġimplement": 7556,
      "agger": 7557,
      "Ġshir": 7558,
      "inton": 7559,
      "Ġorganizations": 7560,
      "easy": 7561,
      "usting": 7562,
      "tri": 7563,
      "uncle": 7564,
      "Ġstrategy": 7565,
      "Ġtool": 7566,
      "Ġoccas": 7567,
      "Ġliterally": 7568,
      "Ġpermanent": 7569,
      "ĠĠĠĠĠĠĠ": 7570,
      "Ġ1961": 7571,
      "dney": 7572,
      "Ġ1947": 7573,
      "Ġdisappear": 7574,
      "uct": 7575,
      "nda": 7576,
      "oria": 7577,
      "Ġmosc": 7578,
      "plus": 7579,
      "Ġextent": 7580,
      "Ġvideos": 7581,
      "Ġmarine": 7582,
      "Ġlifted": 7583,
      "Ġexclaimed": 7584,
      "Ġmusician": 7585,
      "angers": 7586,
      "Ġcontrovers": 7587,
      "Ġphysics": 7588,
      "hab": 7589,
      "Ġ1957": 7590,
      "Ġopposed": 7591,
      "Ġmcc": 7592,
      "Ġjur": 7593,
      "Ġwondered": 7594,
      "Ġexisting": 7595,
      "/&": 7596,
      "Ġworn": 7597,
      "Ġabsor": 7598,
      "Ġthrowing": 7599,
      "Ġavenue": 7600,
      "Ġka": 7601,
      "Ġproperties": 7602,
      "Ġtub": 7603,
      "Ġcombination": 7604,
      "Ġshower": 7605,
      "Ġhurts": 7606,
      "rum": 7607,
      "Ġtokyo": 7608,
      "Ġreign": 7609,
      "Ġinvented": 7610,
      "Ġcigaret": 7611,
      "bage": 7612,
      "Ġworship": 7613,
      "Ġtypical": 7614,
      "Ġnowhere": 7615,
      "Ġsteven": 7616,
      "Ġviolent": 7617,
      "rus": 7618,
      "nesota": 7619,
      "Ġrope": 7620,
      "Ġidentified": 7621,
      "Ġsara": 7622,
      "goodbye": 7623,
      "Ġjazz": 7624,
      "Ġprecise": 7625,
      "Ġpunishment": 7626,
      "Ġvul": 7627,
      "iped": 7628,
      "Ġpole": 7629,
      "zech": 7630,
      "Ġgrandmother": 7631,
      "Ġryan": 7632,
      "uri": 7633,
      "Ġ1944": 7634,
      "total": 7635,
      "97": 7636,
      "det": 7637,
      "dire": 7638,
      "graph": 7639,
      "Ġdates": 7640,
      "Ġanno": 7641,
      "Ġthrone": 7642,
      "Ġ75": 7643,
      "Ġleadership": 7644,
      "international": 7645,
      "ghan": 7646,
      "Ġdio": 7647,
      "Ġenorm": 7648,
      "Ġthursday": 7649,
      "Ġshield": 7650,
      "Ġmoscow": 7651,
      "ints": 7652,
      "Ġdomestic": 7653,
      "Ġrust": 7654,
      "Ġeighteen": 7655,
      "Ġcycle": 7656,
      "inating": 7657,
      "Ġmarie": 7658,
      "hetic": 7659,
      "Ġvaluable": 7660,
      "home": 7661,
      "making": 7662,
      "Ġstable": 7663,
      "Ġbetty": 7664,
      "Ġanxious": 7665,
      "Ġattached": 7666,
      "Ġpositions": 7667,
      "Ġsoccer": 7668,
      "Ġrolling": 7669,
      "lah": 7670,
      "Ġtwe": 7671,
      "Ġunderground": 7672,
      "Ġanaly": 7673,
      "Ġconvinced": 7674,
      "Ġdynasty": 7675,
      "Ġfc": 7676,
      "Ġmetropolitan": 7677,
      "onto": 7678,
      "Ġbree": 7679,
      "Ġmercy": 7680,
      "ounced": 7681,
      "Ġkilomet": 7682,
      "Ġuns": 7683,
      "Ġfrequently": 7684,
      "ifer": 7685,
      "Ġuncom": 7686,
      "Ġsolar": 7687,
      "Ġbeings": 7688,
      "glas": 7689,
      "Ġbike": 7690,
      "ova": 7691,
      "ĠâĻ«": 7692,
      "Ġmemories": 7693,
      "Ġcad": 7694,
      "Ġnonsense": 7695,
      "Ġoccupied": 7696,
      "Ġiraq": 7697,
      "Ġmargaret": 7698,
      "Ġkinda": 7699,
      "Ġvolcan": 7700,
      "ggy": 7701,
      "Ġreply": 7702,
      "Ġraj": 7703,
      "Ġmerc": 7704,
      "Ġheritage": 7705,
      "gines": 7706,
      "Ġofficials": 7707,
      "hop": 7708,
      "Ġdial": 7709,
      "Ġkin": 7710,
      "Ġtesting": 7711,
      "Ġbacter": 7712,
      "Ġgolf": 7713,
      "Ġdescend": 7714,
      "Ġinher": 7715,
      "arn": 7716,
      "unless": 7717,
      "especially": 7718,
      "Ġhamp": 7719,
      "Ġindians": 7720,
      "Ġwhit": 7721,
      "tomorrow": 7722,
      "Ġsatisfied": 7723,
      "Ġlately": 7724,
      "Ġsacred": 7725,
      "Ġwriters": 7726,
      "Ġjay": 7727,
      "Ġmiller": 7728,
      "Ġillegal": 7729,
      "jose": 7730,
      "aver": 7731,
      "east": 7732,
      "uther": 7733,
      "sis": 7734,
      "Ġthorough": 7735,
      "Ġbears": 7736,
      "Ġalt": 7737,
      "Ġacquired": 7738,
      "mil": 7739,
      "Ġintellect": 7740,
      "Ġtransferred": 7741,
      "Ġkeen": 7742,
      "Ġore": 7743,
      "Ġtrait": 7744,
      "Ġsurvey": 7745,
      "eat": 7746,
      "elect": 7747,
      "town": 7748,
      "Ġsna": 7749,
      "astern": 7750,
      "Ġpasses": 7751,
      "iner": 7752,
      "Ġregiment": 7753,
      "Ġgarage": 7754,
      "Ġacademic": 7755,
      "Ġstores": 7756,
      "Ġchurches": 7757,
      "Ġpond": 7758,
      "ema": 7759,
      "anth": 7760,
      "nold": 7761,
      "Ġbaron": 7762,
      "bits": 7763,
      "Ġmall": 7764,
      "best": 7765,
      "Ġpardon": 7766,
      "Ġmans": 7767,
      "beat": 7768,
      "Ġgreatly": 7769,
      "Ġcontrolled": 7770,
      "round": 7771,
      "weight": 7772,
      "Ġsheet": 7773,
      "umbling": 7774,
      "].": 7775,
      "kim": 7776,
      "Ġ1949": 7777,
      "Ġdollar": 7778,
      "Ġopens": 7779,
      "Ġassault": 7780,
      "Ġdescription": 7781,
      "Ġtear": 7782,
      "Ġminnesota": 7783,
      "Ġhoped": 7784,
      "Ġ1942": 7785,
      "Ġ1952": 7786,
      "opher": 7787,
      "Ġaz": 7788,
      "olas": 7789,
      "Ġerror": 7790,
      "Ġoperated": 7791,
      "Ġgam": 7792,
      "Ġraces": 7793,
      "Ġdownstairs": 7794,
      "Ġarrive": 7795,
      "Ġspark": 7796,
      "shine": 7797,
      "jor": 7798,
      "Ġfoss": 7799,
      "Ġmadam": 7800,
      "blue": 7801,
      "tt": 7802,
      "Ġaston": 7803,
      "Ġsupporting": 7804,
      "much": 7805,
      "Ġguards": 7806,
      "ippi": 7807,
      "Ġregarded": 7808,
      "nels": 7809,
      "Ġwy": 7810,
      "Ġexpecting": 7811,
      "Ġlouisiana": 7812,
      "Ġtunnel": 7813,
      "erick": 7814,
      "Ġfisher": 7815,
      "mac": 7816,
      "quite": 7817,
      "liver": 7818,
      "Ġstrateg": 7819,
      "viously": 7820,
      "Ġtiss": 7821,
      "Ġlaughter": 7822,
      "Ġrestrict": 7823,
      "Ġcreatures": 7824,
      "Ġelectricity": 7825,
      "Ġliquid": 7826,
      "Ġexplanation": 7827,
      "Ġpulling": 7828,
      "Ġbrush": 7829,
      "Ġmanip": 7830,
      "Ġgenius": 7831,
      "Ġadmitted": 7832,
      "acles": 7833,
      "Ġtrace": 7834,
      "Ġtuesday": 7835,
      "neath": 7836,
      "Ġsweetheart": 7837,
      "Ġwoo": 7838,
      "Ġwithdra": 7839,
      "Ġlewis": 7840,
      "pected": 7841,
      "Ġcausing": 7842,
      "Ġgreece": 7843,
      "agers": 7844,
      "pin": 7845,
      "Ġker": 7846,
      "Ġskill": 7847,
      "Ġvillages": 7848,
      "Ġcatal": 7849,
      "Ġpromoted": 7850,
      "Ġaustrian": 7851,
      "Ġholes": 7852,
      "Ġwishes": 7853,
      "allel": 7854,
      "Ġsaving": 7855,
      "Ġequation": 7856,
      "mine": 7857,
      "Ġasks": 7858,
      "Ġcathed": 7859,
      "58": 7860,
      "itched": 7861,
      "rill": 7862,
      "Ġtrap": 7863,
      "Ġsixteen": 7864,
      "Ġshoe": 7865,
      "ku": 7866,
      "Ġtwin": 7867,
      "Ġabsolute": 7868,
      "onic": 7869,
      "pack": 7870,
      "Ġroy": 7871,
      "pull": 7872,
      "imately": 7873,
      "Ġfiles": 7874,
      "Ġprotected": 7875,
      "Î±": 7876,
      "Ġregister": 7877,
      "Ġmighty": 7878,
      "Ġclassical": 7879,
      "Ġneat": 7880,
      "cely": 7881,
      "abad": 7882,
      "_.": 7883,
      "Ġfi": 7884,
      "Ġfulf": 7885,
      "Ġdeveloping": 7886,
      "Ġexplore": 7887,
      "Ġinfect": 7888,
      "icing": 7889,
      "Ġdisg": 7890,
      "Ġlessons": 7891,
      "Ġsoutheast": 7892,
      "Ġ1954": 7893,
      "Ġspirits": 7894,
      "Ġtalent": 7895,
      "Ġphase": 7896,
      "Ġtiger": 7897,
      "includ": 7898,
      "Ġworldwide": 7899,
      "tense": 7900,
      "Ġalongside": 7901,
      "Ġrapidly": 7902,
      "sun": 7903,
      "vard": 7904,
      "Ġfaint": 7905,
      "Ġ1941": 7906,
      "Ġdefinition": 7907,
      "pective": 7908,
      "Ġphotos": 7909,
      "uate": 7910,
      "Ġ1959": 7911,
      "Ġtypically": 7912,
      "Ġsoap": 7913,
      "Ġwheels": 7914,
      "Ġessentially": 7915,
      "Ġcomposer": 7916,
      "Ġacted": 7917,
      "Ġabroad": 7918,
      "Ġbreathe": 7919,
      "Ġtoilet": 7920,
      "59": 7921,
      "Ġtas": 7922,
      "Ġ+": 7923,
      "Ġais": 7924,
      "Ġnas": 7925,
      "Ġstephen": 7926,
      "Ġwednesday": 7927,
      "Ġabandoned": 7928,
      "Ġchin": 7929,
      "Ġusers": 7930,
      "Ġadapt": 7931,
      "Ġfounder": 7932,
      "Ġswallow": 7933,
      "Ġmaximum": 7934,
      "hs": 7935,
      "mun": 7936,
      "Ġsession": 7937,
      "Ġaccused": 7938,
      "Ġportion": 7939,
      "Ġrag": 7940,
      "Ġboom": 7941,
      "Ġ38": 7942,
      "crow": 7943,
      "sud": 7944,
      "atically": 7945,
      "Ġkal": 7946,
      "laughing": 7947,
      "Ġcrimes": 7948,
      "Ġinteract": 7949,
      "Ġmississ": 7950,
      "Ġqueens": 7951,
      "Ġbunny": 7952,
      "bac": 7953,
      "rep": 7954,
      "atures": 7955,
      "Ġstandards": 7956,
      "Ġeducational": 7957,
      "Ġrepeat": 7958,
      "uits": 7959,
      "ori": 7960,
      "president": 7961,
      "derer": 7962,
      "Ġ1946": 7963,
      "atell": 7964,
      "Ġwooden": 7965,
      "Ġfantastic": 7966,
      "abel": 7967,
      "Ġsecondary": 7968,
      "kespe": 7969,
      "bast": 7970,
      "Ġcattle": 7971,
      "Ġselection": 7972,
      "ders": 7973,
      "wart": 7974,
      "Ġawesome": 7975,
      "ensions": 7976,
      "Ġswift": 7977,
      "Ġcommunist": 7978,
      "Ġbags": 7979,
      "Ġms": 7980,
      "Ġnag": 7981,
      "Ġheading": 7982,
      "Ġsemi": 7983,
      "Ġalarm": 7984,
      "Ġmessages": 7985,
      "Ġtreaty": 7986,
      "Ġversions": 7987,
      "Ġstroke": 7988,
      "Ġseventh": 7989,
      "Ġtribe": 7990,
      "Ġcookie": 7991,
      "66": 7992,
      "Ġdynam": 7993,
      "feel": 7994,
      "Ġpeak": 7995,
      "Ġgreet": 7996,
      "Ġbour": 7997,
      "Ġczech": 7998,
      "Ġholl": 7999
    },
    "merges": [
      "Ġ t",
      "h e",
      "Ġ a",
      "i n",
      "Ġt he",
      "Ġ s",
      "Ġ w",
      "r e",
      "o u",
      "o n",
      "Ġ i",
      "h a",
      "e r",
      "Ġ b",
      "Ġ c",
      "Ġ m",
      "n d",
      "Ġ o",
      "Ġ f",
      "Ġ d",
      "in g",
      "o r",
      "Ġ p",
      "a n",
      "e d",
      "l l",
      "e n",
      "Ġt o",
      "y ou",
      "e s",
      "i t",
      "i s",
      "Ġ l",
      "Ġo f",
      "Ġ in",
      "Ġ g",
      "a r",
      "Ġ you",
      "a t",
      "Ġa nd",
      "a s",
      "Ġ n",
      "ha t",
      "o m",
      "Ġ he",
      "Ġ h",
      "l e",
      "i c",
      "o w",
      "v e",
      "o t",
      "a l",
      "Ġ ha",
      "Ġi t",
      "u s",
      "Ġb e",
      "' s",
      "Ġt h",
      "Ġ e",
      "a y",
      "Ġi s",
      "e t",
      "Ġt hat",
      "Ġ on",
      "i on",
      "i d",
      "Ġ re",
      "g h",
      "l d",
      "Ġ r",
      "Ġw e",
      "Ġw as",
      "en t",
      "a c",
      "u t",
      "v er",
      "Ġ k",
      "Ġs t",
      "a m",
      "Ġf or",
      "t he",
      "s t",
      "i m",
      "l y",
      ". .",
      "s e",
      "a d",
      "i r",
      "o o",
      "Ġ u",
      "' t",
      "Ġ .",
      "gh t",
      "a nd",
      "k e",
      "Ġm e",
      "ou t",
      "it h",
      "Ġ j",
      "Ġa n",
      "a ll",
      "r o",
      "Ġa s",
      "u r",
      "Ġw ith",
      "Ġd o",
      "Ġs e",
      "r i",
      "c h",
      "c t",
      "c e",
      "Ġw h",
      "t er",
      "i ll",
      "Ġl i",
      "om e",
      "t h",
      "Ġ 1",
      "Ġth is",
      "Ġg o",
      "Ġa t",
      "Ġa re",
      "Ġn ot",
      "Ġha ve",
      "i l",
      "n ow",
      "ou ld",
      "us t",
      "Ġn e",
      "i ght",
      "an t",
      "w e",
      "Ġd e",
      "u n",
      "at ion",
      "o p",
      "a in",
      "Ġf r",
      "y e",
      "Ġh is",
      "g e",
      "Ġs o",
      "u l",
      "he r",
      "Ġm o",
      "Ġk now",
      "Ġ ,",
      "Ġthe y",
      "Ġc an",
      "Ġa l",
      "ou r",
      "Ġ \"",
      "o l",
      ".. .",
      "p p",
      "u m",
      "Ġa ll",
      "Ġw hat",
      "Ġm y",
      "Ġ ?",
      "Ġa b",
      "Ġyou r",
      "i f",
      "is t",
      "Ġ v",
      "i e",
      "es t",
      "Ġc on",
      "Ġ 2",
      "Ġs h",
      "on e",
      "Ġfr om",
      "er s",
      "ar t",
      "Ġb y",
      "Ġw he",
      "a b",
      "Ġs he",
      "Ġs u",
      "Ġhe r",
      "es s",
      "Ġc om",
      "q u",
      "Ġo r",
      "Ġthe re",
      "Ġon e",
      "re d",
      "Ġb ut",
      "ha n",
      "p e",
      "o s",
      "Ġw or",
      "Ġu p",
      "s o",
      "i g",
      "' re",
      "Ġt r",
      "Ġha d",
      "Ġp l",
      "all y",
      "â Ģ",
      "Ġl e",
      "a h",
      "at e",
      "Ġ out",
      "ver y",
      "re s",
      "Ġ us",
      "oo k",
      "ac k",
      "Ġh im",
      "oo d",
      "Ġs a",
      "n t",
      "Ġli ke",
      "Ġn o",
      "e m",
      "Ġp ro",
      "i ve",
      "' m",
      "Ġ (",
      "a ke",
      "am e",
      "Ġe x",
      "c k",
      "w hat",
      "Ġd on",
      "a k",
      "in k",
      "Ġg et",
      "e l",
      "Ġab out",
      "in d",
      "Ġ Ġ",
      "on g",
      "Ġ1 9",
      "f e",
      "Ġwe re",
      "as t",
      "ou nd",
      "ar d",
      "Ġt e",
      "Ġj ust",
      "r a",
      "r y",
      "it y",
      "b er",
      "or t",
      "Ġm an",
      "o h",
      "Ġc h",
      "Ġa r",
      "i es",
      "ic h",
      "a g",
      "Ġwh o",
      "Ġd id",
      "Ġ2 0",
      "n o",
      "Ġhe re",
      "Ġw ill",
      "Ġi f",
      "in e",
      "a re",
      "ye ah",
      "Ġt im",
      "Ġw ant",
      "Ġthe m",
      "' ll",
      "Ġs ome",
      "t o",
      "o re",
      "Ġw ould",
      "Ġth ink",
      "u d",
      "a p",
      "v en",
      "Ġu n",
      "ou s",
      "Ġ '",
      "Ġl o",
      "the r",
      "m ent",
      "Ġr ight",
      "it t",
      "Ġan y",
      "Ġb r",
      "Ġf e",
      "h ing",
      "Ġwhe n",
      "Ġa m",
      "Ġp e",
      "Ġg ot",
      "Ġha s",
      "ic e",
      "Ġc l",
      "o d",
      "Ġse e",
      "us e",
      "ou gh",
      "b ut",
      "ow n",
      "Ġa g",
      "t hat",
      "id e",
      "c a",
      "y es",
      "Ġwh ich",
      "t e",
      "i v",
      "u re",
      "Ġp r",
      "Ġs ay",
      "i a",
      "Ġt w",
      "i an",
      "Ġtim e",
      "Ġn ow",
      "ac e",
      "Ġc o",
      "w ay",
      "Ġg r",
      "Ġbe en",
      "Ġr o",
      "Ġ en",
      "Ġs p",
      "Ġa f",
      "i p",
      "' ve",
      "Ġsa id",
      "- -",
      "n e",
      "e p",
      "ic k",
      "b e",
      "Ġthe n",
      "Ġl ook",
      "Ġ qu",
      "o k",
      "l f",
      "n a",
      "is h",
      "ot her",
      "Ġthe ir",
      "op le",
      "Ġmo re",
      "re e",
      "m p",
      "w h",
      "re at",
      "ar s",
      "ar y",
      "Ġgo ing",
      "it e",
      "Ġc ould",
      "Ġo ther",
      "a ge",
      "Ġh ow",
      "c i",
      "Ġo ver",
      "Ġb ack",
      "ac t",
      "Ġpe ople",
      "Ġ ye",
      "Ġof f",
      "on d",
      "ir st",
      "Ġ =",
      "o se",
      "Ġg ood",
      "ing s",
      "ca use",
      "Ġwor k",
      "Ġtw o",
      "as s",
      "b le",
      "Ġc ha",
      "er m",
      "Ġ very",
      "Ġb l",
      "we ll",
      "ou nt",
      "u e",
      "i re",
      "Ġcom p",
      "0 0",
      "Ġf irst",
      "Ġm ar",
      "or n",
      "or d",
      "Ġp art",
      "p t",
      "Ġne w",
      "Ġt han",
      "p er",
      "om et",
      "Ġa d",
      "Ġb o",
      "as e",
      "itt le",
      "w he",
      "Ġin to",
      "Ġd own",
      "an s",
      "at ed",
      "al k",
      "ion s",
      "he d",
      "ad e",
      "Ġw ay",
      "Ġc ome",
      "u b",
      "c l",
      "Ġl ittle",
      "Ġ our",
      "a v",
      "nd er",
      "Ġwhe re",
      "Ġpl ay",
      "Ġc all",
      "i ld",
      "i z",
      "Ġg u",
      "ou ght",
      "Ġon ly",
      "Ġp o",
      "Ġal so",
      "Ġaf ter",
      "Ġe very",
      "v ed",
      "Ġwe ll",
      "d e",
      "Ġa c",
      "ac h",
      "Ġd ay",
      "w n",
      "Ġ y",
      "at er",
      "Ġs c",
      "t y",
      "Ġbe t",
      "f f",
      "Ġag ain",
      "an ce",
      "Ġs omet",
      "Ġa ct",
      "ur n",
      "Ġf l",
      "Ġne ed",
      "Ġs pe",
      "Ġm ay",
      "f or",
      "p l",
      "Ġd is",
      "o g",
      "re n",
      "Ġ20 1",
      "Ġl et",
      "Ġt ake",
      "res s",
      "Ġm ake",
      "a u",
      "i le",
      "Ġbe cause",
      "m y",
      ". \"",
      "u ck",
      "f ore",
      "Ġp re",
      "a ve",
      "Ġthe se",
      "ab le",
      "Ġm u",
      "th is",
      "is s",
      "ĠĠ ĠĠ",
      "g et",
      "Ġcon t",
      "se lf",
      "en ce",
      "Ġcom m",
      "the y",
      "am p",
      "or y",
      "Ġf o",
      "Ġp er",
      "Ġre ally",
      "an g",
      "s he",
      "c ome",
      "f t",
      "Ġte ll",
      "ic al",
      "Ġc ar",
      "Ġs er",
      "th ing",
      "Ġa pp",
      "le t",
      "Ġsh ould",
      "i ed",
      "the re",
      "Ġha pp",
      "Ġb u",
      "Ġw r",
      "Ġth r",
      "Ġu nder",
      "ic t",
      "oo l",
      "d o",
      "s h",
      "at her",
      "Ġre s",
      "Ġto o",
      "r u",
      "Ġdo es",
      "on na",
      "Ġmu ch",
      "ig n",
      "Ġs ha",
      "en s",
      "Ġsomet hing",
      "Ġ er",
      "ul t",
      "in t",
      "Ġp ut",
      "Ġl ong",
      "l es",
      "v ing",
      "Ġme an",
      "Ġg onna",
      "od y",
      "Ġm ade",
      "ct ion",
      "Ġs m",
      "h ow",
      "Ġc ount",
      "' d",
      "Ġit s",
      "Ġne ver",
      "y s",
      "Ġe ven",
      "Ġj o",
      "l and",
      "Ġt alk",
      "Ġse c",
      "Ġbe fore",
      "e nd",
      "on s",
      "Ġm in",
      "a il",
      "at h",
      "u h",
      "Ġre c",
      "i ous",
      "Ġc r",
      "Ġo ld",
      "m m",
      "k s",
      "Ġg reat",
      "ri ght",
      "Ġre m",
      "l i",
      "at es",
      "Ġman y",
      "m an",
      "Ġi mp",
      "u ll",
      "Ġdid n",
      "ou se",
      "d ay",
      "t ing",
      "Ġhe l",
      "Ġc han",
      "d u",
      "i ly",
      "ver s",
      "ok ay",
      "Ġye ars",
      "ad y",
      "is e",
      "p s",
      "Ġha nd",
      "w ard",
      "âĢ ľ",
      "Ġwor ld",
      "Ġ 3",
      "Ġk e",
      "Ġbe l",
      "Ġmo st",
      "Ġn or",
      "it ion",
      "i x",
      "Ġh o",
      "Ġthr ough",
      "whe re",
      "âĢ Ŀ",
      "u ally",
      "n ot",
      "Ġha r",
      "it ed",
      "Ġth ree",
      "Ġ20 0",
      "Ġli fe",
      "ation s",
      "or s",
      "i gh",
      "Ġd es",
      "f ul",
      "e ct",
      "i al",
      "Ġst art",
      "Ġth ing",
      "Ġf ound",
      "Ġd if",
      "Ġp h",
      "Ġs ch",
      "v es",
      "Ġlo ve",
      "Ġl a",
      "p h",
      "c he",
      "in ce",
      "ll ow",
      "Ġth ings",
      "Ġth ose",
      "Ġst ill",
      "Ġth ought",
      "ri ed",
      "Ġh ome",
      "Ġc our",
      "re nt",
      "Ġa way",
      "â Ļ",
      "Ġf ind",
      "c es",
      "Ġm ust",
      "Ġsh ow",
      "Ġe ar",
      "er ic",
      "Ġus ed",
      "Ġl ast",
      "ak ing",
      "Ġp ol",
      "t ain",
      "Ġre p",
      "Ġfor m",
      "os s",
      "` `",
      "Ġhel p",
      "Ġp res",
      "ot h",
      "Ġ' '",
      "Ġwh y",
      "c ess",
      "Ġp ar",
      "ri end",
      "Ġdo ing",
      "wh y",
      "Ġg ive",
      "Ġm a",
      "Ġas k",
      "Ġc he",
      "Ġo k",
      "Ġo wn",
      "ve l",
      "Ġe nd",
      "Ġc ame",
      "g r",
      "Ġm at",
      "p le",
      "d on",
      "u p",
      "âĢ Ļ",
      "Ġm r",
      "b r",
      "ent s",
      "Ġm on",
      "Ġw ent",
      "Ġ !",
      "ir l",
      "Ġbe ing",
      "m o",
      "ter n",
      "ation al",
      "Ġw on",
      "Ġcha r",
      "Ġb ig",
      "one y",
      "Ġn ame",
      "x t",
      "Ġh ouse",
      "Ġf am",
      "en ed",
      "Ġf in",
      "Ġch ild",
      "l o",
      "a it",
      "âĻ ª",
      "an y",
      "c ed",
      "\" .",
      "g in",
      "Ġw ar",
      "Ġcall ed",
      "Ġin d",
      "b ody",
      "g an",
      "Ġc are",
      "Ġst r",
      "Ġw om",
      "n g",
      "Ġe l",
      "Ġhe ad",
      "Ġre g",
      "Ġs y",
      "Ġsu ch",
      "Ġn ight",
      "d er",
      "Ġs ame",
      "way s",
      "Ġd r",
      "Ġg en",
      "m ber",
      "al s",
      "n ing",
      "Ġk ind",
      "Ġl ot",
      "Ġ1 8",
      "Ġfe el",
      "Ġtr y",
      "l ic",
      "Ġsch ool",
      "a ir",
      "âĢ ĵ",
      "Ġam eric",
      "Ġ yeah",
      "Ġsu pp",
      "Ġpl ace",
      "Ġ yes",
      "Ġo p",
      "c om",
      "em ber",
      "for m",
      "Ġat t",
      "Ġe le",
      "Ġs l",
      "c o",
      "i o",
      "Ġp ers",
      "Ġc ent",
      "Ġf riend",
      "Ġdif fe",
      "Ġcon s",
      "Ġar ound",
      "Ġn um",
      "e ver",
      "Ġk ill",
      "g g",
      "Ġen g",
      "Ġgo d",
      "Ġan other",
      "an k",
      "Ġd ist",
      "Ġg irl",
      "Ġc ity",
      "Ġm us",
      "i b",
      "Ġs et",
      "g o",
      "Ġf our",
      "Ġus e",
      "Ġt urn",
      "Ġe v",
      "ur ing",
      "at ing",
      ") .",
      "Ġm ight",
      "as ed",
      "t s",
      "Ġs ur",
      "m e",
      "re st",
      "Ġp le",
      "\" ,",
      "Ġsu re",
      "s s",
      "or ry",
      "Ġal ways",
      "ut e",
      "t han",
      "Ġ 4",
      "Ġs w",
      "Ġ ed",
      "out h",
      "Ġye ar",
      "ow er",
      "Ġok ay",
      "we en",
      "l ook",
      "Ġre l",
      "l ed",
      "Ġany thing",
      "wh o",
      "Ġm om",
      "Ġbet ter",
      "Ġle ft",
      "i ble",
      "Ġsec ond",
      "he y",
      "Ġr un",
      "pe ct",
      "t on",
      "Ġo b",
      "cl ud",
      "Ġb it",
      "Ġke ep",
      "Ġst ud",
      "ic s",
      "at ch",
      "Ġd one",
      "c an",
      ") ,",
      "Ġf ar",
      "Ġin v",
      "Ġre al",
      "as on",
      "Ġb us",
      "Ġc ol",
      "Ġ ent",
      "n ess",
      "Ġ19 9",
      "m b",
      "Ġwh ile",
      "Ġbet ween",
      "Ġm et",
      "id ent",
      "Ġin st",
      "ul ar",
      ", \"",
      "au ght",
      "Ġ 5",
      "Ġin te",
      "Ġc ap",
      "ci al",
      "whe n",
      "Ġo h",
      "Ġbel ie",
      "Ġst ate",
      "j ust",
      "Ġto ld",
      "u al",
      "Ġin s",
      "| |",
      "Ġu nt",
      "Ġ z",
      "ar k",
      "u g",
      "Ġm iss",
      "Ġknow n",
      "Ġc a",
      "Ġwor d",
      "Ġe ver",
      "Ġh igh",
      "ir d",
      "Ġs ing",
      "Ġm oney",
      "is hed",
      "ter s",
      "t en",
      "Ġb est",
      "Ġre t",
      "Ġg l",
      "Ġb re",
      "Ġsu b",
      "fe ct",
      "Ġdiffe rent",
      "Ġpo int",
      "Ġb ook",
      "c y",
      "Ġc le",
      "u nd",
      "Ġpers on",
      "Ġf ather",
      "a z",
      "l ing",
      "n er",
      "he re",
      "Ġu h",
      "Ġm en",
      "Ġco ll",
      "c er",
      "ak es",
      "Ġde c",
      "or k",
      "m s",
      "v ie",
      "ou n",
      "re t",
      "Ġm other",
      "b y",
      "Ġst op",
      "Ġb oth",
      "n y",
      "st and",
      "Ġin clud",
      "in s",
      "Ġun ited",
      "Ġe ach",
      "Ġnot hing",
      "Ġas s",
      "Ġk ing",
      "on t",
      "it s",
      "Ġunt il",
      "Ġcour se",
      "Ġw ater",
      "g er",
      "the n",
      "Ġne xt",
      "im e",
      "Ġst ates",
      "Ġ erm",
      "op e",
      "Ġl ater",
      "j ect",
      "ha r",
      "r ic",
      "Ġwe e",
      "Ġf un",
      "un e",
      "Ġac c",
      "r ow",
      "at ive",
      "Ġs im",
      "Ġto ok",
      "Ġg re",
      "ol og",
      "o f",
      "Ġl ist",
      "Ġfo llow",
      "Ġp ass",
      "i er",
      "ce pt",
      "is ion",
      "Ġse em",
      "ver n",
      "Ġte am",
      "Ġl ar",
      "i vers",
      "Ġa p",
      "Ġnum ber",
      "Ġyou ng",
      "get her",
      "Ġfam ily",
      "Ġs k",
      "Ġgen er",
      "am es",
      "Ġsa w",
      "Ġde p",
      "it ies",
      "i red",
      "Ġpro du",
      "re am",
      "oh n",
      "u res",
      "Ġd ire",
      "if e",
      "Ġameric an",
      "Ġdoes n",
      "ct or",
      "b o",
      "ot e",
      "Ġw ait",
      "a red",
      "Ġd uring",
      "as h",
      "Ġp ub",
      "Ġi de",
      "ne w",
      "Ġp op",
      "m er",
      "Ġa ir",
      "ro ss",
      "Ġhar d",
      "Ġm ed",
      "o ck",
      "Ġ -",
      "Ġbo y",
      "Ġs ince",
      "an e",
      "Ġb ar",
      "Ġen ough",
      "Ġst e",
      "Ġ19 8",
      "d id",
      "Ġli ght",
      "a f",
      "Ġact ually",
      "Ġ âĢľ",
      "os ed",
      "Ġb ad",
      "in ess",
      "Ġs orry",
      "a w",
      "Ġsm all",
      "1 9",
      "Ġagain st",
      "Ġel se",
      "Ġt ri",
      "Ġc ur",
      "Ġad d",
      "Ġto wn",
      "c ame",
      "is ter",
      "Ġf ive",
      "Ġ 6",
      "Ġar t",
      "Ġto gether",
      "l ess",
      "Ġh um",
      "Ġs on",
      "Ġwith out",
      "Ġse en",
      "Ġs ir",
      "ut h",
      "Ġpro ble",
      "un g",
      "Ġd ied",
      "u c",
      "Ġon ce",
      "Ġs ix",
      "Ġro om",
      "Ġgo vern",
      "in es",
      "p r",
      "i et",
      "Ġm ind",
      "Ġhe ar",
      "Ġevery thing",
      "ab ly",
      "Ġf act",
      "Ġtr ans",
      "Ġst and",
      "Ġtim es",
      "if ic",
      "Ġwant ed",
      "ot t",
      "Ġmus ic",
      "Ġfe w",
      "Ġre st",
      "Ġgr ou",
      "Ġli ve",
      "g ood",
      "Ġin ter",
      "Ġ --",
      "Ġcom ing",
      "Ġbe came",
      "Ġb ab",
      "Ġop en",
      "Ġm il",
      "Ġn ational",
      "Ġnor th",
      "a le",
      "Ġlo c",
      "r ist",
      "in a",
      "Ġre ad",
      "Ġs ign",
      "Ġc e",
      "he s",
      "Ġb ro",
      "Ġst ay",
      "2 0",
      "Ġe as",
      "Ġle ave",
      "Ġme et",
      "Ġl and",
      "Ġf il",
      "ct ed",
      "Ġchild ren",
      "h o",
      "b all",
      "Ġhe art",
      "Ġk id",
      "than k",
      "Ġunder stand",
      "Ġple ase",
      "at t",
      "Ġto day",
      "i k",
      "Ġex p",
      "Ġ19 7",
      "Ġs ide",
      "c on",
      "ie ld",
      "n ed",
      "Ġsay s",
      "Ġs it",
      "us s",
      "r al",
      "g ed",
      "Ġle ad",
      "s on",
      "ll o",
      "Ġbelie ve",
      "Ġlook ing",
      "Ġcount y",
      "Ġmo ve",
      "Ġb orn",
      "Ġs outh",
      "Ġ 7",
      "ur y",
      "Ġfo ot",
      "Ġqu est",
      "Ġf ace",
      "f r",
      "Ġqu ite",
      "ĠĠĠĠ ĠĠĠĠ",
      "Ġrec ord",
      "Ġw in",
      "e x",
      "Ġday s",
      "re ady",
      "it al",
      "st em",
      "Ġimp ort",
      "mo st",
      "orn ing",
      "t a",
      "d y",
      "Ġpl an",
      "an ge",
      "Ġn ice",
      "i ver",
      "a ut",
      "Ġd ri",
      "Ġc or",
      "00 0",
      "a pp",
      "Ġne ar",
      "Ġla w",
      "Ġd ra",
      "Ġm ain",
      "Ġhapp ened",
      "ment s",
      "f l",
      "Ġth ough",
      "Ġun ivers",
      "is ed",
      "Ġwom an",
      "Ġpro v",
      "Ġin c",
      "Ġe yes",
      "Ġp ri",
      "Ġis n",
      "Ġ ;",
      "Ġg e",
      "Ġapp e",
      "Ġg i",
      "Ġ 8",
      "Ġget ting",
      "Ġw alk",
      "Ġp at",
      "you r",
      "Ġv o",
      "Ġe mp",
      "Ġj ohn",
      "Ġbu ild",
      "Ġy et",
      "et s",
      "Ġh our",
      "er tain",
      "Ġp oss",
      "en se",
      "Ġsy stem",
      "Ġt y",
      "Ġwho le",
      "it her",
      "in ed",
      "Ġc al",
      "Ġs ort",
      "u ff",
      "Ġre le",
      "se l",
      "? \"",
      "c c",
      "Ġs ong",
      "Ġm orning",
      "Ġho ld",
      "Ġinte rest",
      "Ġjo b",
      "ist s",
      "Ġbr other",
      "ant s",
      "Ġha lf",
      "an na",
      "Ġde ath",
      "Ġhe ard",
      "Ġf ore",
      "Ġm ill",
      "is m",
      "Ġre f",
      "ut ion",
      "le ep",
      "Ġrem ember",
      "Ġp ay",
      "st er",
      "w ith",
      "m a",
      "Ġd ad",
      "Ġp ower",
      "iz e",
      "s u",
      "Ġre d",
      "Ġb as",
      "Ġplay ed",
      "ow s",
      "Ġha ving",
      "ro p",
      "Ġhim self",
      "Ġbl ack",
      "Ġh ur",
      "Ġw ind",
      "Ġser v",
      "re w",
      "Ġn at",
      "Ġstart ed",
      "Ġso on",
      "m ay",
      "im es",
      "li ke",
      "as ter",
      "c le",
      "Ġk new",
      "Ġ19 6",
      "Ġ es",
      "Ġtalk ing",
      "d en",
      "ent ion",
      "y ing",
      "Ġ1 0",
      "Ġde ad",
      "iz ed",
      "Ġp a",
      "r on",
      "c hed",
      "Ġg ame",
      "Ġcount ry",
      "Ġdo or",
      "Ġe at",
      "Ġwr ong",
      "Ġal ready",
      "be cause",
      "Ġ 9",
      "is on",
      "Ġal ong",
      "en e",
      "Ġs we",
      "Ġimport ant",
      "iv es",
      "Ġup on",
      "Ġpre t",
      "Ġwh ite",
      "Ġs ound",
      "Ġan s",
      "Ġret urn",
      "Ġwom en",
      "Ġt en",
      "Ġc ase",
      "Ġm id",
      "Ġmon th",
      "Ġhis t",
      "Ġide a",
      "Ġsay ing",
      "Ġpro f",
      "t ed",
      "Ġad v",
      "Ġt er",
      "Ġpart y",
      "Ġpr om",
      "Ġto m",
      "er ing",
      "Ġf ull",
      "Ġl ine",
      "ain s",
      "Ġg erm",
      "Ġg ave",
      "Ġr ound",
      "Ġ [",
      "Ġj e",
      "Ġch rist",
      "um p",
      "Ġpro b",
      "s ome",
      "Ġare a",
      "Ġto p",
      "Ġbus iness",
      "m on",
      "Ġgrou p",
      "id ed",
      "Ġde f",
      "Ġd iv",
      "ag es",
      "vel op",
      "e red",
      "aught er",
      "Ġst ory",
      "Ġex t",
      "ar ch",
      "Ġoff ic",
      "Ġcont in",
      "Ġtry ing",
      "Ġmar k",
      "Ġme ans",
      "Ġunivers ity",
      "Ġw ife",
      "il ity",
      "a x",
      "l ish",
      "Ġcl ass",
      "c ent",
      "Ġ âĢĵ",
      "Ġ âĻª",
      "Ġd et",
      "Ġle g",
      "Ġin t",
      "c ha",
      "Ġr a",
      "Ġgu y",
      "ward s",
      "Ġex pl",
      "Ġask ed",
      "Ġg one",
      "Ġbab y",
      "sh ip",
      "Ġcon st",
      "Ġpret ty",
      "Ġf uck",
      "Ġbr ing",
      "Ġmat ter",
      "s ide",
      "Ġe qu",
      "j o",
      "Â ł",
      "Ġp et",
      "g t",
      "Ġma j",
      "Ġ x",
      "Ġj u",
      "ic ally",
      "Ġle ar",
      "Ġm ag",
      "Ġ hat",
      "Ġpres ident",
      "Ġs ent",
      "Ġbe gan",
      "Ġbe aut",
      "Ġw ond",
      "Ġc reat",
      "h uh",
      "se e",
      "ent y",
      "Ġlo st",
      "ate ly",
      "Ġs qu",
      "w er",
      "Ġs at",
      "che s",
      "Ġmo vie",
      "at or",
      "Ġl ess",
      "Ġc ertain",
      "Ġcon f",
      "Ġcomm un",
      "Ġhapp en",
      "Ġcomp any",
      "Ġpol it",
      "Ġde velop",
      "Ġh or",
      "Ġf ine",
      "Ġgovern ment",
      "g y",
      "u ro",
      "Ġf ire",
      "Ġw atch",
      "b orn",
      "ur al",
      "Ġcoll e",
      "am ed",
      "Ġchan ge",
      "Ġab le",
      "or row",
      "r ict",
      "Ġa ge",
      ". âĢĿ",
      "it er",
      "Ġof ten",
      "Ġs ou",
      "Ġv is",
      "al th",
      "Ġf ight",
      "z e",
      "Ġh on",
      "Ġo ri",
      "Ġf all",
      "Ġp en",
      "Ġj an",
      "Ġsha ll",
      "Ġpart ic",
      "Ġal b",
      "Ġp ain",
      "Ġm aking",
      "c ri",
      "ak en",
      "Ġsome one",
      "pe nd",
      "Ġgo es",
      "Ġproble m",
      "Ġor der",
      "Ġb ed",
      "u red",
      "h m",
      "Ġsh o",
      "Ġwee k",
      "Ġgr and",
      "Ġsh ort",
      "Ġw anna",
      "s y",
      "u es",
      "ra ph",
      "Ġwas n",
      "Ġb ody",
      "Ġp ur",
      "Ġmom ent",
      "Ġv al",
      "h ip",
      "at s",
      "Ġlook ed",
      "Ġex per",
      "c r",
      "Ġbr it",
      "Ġgu ys",
      "l a",
      "Ġo per",
      "g es",
      "Ġt re",
      "Ġ1 7",
      "ha ve",
      "und red",
      "Ġyour self",
      "us ed",
      "le y",
      "Ġi m",
      "Ġhow ever",
      "Ġp os",
      "Ġs um",
      "p ort",
      "Ġ1 5",
      "id es",
      "Ġe ight",
      "Ġs leep",
      "Ġ19 4",
      "Ġ19 5",
      "Ġcom es",
      "e very",
      "are nt",
      "Ġpub lic",
      "Ġh ot",
      "Ġro ad",
      "Ġy ork",
      "Ġc ut",
      "Ġspe c",
      "Ġcl ose",
      "Ġprob ably",
      "Ġ est",
      "te nd",
      "Ġte le",
      "Ġbre ak",
      "Ġsu c",
      "Ġlar ge",
      "Ġtr ue",
      "Ġt erm",
      "Ġv ar",
      "ac es",
      "pp ed",
      "us h",
      "Ġp ap",
      "Ġor gan",
      "ent ly",
      "Ġ ve",
      "Ġwork ing",
      "Ġear ly",
      "Ġag o",
      "Ġp ick",
      "Ġin tern",
      "Ġro ck",
      "Ġthan k",
      "Ġh ope",
      "ren ce",
      "u ary",
      "ne y",
      "ain ed",
      "Ġgener al",
      "Ġmay be",
      "Ġgi ven",
      "Ġf ree",
      "i am",
      "ion al",
      "Ġwould n",
      "Ġch ur",
      "Ġh undred",
      "Ġw est",
      "Ġha ven",
      "art ment",
      "Ġc ra",
      "Ġhand s",
      "al ity",
      "e en",
      "Ġd ou",
      "Ġnew s",
      "Ġs un",
      "ap an",
      "g ot",
      "Ġ ...",
      "Ġde al",
      "Ġst re",
      "ple ase",
      "i i",
      "Ġbe come",
      "Ġfriend s",
      "Ġan n",
      "! \"",
      "r act",
      "ha m",
      "ic es",
      "Ġal most",
      "am a",
      "Ġs il",
      "Ġcont ro",
      "Ġo cc",
      "Ġst ar",
      "Ġs al",
      "h ind",
      "et y",
      "m en",
      "au gh",
      "ver al",
      "Ġbe gin",
      "l s",
      "un t",
      "Ġa w",
      "m r",
      "ut es",
      "Ġb ill",
      "ul ation",
      "Ġmar ch",
      "Ġd an",
      "he ad",
      "Ġre ce",
      "Ġser ies",
      "Ġp ie",
      ", âĢĿ",
      "il t",
      "h is",
      "Ġquest ion",
      "Ġl ate",
      "r ing",
      "Ġi ll",
      "Ġs ci",
      "Ġle ast",
      "Ġb all",
      "Ġb ur",
      "Ġhapp y",
      "Ġre ady",
      "Ġo pp",
      "ri es",
      "en g",
      "if ul",
      "Ġmy self",
      "Ġori gin",
      "Ġin de",
      "b ed",
      "ot s",
      "Ġso l",
      "Ġad m",
      "Ġr iver",
      "c han",
      "Ġi d",
      "gr am",
      "ian s",
      "Ġbl ood",
      "p ar",
      "ie f",
      "Ġspe ak",
      "l er",
      "Ġcomp le",
      "Ġpr ot",
      "Ġp ict",
      "Ġalb um",
      "h i",
      "Ġgo ld",
      "Ġt em",
      "p ed",
      "Ġdo g",
      "Ġmar ried",
      "amp le",
      "Ġb and",
      "Ġhum an",
      "Ġfil m",
      "iv ed",
      "ou d",
      "Ġj apan",
      "Ġm er",
      "ious ly",
      "Ġal one",
      "Ġdist rict",
      "Ġc amp",
      "Ġc oun",
      "Ġis land",
      "Ġgu ess",
      "Ġdis c",
      "Ġre ason",
      "Ġpres ent",
      "ang u",
      "Ġan im",
      "Ġf re",
      "Ġt on",
      "it ing",
      "Ġkill ed",
      "Ġse veral",
      "Ġprof ess",
      "ll y",
      "Ġbe hind",
      "Ġde l",
      "s c",
      "Ġfr ont",
      "Ġ1 6",
      "ag ue",
      "g u",
      "Ġcl ub",
      "i um",
      "Ġjan uary",
      "Ġword s",
      "Ġdr ink",
      "Ġf ood",
      "Ġcle ar",
      "Ġbr ought",
      "Ġc ou",
      "m ar",
      "Ġchur ch",
      "el t",
      "Ġmaj or",
      "Ġe m",
      "Ġrele ased",
      "l t",
      "Ġv ill",
      "ri l",
      "g en",
      "Ġp ast",
      "Ġa ust",
      "Ġe uro",
      "sel ves",
      "m ore",
      "may be",
      "t w",
      "Ġm akes",
      "ud e",
      "ard s",
      "Ġcha mp",
      "Ġm ur",
      "af ter",
      "Ġeng lish",
      "Ġ1 2",
      "os p",
      "ull y",
      "es e",
      "olog y",
      "b s",
      "Ġfoot ball",
      "Ġa ug",
      "Ġr ad",
      "Ġtr ain",
      "i ent",
      "Ġt aken",
      "Ġp ort",
      "Ġsupp ort",
      "Ġlist en",
      "Ġear th",
      "Ġ19 3",
      "Ġm ad",
      "Ġse ason",
      "od e",
      "o c",
      "Ġm ic",
      "b and",
      "Ġf ig",
      "Ġfr ance",
      "ren ch",
      "Ġpro gram",
      "t r",
      "Ġt aking",
      "Ġstr ong",
      "o ber",
      "in c",
      "o ve",
      "Ġr om",
      "Ġspe cial",
      "Ġt est",
      "at ic",
      "d le",
      "he llo",
      "Ġo ct",
      "Ġso ld",
      "Ġt ou",
      "ha ps",
      "Ġpar k",
      "Ġst uff",
      "Ġgre en",
      "Ġh it",
      "Ġa v",
      "Ġm ess",
      "Ġd ie",
      "Ġde v",
      "Ġd am",
      "Ġele ct",
      "Ġqu ick",
      "ac ed",
      "Ġin form",
      "b l",
      "âĢ Ķ",
      "pt ember",
      "Ġrep ort",
      "Ġde ce",
      "Ġe ither",
      "p ro",
      "Ġres p",
      "er v",
      "Ġ $",
      "Ġdes ign",
      "Ġaug ust",
      "id er",
      "Ġm ount",
      "Ġother s",
      "i or",
      "Ġme mber",
      "Ġd aughter",
      "z y",
      "Ġchar ac",
      "Ġr ather",
      "Ġ ]",
      "Ġf if",
      "Ġatt ack",
      "Ġli ving",
      "Ġj une",
      "Ġwond er",
      "Ġ |",
      "Ġ _",
      "Ġcomm on",
      "o ke",
      "Ġthink ing",
      "Ġmr s",
      "Ġf a",
      "Ġhe ll",
      "Ġc op",
      "f ort",
      "Ġlook s",
      "b it",
      "w as",
      "f ord",
      "Ġwith in",
      "qu e",
      "Ġbeaut iful",
      "Ġl ab",
      "Ġmin utes",
      "Ġ &",
      "f ic",
      "Ġe ast",
      "Ġex ample",
      "ber t",
      "Ġall ow",
      "Ġgr ow",
      "Ġd ream",
      "Ġl angu",
      "Ġcould n",
      "or m",
      "i ence",
      "Ġde ar",
      "um b",
      "Ġw ood",
      "Ġg un",
      "Ġsomet imes",
      "Ġbrit ish",
      "Ġst ep",
      "Ġsuc cess",
      "Ġins ide",
      "Ġf air",
      "Ġmill ion",
      "Ġw all",
      "Ġp al",
      "a im",
      "ke y",
      "Ġle av",
      "Ġst ra",
      "Ġhe ld",
      "Ġpol ice",
      "Ġn amed",
      "p o",
      "Ġwant s",
      "Ġmin ute",
      "b ru",
      "Ġc at",
      "Ġoff ice",
      "Ġeuro pe",
      "Ġj ack",
      "itt ing",
      "am ent",
      "Ġth ird",
      "Ġres ult",
      "Ġd ark",
      "Ġdep artment",
      "Ġse a",
      "ll ing",
      "Ġse ptember",
      "or ies",
      "p ut",
      "Ġsh ip",
      "ther n",
      "itt en",
      "Ġplay ing",
      "Ġvo ice",
      "act ly",
      "Ġsec ret",
      "Ġi mm",
      "o v",
      "re ad",
      "res ent",
      "Ġc ir",
      "as k",
      "Ġm ot",
      "Ġoct ober",
      "Ġph il",
      "f ully",
      "i en",
      "el s",
      "er t",
      "m ing",
      "a i",
      "l ished",
      "g ive",
      "Ġap ril",
      "Ġhist ory",
      "Ġform er",
      "iv ing",
      "f fect",
      "Ġper form",
      "Ġsing le",
      "w ill",
      "c il",
      "ve mber",
      "Ġl ord",
      "Ġju ly",
      "Ġh us",
      "Ġl ady",
      "Ġre pl",
      "Ġam ong",
      "ous and",
      "Ġc re",
      "Ġturn ed",
      "Ġtr ou",
      "m ed",
      "e e",
      "Ġcour t",
      "-- --",
      "ang er",
      "mb ers",
      "Ġli ved",
      "Ġb ir",
      "i pp",
      "e ll",
      "Ġfollow ing",
      "un ch",
      "Ġinclud ing",
      "Ġmo d",
      "wh ich",
      "Ġex pect",
      "Ġst ation",
      "Ġf rench",
      "e y",
      "on es",
      "Ġto t",
[...]
