{
  "version": "1.0",
  "truncation": null,
  "padding": null,
  "added_tokens": [
    {
      "id": 0,
      "content": "<|endoftext|>",
      "single_word": false,
      "lstrip": false,
      "rstrip": false,
      "normalized": false,
      "special": true
    }
  ],
  "normalizer": {
    "type": "Sequence",
    "normalizers": [
      {
        "type": "NFD"
      },
      {
        "type": "Lowercase"
      },
      {
        "type": "Strip",
        "strip_left": true,
        "strip_right": true
      },
      {
        "type": "StripAccents"
      }
    ]
  },
  "pre_tokenizer": {
    "type": "ByteLevel",
    "add_prefix_space": false,
    "trim_offsets": true,
    "use_regex": true
  },
  "post_processor": {
    "type": "ByteLevel",
    "add_prefix_space": true,
    "trim_offsets": true,
    "use_regex": true
  },
  "decoder": {
    "type": "ByteLevel",
    "add_prefix_space": true,
    "trim_offsets": true,
    "use_regex": true
  },
  "model": {
    "type": "BPE",
    "dropout": null,
    "unk_token": null,
    "continuing_subword_prefix": null,
    "end_of_word_suffix": null,
    "fuse_unk": false,
    "byte_fallback": false,
    "vocab": {
      "<|endoftext|>": 0,
      "!": 1,
      "\"": 2,
      "#": 3,
      "$": 4,
      "%": 5,
      "&": 6,
      "'": 7,
      "(": 8,
      ")": 9,
      "*": 10,
      "+": 11,
      ",": 12,
      "-": 13,
      ".": 14,
      "/": 15,
      "0": 16,
      "1": 17,
      "2": 18,
      "3": 19,
      "4": 20,
      "5": 21,
      "6": 22,
      "7": 23,
      "8": 24,
      "9": 25,
      ":": 26,
      ";": 27,
      "<": 28,
      "=": 29,
      ">": 30,
      "?": 31,
      "@": 32,
      "[": 33,
      "\\": 34,
      "]": 35,
      "^": 36,
      "_": 37,
      "`": 38,
      "a": 39,
      "b": 40,
      "c": 41,
      "d": 42,
      "e": 43,
      "f": 44,
      "g": 45,
      "h": 46,
      "i": 47,
      "j": 48,
      "k": 49,
      "l": 50,
      "m": 51,
      "n": 52,
      "o": 53,
      "p": 54,
      "q": 55,
      "r": 56,
      "s": 57,
      "t": 58,
      "u": 59,
      "v": 60,
      "w": 61,
      "x": 62,
      "y": 63,
      "z": 64,
      "{": 65,
      "|": 66,
      "}": 67,
      "~": 68,
      "¡": 69,
      "¢": 70,
      "£": 71,
      "¤": 72,
      "¥": 73,
      "¦": 74,
      "§": 75,
      "¨": 76,
      "©": 77,
      "ª": 78,
      "«": 79,
      "¬": 80,
      "®": 81,
      "¯": 82,
      "°": 83,
      "±": 84,
      "²": 85,
      "³": 86,
      "´": 87,
      "µ": 88,
      "¶": 89,
      "·": 90,
      "¸": 91,
      "¹": 92,
      "º": 93,
      "»": 94,
      "¼": 95,
      "½": 96,
      "¾": 97,
      "¿": 98,
      "Â": 99,
      "Ã": 100,
      "Ä": 101,
      "Å": 102,
      "É": 103,
      "Ê": 104,
      "Ë": 105,
      "Î": 106,
      "Ï": 107,
      "Ð": 108,
      "Ñ": 109,
      "Ò": 110,
      "Ó": 111,
      "Õ": 112,
      "Ö": 113,
      "×": 114,
      "Ø": 115,
      "Ù": 116,
      "Ú": 117,
      "Û": 118,
      "à": 119,
      "á": 120,
      "â": 121,
      "ã": 122,
      "ä": 123,
      "å": 124,
      "æ": 125,
      "ç": 126,
      "è": 127,
      "é": 128,
      "ê": 129,
      "ï": 130,
      "ð": 131,
      "ĉ": 132,
      "Ġ": 133,
      "ġ": 134,
      "Ģ": 135,
      "ģ": 136,
      "Ĥ": 137,
      "ĥ": 138,
      "Ħ": 139,
      "ħ": 140,
      "Ĩ": 141,
      "ĩ": 142,
      "Ī": 143,
      "ī": 144,
      "Ĭ": 145,
      "ĭ": 146,
      "Į": 147,
      "į": 148,
      "İ": 149,
      "ı": 150,
      "Ĳ": 151,
      "ĳ": 152,
      "Ĵ": 153,
      "ĵ": 154,
      "Ķ": 155,
      "ķ": 156,
      "ĸ": 157,
      "Ĺ": 158,
      "ĺ": 159,
      "Ļ": 160,
      "ļ": 161,
      "Ľ": 162,
      "ľ": 163,
      "Ŀ": 164,
      "ŀ": 165,
      "Ł": 166,
      "ł": 167,
      "Ń": 168,
      "Ġt": 169,
      "he": 170,
      "Ġa": 171,
      "in": 172,
      "Ġthe": 173,
      "Ġs": 174,
      "Ġw": 175,
      "re": 176,
      "ou": 177,
      "on": 178,
      "er": 179,
      "Ġi": 180,
      "ha": 181,
      "Ġc": 182,
      "Ġb": 183,
      "Ġm": 184,
      "nd": 185,
      "Ġo": 186,
      "Ġf": 187,
      "Ġd": 188,
      "ing": 189,
      "or": 190,
      "ed": 191,
      "Ġp": 192,
      "en": 193,
      "an": 194,
      "ll": 195,
      "Ġto": 196,
      "es": 197,
      "it": 198,
      "Ġof": 199,
      "is": 200,
      "you": 201,
      "Ġin": 202,
      "Ġl": 203,
      "Ġg": 204,
      "ar": 205,
      "at": 206,
      "Ġand": 207,
      "as": 208,
      "Ġn": 209,
      "Ġyou": 210,
      "hat": 211,
      "om": 212,
      "Ġh": 213,
      "Ġhe": 214,
      "ic": 215,
      "le": 216,
      "ve": 217,
      "ow": 218,
      "ot": 219,
      "al": 220,
      "Ġha": 221,
      "Ġbe": 222,
      "us": 223,
      "Ġit": 224,
      "Ġth": 225,
      "Ġe": 226,
      "Ġis": 227,
      "'s": 228,
      "et": 229,
      "ay": 230,
      "Ġthat": 231,
      "ion": 232,
      "Ġon": 233,
      "id": 234,
      "Ġre": 235,
      "gh": 236,
      "ent": 237,
      "Ġwas": 238,
      "ld": 239,
      "Ġwe": 240,
      "Ġr": 241,
      "ac": 242,
      "ut": 243,
      "ver": 244,
      "am": 245,
      "Ġk": 246,
      "Ġst": 247,
      "st": 248,
      "Ġfor": 249,
      "im": 250,
      "..": 251,
      "the": 252,
      "ly": 253,
      "se": 254,
      "ir": 255,
      "ad": 256,
      "Ġu": 257,
      "ght": 258,
      "oo": 259,
      "and": 260,
      "'t": 261,
      "Ġme": 262,
      "out": 263,
      "Ġan": 264,
      "ith": 265,
      "all": 266,
      "ke": 267,
      "ro": 268,
      "Ġj": 269,
      "Ġas": 270,
      "ur": 271,
      "Ġwith": 272,
      "ce": 273,
      "ri": 274,
      "ct": 275,
      "Ġwh": 276,
      "Ġse": 277,
      "Ġdo": 278,
      "ch": 279,
      "ter": 280,
      "ill": 281,
      "Ġli": 282,
      "th": 283,
      "ome": 284,
      "Ġnot": 285,
      "Ġare": 286,
      "il": 287,
      "Ġat": 288,
      "Ġ1": 289,
      "Ġthis": 290,
      "Ġgo": 291,
      "Ġhave": 292,
      "ould": 293,
      "ation": 294,
      "now": 295,
      "ust": 296,
      "Ġne": 297,
      "ight": 298,
      "ant": 299,
      "op": 300,
      "Ġde": 301,
      "ain": 302,
      "Ġfr": 303,
      "we": 304,
      "un": 305,
      "ge": 306,
      "Ġ,": 307,
      "Ġhis": 308,
      "Ġso": 309,
      "ye": 310,
      "Ġthey": 311,
      "Ġ\"": 312,
      "ul": 313,
      "Ġal": 314,
      "...": 315,
      "Ġmo": 316,
      "our": 317,
      "her": 318,
      "ol": 319,
      "Ġknow": 320,
      "Ġcan": 321,
      "Ġall": 322,
      "pp": 323,
      "Ġab": 324,
      "Ġcon": 325,
      "um": 326,
      "Ġv": 327,
      "est": 328,
      "Ġmy": 329,
      "Ġsh": 330,
      "if": 331,
      "Ġor": 332,
      "ist": 333,
      "ers": 334,
      "Ġby": 335,
      "Ġfrom": 336,
      "qu": 337,
      "Ġwhe": 338,
      "Ġcom": 339,
      "Ġwhat": 340,
      "Ġbut": 341,
      "art": 342,
      "Ġsu": 343,
      "ess": 344,
      "Ġ2": 345,
      "ab": 346,
      "ie": 347,
      "one": 348,
      "so": 349,
      "pe": 350,
      "Ġthere": 351,
      "red": 352,
      "Ġyour": 353,
      "han": 354,
      "Ġher": 355,
      "os": 356,
      "Ġshe": 357,
      "Ġone": 358,
      "Ġwor": 359,
      "ally": 360,
      "Ġhad": 361,
      "ig": 362,
      "Ġsa": 363,
      "ate": 364,
      "Ġup": 365,
      "Ġtr": 366,
      "Ġhim": 367,
      "res": 368,
      "very": 369,
      "nt": 370,
      "Ġus": 371,
      "Ġpro": 372,
      "Ġle": 373,
      "Ġout": 374,
      "Ġpl": 375,
      "Ġ.": 376,
      "'re": 377,
      "ame": 378,
      "ack": 379,
      "ood": 380,
      "Ġex": 381,
      "Ġ(": 382,
      "ive": 383,
      "ah": 384,
      "em": 385,
      "Ġlike": 386,
      "Ġno": 387,
      "âĢ": 388,
      "fe": 389,
      "Ġwere": 390,
      "ak": 391,
      "ook": 392,
      "'m": 393,
      "Ġabout": 394,
      "ong": 395,
      "ck": 396,
      "ast": 397,
      "ake": 398,
      "ity": 399,
      "ind": 400,
      "ink": 401,
      "ap": 402,
      "Ġget": 403,
      "ound": 404,
      "ard": 405,
      "Ġdon": 406,
      "ort": 407,
      "el": 408,
      "ry": 409,
      "Ġjust": 410,
      "ich": 411,
      "Ġman": 412,
      "ag": 413,
      "Ġte": 414,
      "ies": 415,
      "Ġwho": 416,
      "Ġ19": 417,
      "Ġar": 418,
      "Ġwill": 419,
      "ber": 420,
      "Ġun": 421,
      "Ġif": 422,
      "ine": 423,
      "Ġch": 424,
      "ime": 425,
      "what": 426,
      "Ġdid": 427,
      "Ġthem": 428,
      "Ġ20": 429,
      "Ġ'": 430,
      "ud": 431,
      "Ġwould": 432,
      "ore": 433,
      "to": 434,
      "ous": 435,
      "oh": 436,
      "Ġhere": 437,
      "ven": 438,
      "Ġsome": 439,
      "are": 440,
      "Ġbr": 441,
      "ther": 442,
      "no": 443,
      "ment": 444,
      "Ġwhen": 445,
      "Ġye": 446,
      "Ġlo": 447,
      "Ġpe": 448,
      "Ġany": 449,
      "Ġthink": 450,
      "Ġwant": 451,
      "Ġam": 452,
      "'ll": 453,
      "hing": 454,
      "Ġwhich": 455,
      "Ġhas": 456,
      "Ġfe": 457,
      "Ġgot": 458,
      "Ġco": 459,
      "use": 460,
      "but": 461,
      "Ġag": 462,
      "ough": 463,
      "ca": 464,
      "Ġpr": 465,
      "te": 466,
      "ice": 467,
      "ia": 468,
      "Ġright": 469,
      "Ġgr": 470,
      "Ġsaid": 471,
      "iv": 472,
      "ide": 473,
      "Ġcl": 474,
      "Ġen": 475,
      "ne": 476,
      "ure": 477,
      "own": 478,
      "od": 479,
      "Ġtime": 480,
      "ian": 481,
      "way": 482,
      "Ġtw": 483,
      "Ġbeen": 484,
      "ip": 485,
      "Ġaf": 486,
      "Ġsee": 487,
      "Ġsay": 488,
      "Ġnow": 489,
      "Ġro": 490,
      "ace": 491,
      "Ġthen": 492,
      "Ġy": 493,
      "itt": 494,
      "Ġsp": 495,
      "ople": 496,
      "Ġtheir": 497,
      "ep": 498,
      "Ġqu": 499,
      "'ve": 500,
      "ra": 501,
      "ick": 502,
      "be": 503,
      "lf": 504,
      "--": 505,
      "that": 506,
      "Ġpeople": 507,
      "mp": 508,
      "Ġmore": 509,
      "reat": 510,
      "ish": 511,
      "ars": 512,
      "age": 513,
      "Ġother": 514,
      "act": 515,
      "Ġlook": 516,
      "ary": 517,
      "ree": 518,
      "ite": 519,
      "ci": 520,
      "Ġ=": 521,
      "Ġhow": 522,
      "Ġoff": 523,
      "other": 524,
      "Ġcould": 525,
      "Ġgoing": 526,
      "yeah": 527,
      "erm": 528,
      "irst": 529,
      "ass": 530,
      "Ġover": 531,
      "ount": 532,
      "ings": 533,
      "Ġback": 534,
      "cause": 535,
      "ond": 536,
      "wh": 537,
      "Ġpart": 538,
      "Ġvery": 539,
      "ose": 540,
      "Ġwork": 541,
      "Ġtwo": 542,
      "ble": 543,
      "Ġcomp": 544,
      "Ġgood": 545,
      "Ġad": 546,
      "Ġbl": 547,
      "well": 548,
      "ue": 549,
      "Ġfirst": 550,
      "Ġcha": 551,
      "Ġthan": 552,
      "for": 553,
      "pt": 554,
      "ans": 555,
      "Ġnew": 556,
      "per": 557,
      "ire": 558,
      "ated": 559,
      "ok": 560,
      "ĠĠ": 561,
      "ions": 562,
      "na": 563,
      "Ġmar": 564,
      "omet": 565,
      "Ġinto": 566,
      "00": 567,
      "hed": 568,
      "av": 569,
      "ase": 570,
      "Ġalso": 571,
      "Ġway": 572,
      "ade": 573,
      "Ġbo": 574,
      "iz": 575,
      "de": 576,
      "orn": 577,
      "alk": 578,
      "Ġcall": 579,
      "Ġpo": 580,
      "nder": 581,
      "Ġcome": 582,
      "ought": 583,
      "Ġdown": 584,
      "Ġwell": 585,
      "cl": 586,
      "Ġwhere": 587,
      "Ġour": 588,
      "Ġonly": 589,
      "ach": 590,
      "Ġevery": 591,
      "Ġgu": 592,
      "ance": 593,
      "Ġafter": 594,
      "Ġday": 595,
      "ved": 596,
      "Ġac": 597,
      "ub": 598,
      "Ġact": 599,
      "ater": 600,
      "Ġagain": 601,
      "ave": 602,
      "whe": 603,
      "yes": 604,
      "Ġsc": 605,
      "ild": 606,
      "ff": 607,
      "amp": 608,
      "wn": 609,
      "Ġbet": 610,
      "Ġdis": 611,
      "Ġfl": 612,
      "Ġsomet": 613,
      "Ġcomm": 614,
      "ittle": 615,
      "Ġspe": 616,
      "ren": 617,
      "Ġmay": 618,
      "og": 619,
      "urn": 620,
      "Ġcont": 621,
      "Ġbecause": 622,
      "ty": 623,
      "ord": 624,
      "Ġbu": 625,
      "ence": 626,
      "ress": 627,
      "Ġlittle": 628,
      "ang": 629,
      ".\"": 630,
      "Ġmu": 631,
      "able": 632,
      "Ġthese": 633,
      "Ġplay": 634,
      "self": 635,
      "ile": 636,
      "fore": 637,
      "au": 638,
      "Ġper": 639,
      "Ġser": 640,
      "Ġneed": 641,
      "ory": 642,
      "Ġlet": 643,
      "Ġpre": 644,
      "pl": 645,
      "Ġreally": 646,
      "Ġsha": 647,
      "ru": 648,
      "Ġtake": 649,
      "this": 650,
      "Ġwr": 651,
      "get": 652,
      "Ġmake": 653,
      "Ġshould": 654,
      "Ġfo": 655,
      "ical": 656,
      "ft": 657,
      "Ġapp": 658,
      "ied": 659,
      "thing": 660,
      "Ġunder": 661,
      "ign": 662,
      "ens": 663,
      "les": 664,
      "ult": 665,
      "they": 666,
      "Ġ201": 667,
      "Ġer": 668,
      "ather": 669,
      "iss": 670,
      "Ġcar": 671,
      "Ġtell": 672,
      "ict": 673,
      "Ġthr": 674,
      "land": 675,
      "Ġmuch": 676,
      "Ġres": 677,
      "Ġhapp": 678,
      "Ġcount": 679,
      "int": 680,
      "ving": 681,
      "ates": 682,
      "Ġmean": 683,
      "sh": 684,
      "my": 685,
      "come": 686,
      "ail": 687,
      "Ġsm": 688,
      "Ġsomething": 689,
      "Ġits": 690,
      "ool": 691,
      "Ġlong": 692,
      "she": 693,
      "Ġmade": 694,
      "ect": 695,
      "Ġeven": 696,
      "uck": 697,
      "Ġtoo": 698,
      "there": 699,
      "Ġdoes": 700,
      "Ġ''": 701,
      "``": 702,
      "ons": 703,
      "Ġnever": 704,
      "Ġjo": 705,
      "Ġbefore": 706,
      "ĠâĢ": 707,
      "end": 708,
      "ious": 709,
      "'d": 710,
      "ath": 711,
      "ody": 712,
      "Ġcr": 713,
      "Ġtalk": 714,
      "ys": 715,
      "Ġimp": 716,
      "Ġrec": 717,
      "iver": 718,
      "Ġgreat": 719,
      "ited": 720,
      "Ġmany": 721,
      "let": 722,
      "Ġsec": 723,
      "du": 724,
      "Ġmost": 725,
      "man": 726,
      "Ġchan": 727,
      "Ġnor": 728,
      "do": 729,
      "ily": 730,
      "ks": 731,
      "ually": 732,
      "Ġlife": 733,
      "ull": 734,
      "ition": 735,
      "Ġbel": 736,
      "Ġrem": 737,
      "Ġdidn": 738,
      "Ġ3": 739,
      "how": 740,
      "tain": 741,
      "Ġput": 742,
      "Ġmin": 743,
      "ations": 744,
      "Ġyears": 745,
      "ady": 746,
      "ting": 747,
      "ward": 748,
      "mm": 749,
      "Ġhand": 750,
      "ouse": 751,
      "ors": 752,
      "onna": 753,
      "Ġdif": 754,
      "Ġworld": 755,
      "Ġhel": 756,
      "igh": 757,
      "day": 758,
      "Ġthrough": 759,
      "âĢĿ": 760,
      "Ġold": 761,
      "Ġcour": 762,
      "ps": 763,
      "aw": 764,
      "ise": 765,
      "Ġke": 766,
      "Ġdr": 767,
      "rent": 768,
      "Ġhar": 769,
      "Ġgonna": 770,
      "ction": 771,
      "not": 772,
      "Ġho": 773,
      "Ġdes": 774,
      "ix": 775,
      "Ġ200": 776,
      "ces": 777,
      "ful": 778,
      "ial": 779,
      "ried": 780,
      "Ġstill": 781,
      "cess": 782,
      "Ġthree": 783,
      "Ġthought": 784,
      "ince": 785,
      "gin": 786,
      "Ġpres": 787,
      "Ġlove": 788,
      "ves": 789,
      "Ġfound": 790,
      "Ġph": 791,
      "Ġthing": 792,
      "Ġma": 793,
      "llow": 794,
      "Ġstart": 795,
      "li": 796,
      "Ġthings": 797,
      "Ġsch": 798,
      "che": 799,
      "Ġcame": 800,
      "right": 801,
      "Ġmust": 802,
      "aking": 803,
      "der": 804,
      "Ġused": 805,
      "Ġshow": 806,
      "Ġrep": 807,
      "Ġlast": 808,
      "Ġwent": 809,
      "Ġthose": 810,
      "Ġhome": 811,
      "Ġind": 812,
      "Ġear": 813,
      "vel": 814,
      "oss": 815,
      "eric": 816,
      "tern": 817,
      "Ġform": 818,
      "gr": 819,
      "ents": 820,
      "uh": 821,
      "Ġaway": 822,
      "Ġcalled": 823,
      "Ġask": 824,
      "oth": 825,
      "Ġend": 826,
      "\".": 827,
      "Ġpol": 828,
      "imes": 829,
      "Ġwhy": 830,
      "Ġwar": 831,
      "Ġfind": 832,
      "ced": 833,
      "Ġbeing": 834,
      "xt": 835,
      "Ġmat": 836,
      "riend": 837,
      "Ġsuch": 838,
      "form": 839,
      "Ġfam": 840,
      "Ġown": 841,
      "Ġche": 842,
      "ark": 843,
      "gan": 844,
      "Ġsy": 845,
      "where": 846,
      "Ġgive": 847,
      "ple": 848,
      "any": 849,
      "Ġhelp": 850,
      "Ġwom": 851,
      "Ġcity": 852,
      "oney": 853,
      "Ġmon": 854,
      "Ġmr": 855,
      "lic": 856,
      "Ġreg": 857,
      "mo": 858,
      "Ġchar": 859,
      "up": 860,
      "ened": 861,
      "Ġnight": 862,
      "Ġeng": 863,
      "Ġsame": 864,
      "ng": 865,
      "Ġdoing": 866,
      "als": 867,
      "Ġfin": 868,
      "ib": 869,
      "why": 870,
      "ever": 871,
      "Ġhouse": 872,
      "lo": 873,
      "ways": 874,
      "Ġname": 875,
      "ying": 876,
      "Ġgen": 877,
      "Ġdiffe": 878,
      "Ġchild": 879,
      "irl": 880,
      "Ġwon": 881,
      "Ġlot": 882,
      "Ġatt": 883,
      "Ġcons": 884,
      "Ġop": 885,
      "ning": 886,
      "Ġameric": 887,
      "ait": 888,
      "air": 889,
      "Ġpers": 890,
      "Ġplace": 891,
      "Ġkind": 892,
      "Ġcare": 893,
      "Ġkill": 894,
      "Ġyeah": 895,
      "Ġcent": 896,
      "Ġnum": 897,
      "Ġhead": 898,
      "Ġ18": 899,
      "Ġcap": 900,
      "Ġsupp": 901,
      "Ġgod": 902,
      "com": 903,
      "Ġstr": 904,
      "don": 905,
      "co": 906,
      "body": 907,
      "Ġdist": 908,
      "Ġok": 909,
      "ased": 910,
      "Ġrel": 911,
      "Ġfeel": 912,
      "rest": 913,
      "ational": 914,
      "Ġschool": 915,
      "uring": 916,
      "Ġsl": 917,
      "Ġbig": 918,
      "Ġmight": 919,
      ").": 920,
      "Ġel": 921,
      "outh": 922,
      "Ġyes": 923,
      "mb": 924,
      "Ġset": 925,
      "Ġ4": 926,
      "ts": 927,
      "mber": 928,
      "Ġfriend": 929,
      "\",": 930,
      "me": 931,
      "ss": 932,
      "ating": 933,
      "io": 934,
      "Ġev": 935,
      "Ġuse": 936,
      "Ġaround": 937,
      "Ġele": 938,
      "Ġstates": 939,
      "ower": 940,
      "Ġmus": 941,
      "Ġed": 942,
      "),": 943,
      "Ġalways": 944,
      "Ġsur": 945,
      "led": 946,
      "pect": 947,
      "Ġfour": 948,
      "Ġz": 949,
      "Ġanother": 950,
      "Ġking": 951,
      "ween": 952,
      "âĻ": 953,
      "ton": 954,
      "Ġunited": 955,
      "Ġmet": 956,
      "Ġyear": 957,
      "Ġsure": 958,
      "clud": 959,
      "ember": 960,
      "aught": 961,
      "Ġleft": 962,
      "br": 963,
      "Ġturn": 964,
      "go": 965,
      "Ġent": 966,
      "Ġmoney": 967,
      "ĠâĢľ": 968,
      "az": 969,
      "Ġgirl": 970,
      "Ġinv": 971,
      "ular": 972,
      "Ġple": 973,
      "Ġreal": 974,
      "ank": 975,
      "ĠĠĠĠ": 976,
      "ute": 977,
      "Ġanything": 978,
      "ible": 979,
      "ics": 980,
      "Ġsecond": 981,
      "Ġbelie": 982,
      "ten": 983,
      "Ġinst": 984,
      "Ġkeep": 985,
      "Ġhigh": 986,
      "Ġsw": 987,
      "Ġbetween": 988,
      "Ġwhile": 989,
      "âĻª": 990,
      "Ġbetter": 991,
      "ident": 992,
      "gg": 993,
      "orry": 994,
      "fect": 995,
      "Ġ5": 996,
      "Ġrun": 997,
      "ness": 998,
      "Ġinte": 999,
      "Ġstate": 1000,
      "Ġtold": 1001,
      "Ġstud": 1002,
      "Ġfar": 1003,
      "Ġdifferent": 1004,
      "Ġ|": 1005,
      "Ġpoint": 1006,
      "Ġmen": 1007,
      "ters": 1008,
      "Ġword": 1009,
      ",\"": 1010,
      "Ġdone": 1011,
      "its": 1012,
      "when": 1013,
      "okay": 1014,
      "Ġcle": 1015,
      "Ġca": 1016,
      "ual": 1017,
      "Ġever": 1018,
      "atch": 1019,
      "cial": 1020,
      "Ġknown": 1021,
      "Ġbus": 1022,
      "Ġsub": 1023,
      "Ġins": 1024,
      "than": 1025,
      "Ġob": 1026,
      "Ġperson": 1027,
      "ason": 1028,
      "Ġret": 1029,
      "ames": 1030,
      "hey": 1031,
      "ject": 1032,
      "Ġass": 1033,
      "Ġoh": 1034,
      "har": 1035,
      "Ġbest": 1036,
      "Ġpop": 1037,
      "ished": 1038,
      "Ġcoll": 1039,
      "ird": 1040,
      "Ġsing": 1041,
      "Ġunt": 1042,
      "con": 1043,
      "Ġboth": 1044,
      "ivers": 1045,
      "Ġerm": 1046,
      "Ġfather": 1047,
      "Ġpar": 1048,
      "Ġ199": 1049,
      "Ġbit": 1050,
      "Ġinclud": 1051,
      "ms": 1052,
      "by": 1053,
      "Ġuh": 1054,
      "Ġtook": 1055,
      "Ġ;": 1056,
      "Ġmom": 1057,
      "Ġgl": 1058,
      "Ġdec": 1059,
      "âĢĻ": 1060,
      "Ġfollow": 1061,
      "cy": 1062,
      "ling": 1063,
      "akes": 1064,
      "cer": 1065,
      "ric": 1066,
      "Ġeach": 1067,
      "ities": 1068,
      "ative": 1069,
      "just": 1070,
      "Ġstop": 1071,
      "olog": 1072,
      "ner": 1073,
      "Ġnothing": 1074,
      "ork": 1075,
      "ins": 1076,
      "cept": 1077,
      "ohn": 1078,
      "Ġnext": 1079,
      "ug": 1080,
      "ret": 1081,
      "Ġcourse": 1082,
      "und": 1083,
      "of": 1084,
      "who": 1085,
      "Ġwater": 1086,
      "Ġprodu": 1087,
      "stand": 1088,
      "Ġpass": 1089,
      "Ġsim": 1090,
      "vie": 1091,
      "Ġlater": 1092,
      "Ġsir": 1093,
      "Ġ?": 1094,
      "look": 1095,
      "Ġokay": 1096,
      "Ġlar": 1097,
      "Ġmiss": 1098,
      "oun": 1099,
      "une": 1100,
      "rew": 1101,
      "Ġcol": 1102,
      "Ġmother": 1103,
      "vern": 1104,
      "Ġwee": 1105,
      "Ġmed": 1106,
      "Ġadd": 1107,
      "ger": 1108,
      "ph": 1109,
      "Ġuntil": 1110,
      "Ġseem": 1111,
      "ctor": 1112,
      "Ġ-": 1113,
      "ross": 1114,
      "ared": 1115,
      "Ġnumber": 1116,
      "ash": 1117,
      "ision": 1118,
      "Ġacc": 1119,
      "row": 1120,
      "Ġgener": 1121,
      "Ġsaw": 1122,
      "new": 1123,
      "Ġsmall": 1124,
      "Ġduring": 1125,
      "Ġlight": 1126,
      "Ġdep": 1127,
      "then": 1128,
      "ife": 1129,
      "Ġlist": 1130,
      "Ġactually": 1131,
      "Ġonce": 1132,
      "ures": 1133,
      "Ġyoung": 1134,
      "gether": 1135,
      "ale": 1136,
      "Ġbre": 1137,
      "Ġfamily": 1138,
      "Ġbook": 1139,
      "ier": 1140,
      "Ġsince": 1141,
      "ream": 1142,
      "Ġste": 1143,
      "came": 1144,
      "af": 1145,
      "ope": 1146,
      "bo": 1147,
      "less": 1148,
      "ron": 1149,
      "Ġinter": 1150,
      "Ġsouth": 1151,
      "Ġpub": 1152,
      "iet": 1153,
      "vers": 1154,
      "19": 1155,
      "ock": 1156,
      "osed": 1157,
      "Ġagainst": 1158,
      "Ġnorth": 1159,
      "ired": 1160,
      "ane": 1161,
      "Ġwanted": 1162,
      "Ġide": 1163,
      "Ġamerican": 1164,
      "uth": 1165,
      "ged": 1166,
      "ific": 1167,
      "Ġdire": 1168,
      "Ġgovern": 1169,
      "Ġmain": 1170,
      "Ġ6": 1171,
      "ote": 1172,
      "mer": 1173,
      "Ġwait": 1174,
      "Ġart": 1175,
      "Ġfact": 1176,
      "Ġloc": 1177,
      "uc": 1178,
      "Ġ--": 1179,
      "Ġbecame": 1180,
      "Ġhum": 1181,
      "Ġboy": 1182,
      "ned": 1183,
      "Ġfun": 1184,
      "Ġproble": 1185,
      "Ġhard": 1186,
      "son": 1187,
      "Ġson": 1188,
      "Ġstand": 1189,
      "Ġenough": 1190,
      "Ġseen": 1191,
      "Ġcur": 1192,
      "Ġtri": 1193,
      "Ġfew": 1194,
      "Ġlive": 1195,
      "Ġtown": 1196,
      "Ġap": 1197,
      "ably": 1198,
      "Ġpri": 1199,
      "Ġair": 1200,
      "Ġdoesn": 1201,
      "ines": 1202,
      "Ġbad": 1203,
      "Ġunivers": 1204,
      "Ġmind": 1205,
      "Ġeverything": 1206,
      "Ġwithout": 1207,
      "can": 1208,
      "rist": 1209,
      "Ġtogether": 1210,
      "Ġmeet": 1211,
      "Ġteam": 1212,
      "Ġrest": 1213,
      "Ġbro": 1214,
      "ung": 1215,
      "Ġfil": 1216,
      "iness": 1217,
      "Ġmusic": 1218,
      "Ġbar": 1219,
      "Ġland": 1220,
      "Ġprov": 1221,
      "Ġtimes": 1222,
      "Ġgrou": 1223,
      "Ġtrans": 1224,
      "ury": 1225,
      "Ġsorry": 1226,
      "fl": 1227,
      "ott": 1228,
      "Ġsign": 1229,
      "Ġsix": 1230,
      "ism": 1231,
      "here": 1232,
      "Ġimport": 1233,
      "Ġquite": 1234,
      "Ġopen": 1235,
      "Ġexp": 1236,
      "Ġroom": 1237,
      "Ġdied": 1238,
      "Ġside": 1239,
      "Ġeas": 1240,
      "pr": 1241,
      "Ġsk": 1242,
      "Ġjohn": 1243,
      "Ġfive": 1244,
      "att": 1245,
      "Ġla": 1246,
      "Ġ198": 1247,
      "Ġmil": 1248,
      "Ġelse": 1249,
      "Ġstay": 1250,
      "Ġchildren": 1251,
      "Ġquest": 1252,
      "su": 1253,
      "ister": 1254,
      "ution": 1255,
      "sel": 1256,
      "Ġcal": 1257,
      "ina": 1258,
      "ral": 1259,
      "hes": 1260,
      "ny": 1261,
      "ised": 1262,
      "ertain": 1263,
      "Ġlaw": 1264,
      "Ġemp": 1265,
      "Ġkid": 1266,
      "llo": 1267,
      "most": 1268,
      "Ġcor": 1269,
      "Ġunderstand": 1270,
      "ital": 1271,
      "Ġbelieve": 1272,
      "Ġhear": 1273,
      "Ġ!": 1274,
      "Ġdays": 1275,
      "app": 1276,
      "Ġline": 1277,
      "Ġlooking": 1278,
      "Ġcoming": 1279,
      "Ġleave": 1280,
      "cc": 1281,
      "Ġthough": 1282,
      "stem": 1283,
      "ments": 1284,
      "Ġcounty": 1285,
      "Ġmill": 1286,
      "Ġdeath": 1287,
      "ho": 1288,
      "ready": 1289,
      "Ġge": 1290,
      "Ġwoman": 1291,
      "Ġface": 1292,
      "orning": 1293,
      "Ġmove": 1294,
      "ex": 1295,
      "Ġcountry": 1296,
      "Ġdri": 1297,
      "Ġbuild": 1298,
      "Ġpower": 1299,
      "Ġrele": 1300,
      "ball": 1301,
      "ither": 1302,
      "Ġwhole": 1303,
      "Ġplease": 1304,
      "Ġinc": 1305,
      "Ġtoday": 1306,
      "Ġjob": 1307,
      "Ġnear": 1308,
      "did": 1309,
      "Ġbas": 1310,
      "000": 1311,
      "ense": 1312,
      "ists": 1313,
      "Ġfore": 1314,
      "Ġposs": 1315,
      "Ġheard": 1316,
      "good": 1317,
      "ield": 1318,
      "ont": 1319,
      "Ġsays": 1320,
      "Ġappe": 1321,
      "cted": 1322,
      "Ġlead": 1323,
      "Ġinterest": 1324,
      "ized": 1325,
      "Ġwin": 1326,
      "Ġplan": 1327,
      "Ġhist": 1328,
      "Ġes": 1329,
      "Ġgame": 1330,
      "vent": 1331,
      "ta": 1332,
      "Ġwalk": 1333,
      "Ġce": 1334,
      "Ġheart": 1335,
      "ange": 1336,
      "Ġsort": 1337,
      "Ġpat": 1338,
      "Ġserv": 1339,
      "Ġyet": 1340,
      "Ġ197": 1341,
      "aut": 1342,
      "Ġhappened": 1343,
      "ene": 1344,
      "Ġhimself": 1345,
      "lish": 1346,
      "Ġgre": 1347,
      "Ġdead": 1348,
      "Ġsystem": 1349,
      "aughter": 1350,
      "fr": 1351,
      "Ġread": 1352,
      "ants": 1353,
      "Ġgi": 1354,
      "Ġgetting": 1355,
      "Ġrecord": 1356,
      "thank": 1357,
      "ize": 1358,
      "aster": 1359,
      "Ġimportant": 1360,
      "uff": 1361,
      "ined": 1362,
      "ik": 1363,
      "Ġoffic": 1364,
      "Ġgave": 1365,
      "ets": 1366,
      "Ġisn": 1367,
      "Ġcase": 1368,
      "uss": 1369,
      "Ġmorning": 1370,
      "Ġpay": 1371,
      "Ġ7": 1372,
      "Ġeyes": 1373,
      "Ġhour": 1374,
      "Ġans": 1375,
      "Ġsit": 1376,
      "Ġsong": 1377,
      "Ġhaving": 1378,
      "Ġgerm": 1379,
      "Ġhalf": 1380,
      "Ġnat": 1381,
      "Ġfoot": 1382,
      "ted": 1383,
      "Ġ8": 1384,
      "Ġuniversity": 1385,
      "Ġsoon": 1386,
      "?\"": 1387,
      "Ġnational": 1388,
      "Ġknew": 1389,
      "Ġsle": 1390,
      "Ġty": 1391,
      "Ġill": 1392,
      "Ġwind": 1393,
      "Ġasked": 1394,
      "20": 1395,
      "Ġupon": 1396,
      "tr": 1397,
      "gt": 1398,
      "ma": 1399,
      "Ġborn": 1400,
      "ison": 1401,
      "mor": 1402,
      "Ġbrother": 1403,
      "Ġwomen": 1404,
      "velop": 1405,
      "Ġalready": 1406,
      "Ġguy": 1407,
      "wards": 1408,
      "ives": 1409,
      ".âĢĿ": 1410,
      "Ġwrong": 1411,
      "your": 1412,
      "Ġblack": 1413,
      "Ġhold": 1414,
      "Ġvo": 1415,
      "like": 1416,
      "Ġ10": 1417,
      "Ġmaj": 1418,
      "Ġtry": 1419,
      "Ġfull": 1420,
      "Ġconst": 1421,
      "Ġpa": 1422,
      "with": 1423,
      "Ġorder": 1424,
      "Ġbegan": 1425,
      "Ġdiv": 1426,
      "Ġsaying": 1427,
      "Ġreturn": 1428,
      "Ġmonth": 1429,
      "Ġprob": 1430,
      "ched": 1431,
      "âĢĵ": 1432,
      "Ġpresident": 1433,
      "Ġref": 1434,
      "Ġprof": 1435,
      "Ġmeans": 1436,
      "arch": 1437,
      "Ġdet": 1438,
      "Ġchrist": 1439,
      "Ġcontin": 1440,
      "Ġ_": 1441,
      "Ġequ": 1442,
      "Ġstarted": 1443,
      "cle": 1444,
      "Ġhur": 1445,
      "Ġconf": 1446,
      "ural": 1447,
      "ster": 1448,
      "ically": 1449,
      "Ġtalking": 1450,
      "Ġoften": 1451,
      "ains": 1452,
      "Ġori": 1453,
      "den": 1454,
      "Ġnice": 1455,
      "Ġfight": 1456,
      "ided": 1457,
      "Ġalong": 1458,
      "ages": 1459,
      "Ġprom": 1460,
      "Ġround": 1461,
      "mon": 1462,
      "Ġ9": 1463,
      "Ġcommun": 1464,
      "Ġcertain": 1465,
      "Ġclass": 1466,
      "rop": 1467,
      "ering": 1468,
      "Ġra": 1469,
      "ows": 1470,
      "Ġexpl": 1471,
      "Ġhowever": 1472,
      "Ġshall": 1473,
      "Ġfuck": 1474,
      "Ġwife": 1475,
      "Ġparty": 1476,
      "Ġtrying": 1477,
      "cent": 1478,
      "Ġhon": 1479,
      "Ġdoor": 1480,
      "ility": 1481,
      "Ġprot": 1482,
      "Ġwhite": 1483,
      "Ġdevelop": 1484,
      "ax": 1485,
      "Ġremember": 1486,
      "Ġsound": 1487,
      "ches": 1488,
      "Ġ196": 1489,
      "Ġdef": 1490,
      "rict": 1491,
      "ats": 1492,
      "Ġswe": 1493,
      "Ġarea": 1494,
      "ately": 1495,
      "Ġmid": 1496,
      "Ġmark": 1497,
      "Ġsent": 1498,
      "ney": 1499,
      "Ġchange": 1500,
      "Ġgroup": 1501,
      "rap": 1502,
      "Ġless": 1503,
      "Ġleg": 1504,
      "Ġcreat": 1505,
      "lt": 1506,
      "ional": 1507,
      "Ġlear": 1508,
      "âĢľ": 1509,
      "ured": 1510,
      "Ġ15": 1511,
      "Ġidea": 1512,
      "amed": 1513,
      "Ġgone": 1514,
      "cha": 1515,
      "ered": 1516,
      "Ġplayed": 1517,
      "side": 1518,
      "Ġbusiness": 1519,
      "may": 1520,
      "Ġpet": 1521,
      "aken": 1522,
      "some": 1523,
      "Ġgovernment": 1524,
      "Ġtop": 1525,
      "Ġhappen": 1526,
      "Ġter": 1527,
      "Ġx": 1528,
      "Ġbring": 1529,
      "Ġint": 1530,
      "uro": 1531,
      "Ġcompany": 1532,
      "Ġbab": 1533,
      "Ġfall": 1534,
      "iter": 1535,
      "Ġmatter": 1536,
      "ator": 1537,
      "Ġ[": 1538,
      "Ġpret": 1539,
      "Ġshort": 1540,
      "Ġable": 1541,
      "wer": 1542,
      "because": 1543,
      "Ġmoment": 1544,
      "pend": 1545,
      "Ġsqu": 1546,
      "Ġred": 1547,
      "Ġ17": 1548,
      "Ġext": 1549,
      "Ġisland": 1550,
      "Ġpur": 1551,
      "Ġsomeone": 1552,
      "Ġ...": 1553,
      "Ġlost": 1554,
      "rence": 1555,
      "Ġje": 1556,
      "ides": 1557,
      "Ġterm": 1558,
      "Ġhor": 1559,
      "ler": 1560,
      "jo": 1561,
      "ship": 1562,
      "Ġpolit": 1563,
      "Ġten": 1564,
      "Ġstre": 1565,
      "apan": 1566,
      "Ġnews": 1567,
      "Ġdad": 1568,
      "Ġproblem": 1569,
      "ges": 1570,
      "Ġstory": 1571,
      "een": 1572,
      "Ġhat": 1573,
      "Ġsat": 1574,
      "alth": 1575,
      "tend": 1576,
      "ices": 1577,
      "Ġpartic": 1578,
      "gy": 1579,
      "la": 1580,
      "port": 1581,
      "Ġlarge": 1582,
      "Ġbur": 1583,
      "Ġexamp": 1584,
      "ained": 1585,
      "cri": 1586,
      "ilt": 1587,
      "Ġship": 1588,
      "Ġcontro": 1589,
      "Ġexper": 1590,
      "oot": 1591,
      "Ġwond": 1592,
      "Ġsuc": 1593,
      "ention": 1594,
      "anu": 1595,
      "Ġfine": 1596,
      "Ġage": 1597,
      "Ġbeaut": 1598,
      "Ġju": 1599,
      "pped": 1600,
      "Ġpresent": 1601,
      "Ġeat": 1602,
      "Ġoper": 1603,
      "aces": 1604,
      "!\"": 1605,
      "Ġsou": 1606,
      "Ġenglish": 1607,
      "Ġwatch": 1608,
      "Ġtrue": 1609,
      "iam": 1610,
      "Ġdel": 1611,
      "Ġweek": 1612,
      "Ġsum": 1613,
      "Ġorigin": 1614,
      "Ġfree": 1615,
      "ians": 1616,
      "Ġwasn": 1617,
      "Ġve": 1618,
      "ley": 1619,
      "ze": 1620,
      "Ġdou": 1621,
      "Ġpain": 1622,
      "Ġval": 1623,
      "Ġadv": 1624,
      "ls": 1625,
      "Ġpretty": 1626,
      "ped": 1627,
      "Ġgold": 1628,
      "Ġblood": 1629,
      "Ġvar": 1630,
      "hy": 1631,
      "ient": 1632,
      "ues": 1633,
      "ries": 1634,
      "Ġwest": 1635,
      "Ġanim": 1636,
      "Ġim": 1637,
      "eng": 1638,
      "used": 1639,
      "Ġtre": 1640,
      "Ġguys": 1641,
      "Ġvis": 1642,
      "Ġprobably": 1643,
      "angu": 1644,
      "ulation": 1645,
      "Ġbecome": 1646,
      "Ġbody": 1647,
      "Ġlooked": 1648,
      "Ġworking": 1649,
      "oc": 1650,
      "Ġsal": 1651,
      "Ġmaking": 1652,
      "Ġbrit": 1653,
      "Ġearly": 1654,
      "Ġid": 1655,
      "Ġdistrict": 1656,
      "Ġfilm": 1657,
      "chan": 1658,
      "Ġhaven": 1659,
      "Ġstation": 1660,
      "every": 1661,
      "Ġdeal": 1662,
      "Ġpublic": 1663,
      "Ġfire": 1664,
      "Ġyourself": 1665,
      "gram": 1666,
      "Ġpos": 1667,
      "Ġrom": 1668,
      "have": 1669,
      "Ġjapan": 1670,
      "men": 1671,
      "Ġbed": 1672,
      "Ġinde": 1673,
      "Ġdan": 1674,
      "Ġadm": 1675,
      "Ġhope": 1676,
      "Ġago": 1677,
      "hip": 1678,
      "Ġsci": 1679,
      "Ġsleep": 1680,
      "Ġpap": 1681,
      "Ġocc": 1682,
      "Ġalmost": 1683,
      "Ġsol": 1684,
      "Ġwouldn": 1685,
      "Ġcut": 1686,
      "Ġchur": 1687,
      "ĠâĢĵ": 1688,
      "Ġmovie": 1689,
      "Ġdrink": 1690,
      "Ġgeneral": 1691,
      "Ġ194": 1692,
      "Ġyork": 1693,
      "Ġintern": 1694,
      "Ġgiven": 1695,
      "Ġdisc": 1696,
      "Ġopp": 1697,
      "Ġhot": 1698,
      "Ġem": 1699,
      "Ġfrance": 1700,
      "Ġroad": 1701,
      "Ġrock": 1702,
      "Ġhands": 1703,
      "arent": 1704,
      "Ġspec": 1705,
      "Ġalb": 1706,
      "Ġclear": 1707,
      "ino": 1708,
      "veral": 1709,
      "Ġcomes": 1710,
      "raw": 1711,
      "anuary": 1712,
      "Ġest": 1713,
      "Ġlate": 1714,
      "ham": 1715,
      "Ġquestion": 1716,
      "ief": 1717,
      "par": 1718,
      "Ġthank": 1719,
      "Ġmur": 1720,
      "Ġmer": 1721,
      "born": 1722,
      "Ġmag": 1723,
      "Ġbegin": 1724,
      "Ġtele": 1725,
      "Ġeight": 1726,
      "hind": 1727,
      "Ġdev": 1728,
      "Ġreleased": 1729,
      "Ġorgan": 1730,
      "his": 1731,
      "Ġmyself": 1732,
      "Ġspeak": 1733,
      "Ġrece": 1734,
      "please": 1735,
      "dy": 1736,
      "Ġaw": 1737,
      "Ġav": 1738,
      "ety": 1739,
      "ama": 1740,
      "ards": 1741,
      "Ġgoes": 1742,
      "Ġton": 1743,
      "Âł": 1744,
      "enty": 1745,
      "Ġmarch": 1746,
      "mr": 1747,
      "Ġcomple": 1748,
      "Ġkilled": 1749,
      "orm": 1750,
      "Ġ16": 1751,
      "inc": 1752,
      "ai": 1753,
      "Ġport": 1754,
      "ns": 1755,
      "Ġlangu": 1756,
      "Ġbrought": 1757,
      "Ġfriends": 1758,
      "Ġprogram": 1759,
      "Ġleast": 1760,
      "Ġseries": 1761,
      "Ġhuman": 1762,
      "Ġsil": 1763,
      "Ġdaughter": 1764,
      "Ġcourt": 1765,
      "Ġfood": 1766,
      "Ġfre": 1767,
      "Ġseveral": 1768,
      "Ġjanuary": 1769,
      "Ġ``": 1770,
      "got": 1771,
      "Ġpast": 1772,
      "ived": 1773,
      "Ġ12": 1774,
      "Ġcolle": 1775,
      "Ġexample": 1776,
      "ove": 1777,
      "selves": 1778,
      "Ġtaken": 1779,
      "haps": 1780,
      "Ġready": 1781,
      "Ġsun": 1782,
      "Ġfront": 1783,
      "Ġpie": 1784,
      "Ġreason": 1785,
      "ude": 1786,
      "Ġclose": 1787,
      "iously": 1788,
      "Ġwords": 1789,
      "Ġann": 1790,
      "Ġmaybe": 1791,
      "Ġcamp": 1792,
      "Ġinform": 1793,
      "Ġband": 1794,
      "Ġstar": 1795,
      "iful": 1796,
      "ology": 1797,
      "Ġeuro": 1798,
      "Ġ195": 1799,
      "Ġcommon": 1800,
      "Ġdesign": 1801,
      "Ġprofess": 1802,
      "Ġtem": 1803,
      "Ġmajor": 1804,
      "bed": 1805,
      "ring": 1806,
      "artment": 1807,
      "Ġvir": 1808,
      "Ġreport": 1809,
      "ush": 1810,
      "Ġmillion": 1811,
      "ese": 1812,
      "ots": 1813,
      "Ġsold": 1814,
      "see": 1815,
      "Ġmarried": 1816,
      "utes": 1817,
      "Ġstuff": 1818,
      "Ġrad": 1819,
      "iting": 1820,
      "Ġbehind": 1821,
      "Ġgrand": 1822,
      "bs": 1823,
      "huh": 1824,
      "ract": 1825,
      "iqu": 1826,
      "Ġallow": 1827,
      "Ġpick": 1828,
      "Ġmic": 1829,
      "was": 1830,
      "augh": 1831,
      "ality": 1832,
      "Ġcharac": 1833,
      "head": 1834,
      "aced": 1835,
      "Ġrather": 1836,
      "sc": 1837,
      "Ġaust": 1838,
      "Ġguess": 1839,
      "Ġcou": 1840,
      "unt": 1841,
      "Ġhappy": 1842,
      "Ġchurch": 1843,
      "Ġsupport": 1844,
      "ford": 1845,
      "Ġbreak": 1846,
      "undred": 1847,
      "Ġhistory": 1848,
      "Ġdog": 1849,
      ",âĢĿ": 1850,
      "Ġhit": 1851,
      "Ġalone": 1852,
      "after": 1853,
      "Ġriver": 1854,
      "Ġir": 1855,
      "Ġfig": 1856,
      "Ġcost": 1857,
      "fic": 1858,
      "ĠâĻª": 1859,
      "Ġvill": 1860,
      "Ġquick": 1861,
      "ience": 1862,
      "Ġjack": 1863,
      "Ġstrong": 1864,
      "Ġdream": 1865,
      "rench": 1866,
      "Ġattack": 1867,
      "Ġmakes": 1868,
      "oud": 1869,
      "ency": 1870,
      "ament": 1871,
      "Ġsometimes": 1872,
      "Ġtaking": 1873,
      "ser": 1874,
      "Ġsea": 1875,
      "band": 1876,
      "Ġ&": 1877,
      "atic": 1878,
      "Ġothers": 1879,
      "Ġbill": 1880,
      "itten": 1881,
      "ium": 1882,
      "osp": 1883,
      "oke": 1884,
      "Ġtest": 1885,
      "Ġsuccess": 1886,
      "ones": 1887,
      "Ġeither": 1888,
      "Ġalbum": 1889,
      "full": 1890,
      "Ġearth": 1891,
      "Ġliving": 1892,
      "Ġpark": 1893,
      "Ġturned": 1894,
      "pro": 1895,
      "Ġresp": 1896,
      "Ġpal": 1897,
      "Ġcop": 1898,
      "Ġthird": 1899,
      "anna": 1900,
      "Ġcoun": 1901,
      "umb": 1902,
      "Ġspecial": 1903,
      "Ġmount": 1904,
      "Ġhundred": 1905,
      "Ġeurope": 1906,
      "Ġmad": 1907,
      "Ġthinking": 1908,
      "mbers": 1909,
      "Ġ0": 1910,
      "ii": 1911,
      "Ġfa": 1912,
      "ague": 1913,
      "Ġoffice": 1914,
      "ently": 1915,
      "Ġcaptain": 1916,
      "gu": 1917,
      "lling": 1918,
      "more": 1919,
      "elt": 1920,
      "Ġelect": 1921,
      "Ġtot": 1922,
      "idge": 1923,
      "Ġstru": 1924,
      "Ġmrs": 1925,
      "Ġlisten": 1926,
      "Ġwithin": 1927,
      "Ġdie": 1928,
      "Ġcouldn": 1929,
      "Ġeast": 1930,
      "Ġpict": 1931,
      "ement": 1932,
      "Ġmess": 1933,
      "dle": 1934,
      "fort": 1935,
      "ior": 1936,
      "Ġpen": 1937,
      "lly": 1938,
      "Ġfif": 1939,
      "mar": 1940,
      "Ġwall": 1941,
      "med": 1942,
      "Ġnamed": 1943,
      "ptember": 1944,
      "bl": 1945,
      "Ġgrow": 1946,
      "actly": 1947,
      "Ġdam": 1948,
      "Ġbaby": 1949,
      "Ġbritish": 1950,
      "dom": 1951,
      "ffect": 1952,
      "Ġgun": 1953,
      "Ġ$": 1954,
      "Ġfur": 1955,
      "Ġheld": 1956,
      "hello": 1957,
      "Ġusually": 1958,
      "Ġtrain": 1959,
      "hi": 1960,
      "thern": 1961,
      "Ġbuilding": 1962,
      "Ġstreet": 1963,
      "ump": 1964,
      "Ġappro": 1965,
      "tw": 1966,
      "ril": 1967,
      "Ġbeautiful": 1968,
      "Ġfair": 1969,
      "Ġservice": 1970,
      "Ġtou": 1971,
      "Ġexpect": 1972,
      "Ġchamp": 1973,
      "Ġcre": 1974,
      "Ġcross": 1975,
      "Ġamong": 1976,
      "bert": 1977,
      "Ġbri": 1978,
      "Ġcheck": 1979,
      "Ġstep": 1980,
      "ograp": 1981,
      "Ġpoor": 1982,
      "cr": 1983,
      "Ġseason": 1984,
      "lished": 1985,
      "ming": 1986,
      "Ġvict": 1987,
      "Ġbuilt": 1988,
      "aged": 1989,
      "Ġresult": 1990,
      "Ġwonder": 1991,
      "Ġcir": 1992,
      "Ġtrou": 1993,
      "bru": 1994,
      "ask": 1995,
      "Ġsuper": 1996,
      "orge": 1997,
      "Ġdece": 1998,
      "estern": 1999,
      "Ġrequ": 2000,
      "Ġimm": 2001,
      "Ġdear": 2002,
      "ondon": 2003,
      "ert": 2004,
      "Ġlay": 2005,
      "Ġsingle": 2006,
      "ider": 2007,
      "Ġfootball": 2008,
      "Ġperform": 2009,
      "sy": 2010,
      "vision": 2011,
      "read": 2012,
      "fully": 2013,
      "Ġmembers": 2014,
      "itting": 2015,
      "Ġfollowing": 2016,
      "Ġvide": 2017,
      "Ġleav": 2018,
      "Ġlocal": 2019,
      "ead": 2020,
      "Ġcast": 2021,
      "Ġhus": 2022,
      "Ġru": 2023,
      "Ġlady": 2024,
      "Ġteac": 2025,
      "Ġmonths": 2026,
      "work": 2027,
      "Ġfrench": 2028,
      "eth": 2029,
      "Ġeffect": 2030,
      "Ġusing": 2031,
      "Ġground": 2032,
      "Ġjuly": 2033,
      "Ġacross": 2034,
      "Ġconcer": 2035,
      "Ġphil": 2036,
      "Ġhell": 2037,
      "Ġaug": 2038,
      "Ġran": 2039,
      "Ġseptember": 2040,
      "iving": 2041,
      "Ġpossible": 2042,
      "ober": 2043,
      "Ġdest": 2044,
      "which": 2045,
      "Ġsend": 2046,
      "unk": 2047,
      "ination": 2048,
      "Ġhy": 2049,
      "Ġlord": 2050,
      "Ġminutes": 2051,
      "Ġlab": 2052,
      "Ġjud": 2053,
      "ode": 2054,
      "resent": 2055,
      "ousand": 2056,
      "po": 2057,
      "Ġincluding": 2058,
      "Ġrepl": 2059,
      "bit": 2060,
      "Ġdark": 2061,
      "Ġpolice": 2062,
      "ature": 2063,
      "Ġ193": 2064,
      "ey": 2065,
      "Ġauth": 2066,
      "zy": 2067,
      "Ġtech": 2068,
      "Ġcond": 2069,
      "Ġabs": 2070,
      "view": 2071,
      "Ġtried": 2072,
      "Ġball": 2073,
      "Ġda": 2074,
      "Ġmember": 2075,
      "Ġmot": 2076,
      "Ġcra": 2077,
      "Ġoct": 2078,
      "Ġclub": 2079,
      "maybe": 2080,
      "Ġwood": 2081,
      "ike": 2082,
      "Ġ*": 2083,
      "Ġwants": 2084,
      "Ġinside": 2085,
      "Ġdoctor": 2086,
      "Ġvie": 2087,
      "Ġlooks": 2088,
      "anger": 2089,
      "hel": 2090,
      "fer": 2091,
      "Ġ11": 2092,
      "aring": 2093,
      "Ġbir": 2094,
      "Ġpopulation": 2095,
      "ald": 2096,
      "ached": 2097,
      "Ġseven": 2098,
      "Ġvoice": 2099,
      "Ġtreat": 2100,
      "Ġlow": 2101,
      "Ġlevel": 2102,
      "Ġsecret": 2103,
      "Ġdepartment": 2104,
      "Ġjune": 2105,
      "sha": 2106,
      "ases": 2107,
      "take": 2108,
      "attle": 2109,
      "Ġlived": 2110,
      "Ġmod": 2111,
      "Ġmass": 2112,
      "ances": 2113,
      "Ġver": 2114,
      "Ġfield": 2115,
      "Ġplaying": 2116,
      "Ġwritten": 2117,
      "||": 2118,
      "lled": 2119,
      "give": 2120,
      "ified": 2121,
      "gress": 2122,
      "Ġsus": 2123,
      "Ġpress": 2124,
      "Ġchance": 2125,
      "Ġlanguage": 2126,
      "gest": 2127,
      "Î¿": 2128,
      "Ġthousand": 2129,
      "Ġprocess": 2130,
      "Ġcollege": 2131,
      "Ġview": 2132,
      "Ġlondon": 2133,
      "Ġmor": 2134,
      "Ġcentury": 2135,
      "soci": 2136,
      "Ġexc": 2137,
      "Ġanyone": 2138,
      "Ġfelt": 2139,
      "vember": 2140,
      "Ġarmy": 2141,
      "Ġtour": 2142,
      "morrow": 2143,
      "Ġaugust": 2144,
      "Ġworry": 2145,
      "Ġoutside": 2146,
      "itions": 2147,
      "Ġtill": 2148,
      "Ġanswer": 2149,
      "Ġgotta": 2150,
      "Ġformer": 2151,
      "ery": 2152,
      "Ġhusband": 2153,
      "Ġregion": 2154,
      "arr": 2155,
      "bur": 2156,
      "Ġvi": 2157,
      "Ġengland": 2158,
      "por": 2159,
      "Ġinformation": 2160,
      "Ġbuy": 2161,
      "Ġhill": 2162,
      "Ġgames": 2163,
      "Ġdefe": 2164,
      "els": 2165,
      "Ġprotect": 2166,
      "Ġworks": 2167,
      "iod": 2168,
      "ories": 2169,
      "Ġ13": 2170,
      "Ġapril": 2171,
      "aim": 2172,
      "Ġital": 2173,
      "Ġcry": 2174,
      "Ġeveryone": 2175,
      "avy": 2176,
      "Ġeduc": 2177,
      "Ġbased": 2178,
      "Ġrail": 2179,
      "Ġpost": 2180,
      "from": 2181,
      "will": 2182,
      "Ġworked": 2183,
      "Ġboys": 2184,
      "Ġminute": 2185,
      "Ġcomplete": 2186,
      "Ġproper": 2187,
      "bruary": 2188,
      "Ġevent": 2189,
      "Ġhig": 2190,
      "Ġang": 2191,
      "Ġparticular": 2192,
      "Ġsn": 2193,
      "gen": 2194,
      "spe": 2195,
      "Ġ14": 2196,
      "Ġlad": 2197,
      "Ġhey": 2198,
      "Ġwhether": 2199,
      "Ġrob": 2200,
      "anc": 2201,
      "ov": 2202,
      "aint": 2203,
      "Ġhours": 2204,
      "Ġoctober": 2205,
      "ana": 2206,
      "Ġnet": 2207,
      "vered": 2208,
      "Ġtrad": 2209,
      "Ġcurrent": 2210,
      "Ġconne": 2211,
      "Ġpract": 2212,
      "....": 2213,
      "Ġlives": 2214,
      "Ġcannot": 2215,
      "Ġwrote": 2216,
      "Ġinvol": 2217,
      "Ġdecember": 2218,
      "10": 2219,
      "Ġwish": 2220,
      "Ġgets": 2221,
      "Ġris": 2222,
      "Ġtechn": 2223,
      "Ġtelevision": 2224,
      "Ġgreen": 2225,
      "Ġgerman": 2226,
      "unch": 2227,
      "Ġnovember": 2228,
      "Ġeasy": 2229,
      "Ġpriv": 2230,
      "Ġtit": 2231,
      "Ġlim": 2232,
      "asure": 2233,
      "Ġseems": 2234,
      "Ġauthor": 2235,
      "Ġprop": 2236,
      "yal": 2237,
      "Ġep": 2238,
      "Ġcold": 2239,
      "Ġdiffic": 2240,
      "Ġfav": 2241,
      "ell": 2242,
      "Ġperhaps": 2243,
      "amb": 2244,
      "Ġcommand": 2245,
      "Ġwanna": 2246,
      "Ġ30": 2247,
      "Ġrepresent": 2248,
      "wait": 2249,
      "eral": 2250,
      "Ġknows": 2251,
      "Ġsoci": 2252,
      "Ġsweet": 2253,
      "Ġamerica": 2254,
      "Ġsense": 2255,
      "raid": 2256,
      "Ġcompet": 2257,
      "Ġ2013": 2258,
      "itch": 2259,
      "key": 2260,
      "ounds": 2261,
      "Ġtwenty": 2262,
      "yed": 2263,
      "ffic": 2264,
      "Ġaward": 2265,
      "Ġstra": 2266,
      "Ġfell": 2267,
      "Ġassoci": 2268,
      "Ġmine": 2269,
      "Ġcouple": 2270,
      "Ġvers": 2271,
      "Ġtruth": 2272,
      "Ġcontrol": 2273,
      "ipp": 2274,
      "Ġhair": 2275,
      "Ġant": 2276,
      "Ġbird": 2277,
      "Ġfebruary": 2278,
      "Ġchanged": 2279,
      "cil": 2280,
      "idence": 2281,
      "ida": 2282,
      "Ġflo": 2283,
      "Ġsen": 2284,
      "cut": 2285,
      "Ġtomorrow": 2286,
      "Ġmoved": 2287,
      "ob": 2288,
      "itive": 2289,
      "Ġcult": 2290,
      "ival": 2291,
      "Ġciv": 2292,
      "Ġparent": 2293,
      "Ġexactly": 2294,
      "Ġperiod": 2295,
      "Ġtrave": 2296,
      "ata": 2297,
      "Ġvideo": 2298,
      "pre": 2299,
      "Ġtur": 2300,
      "Ġfail": 2301,
      "Ġlonger": 2302,
      "hard": 2303,
      "ula": 2304,
      "though": 2305,
      "ille": 2306,
      "Ġcos": 2307,
      "Ġones": 2308,
      "room": 2309,
      "ribut": 2310,
      "ublic": 2311,
      "Ġdin": 2312,
      "Ġdeep": 2313,
      "Ġcat": 2314,
      "ization": 2315,
      "Ġrelig": 2316,
      "Ġsex": 2317,
      "Ġindian": 2318,
      "ding": 2319,
      "Ġcommune": 2320,
      "ef": 2321,
      "erv": 2322,
      "Ġfast": 2323,
      "Ġ202": 2324,
      "Ġcareer": 2325,
      "Ġinstead": 2326,
      "Ġpull": 2327,
      "Ġdirect": 2328,
      "cum": 2329,
      "time": 2330,
      "night": 2331,
      "Ġfeet": 2332,
      "Ġshot": 2333,
      "ept": 2334,
      "Ġtrust": 2335,
      "Ġshoot": 2336,
      "tell": 2337,
      "ray": 2338,
      "cially": 2339,
      "Ġwrite": 2340,
      "Ġsud": 2341,
      "ging": 2342,
      "Ġtable": 2343,
      "Ġlie": 2344,
      "Ġrev": 2345,
      "Ġ2010": 2346,
      "18": 2347,
      "ien": 2348,
      "Ġsister": 2349,
      "airs": 2350,
      "ky": 2351,
      "Ġcharacter": 2352,
      "Ġhealth": 2353,
      "Ġthemselves": 2354,
      "car": 2355,
      "ressed": 2356,
      "oose": 2357,
      "Ġproject": 2358,
      "Ġspace": 2359,
      "Ġbirth": 2360,
      "Ġforce": 2361,
      "hael": 2362,
      "Ġafraid": 2363,
      "bye": 2364,
      "line": 2365,
      "iding": 2366,
      "Ġsocial": 2367,
      "ony": 2368,
      "Ġdisco": 2369,
      "conom": 2370,
      "Ġincre": 2371,
      "mal": 2372,
      "Ġphone": 2373,
      "stop": 2374,
      "ration": 2375,
      "Ġnin": 2376,
      "emy": 2377,
      "Ġblue": 2378,
      "hen": 2379,
      "ption": 2380,
      "Ġkids": 2381,
      "bers": 2382,
      "uation": 2383,
      "Ġbull": 2384,
      "Ġpopular": 2385,
      "ission": 2386,
      "Ġmiddle": 2387,
      "Ġvillage": 2388,
      "ken": 2389,
      "Ġdescri": 2390,
      "Ġreceived": 2391,
      "Ġkept": 2392,
      "Ġcollect": 2393,
      "Ġleague": 2394,
      "ording": 2395,
      "Ġclean": 2396,
      "Ġfut": 2397,
      "list": 2398,
      "Ġafric": 2399,
      "Ġvirgin": 2400,
      "Ġhosp": 2401,
      "Ġroman": 2402,
      "put": 2403,
      "Ġhen": 2404,
      "Ġtype": 2405,
      "ilar": 2406,
      "Ġgirls": 2407,
      "hold": 2408,
      "Ġmaster": 2409,
      "Ġvol": 2410,
      "Ġpaper": 2411,
      "Ġric": 2412,
      "ogn": 2413,
      "even": 2414,
      "Ġluck": 2415,
      "Ġrunning": 2416,
      "Ġtrouble": 2417,
      "uk": 2418,
      "Ġlat": 2419,
      "Ġarri": 2420,
      "Ġabove": 2421,
      "Ġwhatever": 2422,
      "Ġcivil": 2423,
      "Ġdue": 2424,
      "entle": 2425,
      "Ġbroad": 2426,
      "Ġden": 2427,
      "Ġaccept": 2428,
      "yn": 2429,
      "lant": 2430,
      "Ġdi": 2431,
      "Ġletter": 2432,
      "Ġsett": 2433,
      "Ġtonight": 2434,
      "irty": 2435,
      "Ġcapital": 2436,
      "Ġinfl": 2437,
      "Ġ25": 2438,
      "Ġplayer": 2439,
      "Ġinternational": 2440,
      "sa": 2441,
      "Ġfly": 2442,
      "Ġeye": 2443,
      "Ġsupposed": 2444,
      "Ġdro": 2445,
      "Ġinvest": 2446,
      "Ġbott": 2447,
      "king": 2448,
      "Ġcountries": 2449,
      "Ġmoder": 2450,
      "Ġentire": 2451,
      "sp": 2452,
      "cture": 2453,
      "Ġperfect": 2454,
      "Ġbud": 2455,
      "Ġdem": 2456,
      "Ġled": 2457,
      "Ġcrit": 2458,
      "Ġrul": 2459,
      "Ġpan": 2460,
      "ggest": 2461,
      "Ġseemed": 2462,
      "over": 2463,
      "Ġforget": 2464,
      "dr": 2465,
      "Ġrese": 2466,
      "Ġspir": 2467,
      "Ġcomput": 2468,
      "Ġmal": 2469,
      "ada": 2470,
      "Ġinclude": 2471,
      "Ġcup": 2472,
      "Ġshut": 2473,
      "Ġneeds": 2474,
      "Ġbal": 2475,
      "Ġtom": 2476,
      "Ġcreated": 2477,
      "Ġbeat": 2478,
      "cing": 2479,
      "wel": 2480,
      "Ġgar": 2481,
      "Ġworth": 2482,
      "Ġunion": 2483,
      "these": 2484,
      "Ġbox": 2485,
      "Ġrespect": 2486,
      "thanks": 2487,
      "Ġfucking": 2488,
      "Ġwaiting": 2489,
      "Ġposition": 2490,
      "sorry": 2491,
      "Ġproduct": 2492,
      "somet": 2493,
      "Ġsca": 2494,
      "bt": 2495,
      "gre": 2496,
      "Ġexcept": 2497,
      "Ġeverybody": 2498,
      "Ġcho": 2499,
      "would": 2500,
      "Ġnine": 2501,
      "kes": 2502,
      "Ġmult": 2503,
      "Ġfurther": 2504,
      "Ġitself": 2505,
      "Ġsudden": 2506,
      "Ġeconom": 2507,
      "urs": 2508,
      "Ġphys": 2509,
      "ror": 2510,
      "avid": 2511,
      "Ġsan": 2512,
      "Ġdut": 2513,
      "acy": 2514,
      "olute": 2515,
      "Ġshit": 2516,
      "ference": 2517,
      "Ġfamous": 2518,
      "Ġengine": 2519,
      "Ġhurt": 2520,
      "yl": 2521,
      "Ġmist": 2522,
      "Ġstat": 2523,
      "Ġqueen": 2524,
      "Ġrepublic": 2525,
      "Ġsummer": 2526,
      "Ġsuggest": 2527,
      "Ġmilit": 2528,
      "ially": 2529,
      "inal": 2530,
      "ays": 2531,
      "oof": 2532,
      "ĠĠĠĠĠĠĠĠ": 2533,
      "Ġhall": 2534,
      "rodu": 2535,
      "olution": 2536,
      "Ġamount": 2537,
      "Ġphot": 2538,
      "Ġfuture": 2539,
      "Ġhop": 2540,
      "Ġhu": 2541,
      "Ġrole": 2542,
      "Ġchampions": 2543,
      "light": 2544,
      "Ġburn": 2545,
      "owers": 2546,
      "Ġdifficult": 2547,
      "Ġtree": 2548,
      "Ġtakes": 2549,
      "Ġstraight": 2550,
      "under": 2551,
      "Ġmis": 2552,
      "ara": 2553,
      "Ġhang": 2554,
      "ffe": 2555,
      "Ġclot": 2556,
      "Ġboard": 2557,
      "Ġsomebody": 2558,
      "Ġhorse": 2559,
      "oint": 2560,
      "Ġber": 2561,
      "Ġrecogn": 2562,
      "Ġfle": 2563,
      "Ġcentral": 2564,
      "Ġweeks": 2565,
      "Ġaustral": 2566,
      "Ġ]": 2567,
      "Ġstri": 2568,
      "Ġserved": 2569,
      "Ġdecided": 2570,
      "Ġsave": 2571,
      "Ġtouch": 2572,
      "Ġgeorge": 2573,
      "Ġhospital": 2574,
      "Ġring": 2575,
      "old": 2576,
      "cast": 2577,
      "Ġjour": 2578,
      "Ġfeeling": 2579,
      "Ġsafe": 2580,
      "Ġevening": 2581,
      "Ġnon": 2582,
      "Ġarm": 2583,
      "off": 2584,
      "yle": 2585,
      "Ġfill": 2586,
      "bor": 2587,
      "Ġcook": 2588,
      "gar": 2589,
      "Ġlaugh": 2590,
      "Ġ24": 2591,
      "Ġsurpr": 2592,
      "Ġstood": 2593,
      "pecially": 2594,
      "Ġthanks": 2595,
      "Ġben": 2596,
      "wor": 2597,
      "ston": 2598,
      "Ġarch": 2599,
      "omin": 2600,
      "Ġprovince": 2601,
      "back": 2602,
      "ergy": 2603,
      "Ġdu": 2604,
      "Ġaren": 2605,
      "Ġimag": 2606,
      "Ġforest": 2607,
      "Ġbene": 2608,
      "Ġrain": 2609,
      "Ġcommunity": 2610,
      "15": 2611,
      "tom": 2612,
      "Ġpeter": 2613,
      "Ġexist": 2614,
      "Ġdraw": 2615,
      "empt": 2616,
      "Ġslow": 2617,
      "Ġdar": 2618,
      "Ġpassed": 2619,
      "Ġproblems": 2620,
      "Ġcorn": 2621,
      "ades": 2622,
      "gl": 2623,
      "Ġmeant": 2624,
      "teen": 2625,
      "Ġfinal": 2626,
      "Ġpot": 2627,
      "Ġchief": 2628,
      "Ġmatch": 2629,
      "cher": 2630,
      "Ġcenter": 2631,
      "Ġain": 2632,
      "Ġmeeting": 2633,
      "Ġlos": 2634,
      "Ġgentle": 2635,
      "iment": 2636,
      "Ġprison": 2637,
      "Ġcover": 2638,
      "Ġsand": 2639,
      "gn": 2640,
      "Ġgard": 2641,
      "ceed": 2642,
      "Ġtrack": 2643,
      "Ġcried": 2644,
      "Ġtelling": 2645,
      "Ġfed": 2646,
      "Ġ192": 2647,
      "Ġfigure": 2648,
      "str": 2649,
      "Ġshar": 2650,
      "Ġsubject": 2651,
      "Ġanyway": 2652,
      "Ġindia": 2653,
      "Ġpicture": 2654,
      "gs": 2655,
      "riage": 2656,
      "Ġprin": 2657,
      "Ġcam": 2658,
      "ued": 2659,
      "Ġshop": 2660,
      "Ġdrive": 2661,
      "Ġcrazy": 2662,
      "Ġparents": 2663,
      "lin": 2664,
      "Ġcarry": 2665,
      "Ġfamil": 2666,
      "Ġobject": 2667,
      "Ġmater": 2668,
      "Ġjames": 2669,
      "Ġaut": 2670,
      "Ġrelation": 2671,
      "inois": 2672,
      "cap": 2673,
      "Ġfro": 2674,
      "Ġterri": 2675,
      "Ġbattle": 2676,
      "viously": 2677,
      "ising": 2678,
      "omb": 2679,
      "Ġsimilar": 2680,
      "Ġmodern": 2681,
      "Ġruss": 2682,
      "ager": 2683,
      "Ġenjo": 2684,
      "ole": 2685,
      "val": 2686,
      "Ġchair": 2687,
      "Ġaud": 2688,
      "nel": 2689,
      "Ġfort": 2690,
      "Ġpolic": 2691,
      "Ġspecies": 2692,
      "rit": 2693,
      "Ġur": 2694,
      "two": 2695,
      "Ġsociety": 2696,
      "17": 2697,
      "Ġcool": 2698,
      "Ġhost": 2699,
      "Ġkingdom": 2700,
      "Ġfrank": 2701,
      "Ġwal": 2702,
      "Ġsail": 2703,
      "Ġalthough": 2704,
      "Ġcomb": 2705,
      "Ġplaces": 2706,
      "Ġfollowed": 2707,
      "Ġpiece": 2708,
      "Ġdanger": 2709,
      "Ġreturned": 2710,
      "âĢĶ": 2711,
      "Ġindust": 2712,
      "Ġteacher": 2713,
      "vir": 2714,
      "Ġgermany": 2715,
      "Ġestab": 2716,
      "Ġbor": 2717,
      "Ġsoft": 2718,
      "Ġscience": 2719,
      "lls": 2720,
      "Ġherself": 2721,
      "Ġ2011": 2722,
      "ping": 2723,
      "ician": 2724,
      "Ġglad": 2725,
      "Ġoriginal": 2726,
      "Ġviol": 2727,
      "Ġparts": 2728,
      "Ġopened": 2729,
      "ville": 2730,
      "Ġcertainly": 2731,
      "sure": 2732,
      "Ġsick": 2733,
      "lect": 2734,
      "Ġcoast": 2735,
      "ression": 2736,
      "Ġbooks": 2737,
      "Ġjapanese": 2738,
      "ored": 2739,
      "Ġhun": 2740,
      "Ġhung": 2741,
      "Ġ2006": 2742,
      "Ġfir": 2743,
      "Ġwhom": 2744,
      "Ġwilliam": 2745,
      "Ġcouncil": 2746,
      "rel": 2747,
      "Ġrich": 2748,
      "Ġange": 2749,
      "Ġpeace": 2750,
      "Ġappear": 2751,
      "12": 2752,
      "14": 2753,
      "Ġillinois": 2754,
      "pa": 2755,
      "ero": 2756,
      "Ġfellow": 2757,
      "Ġsepar": 2758,
      "Ġmarket": 2759,
      "Ġcause": 2760,
      "Ġbeginning": 2761,
      "know": 2762,
      "Ġbecom": 2763,
      "Ġ2012": 2764,
      "Ġself": 2765,
      "wered": 2766,
      "Ġmach": 2767,
      "Ġflor": 2768,
      "nes": 2769,
      "edi": 2770,
      "Ġmoving": 2771,
      "Ġbat": 2772,
      "Ġord": 2773,
      "Ġlearn": 2774,
      "Ġbreat": 2775,
      "Ġ100": 2776,
      "ift": 2777,
      "Ġtyp": 2778,
      "god": 2779,
      "had": 2780,
      "Ġkiss": 2781,
      "ply": 2782,
      "Ġfeat": 2783,
      "Ġgrad": 2784,
      "erson": 2785,
      "itted": 2786,
      "min": 2787,
      "wood": 2788,
      "zz": 2789,
      "Ġbank": 2790,
      "Ġagre": 2791,
      "Ġtowards": 2792,
      "Ġvirginia": 2793,
      "Ġah": 2794,
      "Ġmary": 2795,
      "Ġquestions": 2796,
      "Ġwhose": 2797,
      "Ġclos": 2798,
      "Ġactiv": 2799,
      "iers": 2800,
      "Ġtotal": 2801,
      "hist": 2802,
      "ires": 2803,
      "Ġspend": 2804,
      "Ġpolitical": 2805,
      "bon": 2806,
      "ram": 2807,
      "keep": 2808,
      "nothing": 2809,
      "Ġquickly": 2810,
      "inite": 2811,
      "Ġwild": 2812,
      "Ġstudents": 2813,
      "Ġpaid": 2814,
      "Ġcatch": 2815,
      "orts": 2816,
      "Ġarg": 2817,
      "Ġhistor": 2818,
      "agon": 2819,
      "action": 2820,
      "Ġident": 2821,
      "Ġannoun": 2822,
      "Ġleaving": 2823,
      "Ġahead": 2824,
      "Ġfem": 2825,
      "aff": 2826,
      "Ġthou": 2827,
      "imate": 2828,
      "abad": 2829,
      "Ġsad": 2830,
      "ishing": 2831,
      "Ġhol": 2832,
      "cour": 2833,
      "Ġroyal": 2834,
      "Ġradio": 2835,
      "ga": 2836,
      "Ġban": 2837,
      "Ġfac": 2838,
      "Ġmiles": 2839,
      "Ġnecess": 2840,
      "Ġhappens": 2841,
      "dam": 2842,
      "ris": 2843,
      "iforn": 2844,
      "_,": 2845,
      "face": 2846,
      "ica": 2847,
      "Ġminister": 2848,
      "Ġfer": 2849,
      "xic": 2850,
      "Ġlu": 2851,
      "cient": 2852,
      "Ġdisapp": 2853,
      "Ġtax": 2854,
      "Ġinf": 2855,
      "âĢİ": 2856,
      "Ġanimals": 2857,
      "Ġvisit": 2858,
      "Ġfund": 2859,
      "ume": 2860,
      "Ġsuppose": 2861,
      "Ġglass": 2862,
      "Ġmention": 2863,
      "Ġaccount": 2864,
      "ka": 2865,
      "Ġterms": 2866,
      "Ġquiet": 2867,
      "Ġinteresting": 2868,
      "Ġlou": 2869,
      "Ġeducation": 2870,
      "cus": 2871,
      "Ġdevelopment": 2872,
      "Ġpy": 2873,
      "ifornia": 2874,
      ".,": 2875,
      "ago": 2876,
      "Ġofficer": 2877,
      "Ġnatural": 2878,
      "Ġsearch": 2879,
      "Ġfinally": 2880,
      "Ġrid": 2881,
      "cos": 2882,
      "Ġstage": 2883,
      "Ġ(\"": 2884,
      "itional": 2885,
      "Ġmun": 2886,
      "Ġneigh": 2887,
      "Ġchampionship": 2888,
      "Ġgiving": 2889,
      "Ġforward": 2890,
      "Ġbase": 2891,
      "Ġmart": 2892,
      "Ġjim": 2893,
      "Ġexperience": 2894,
      "Ġglo": 2895,
      "Ġdoll": 2896,
      "Ġclaim": 2897,
      "Ġinflu": 2898,
      "mus": 2899,
      "Ġcab": 2900,
      "Ġnature": 2901,
      "mat": 2902,
      "Ġreached": 2903,
      "Ġwel": 2904,
      "ivid": 2905,
      "Ġta": 2906,
      "Ġways": 2907,
      "Ġvarious": 2908,
      "house": 2909,
      "west": 2910,
      "Ġq": 2911,
      "Ġdepend": 2912,
      "really": 2913,
      "ids": 2914,
      "Ġrout": 2915,
      "Ġjer": 2916,
      "Ġbow": 2917,
      "Ġkey": 2918,
      "Ġpublished": 2919,
      "eter": 2920,
      "ste": 2921,
      "only": 2922,
      "Ġmir": 2923,
      "Ġdestro": 2924,
      "Ġ#": 2925,
      "Ġsar": 2926,
      "Ġwestern": 2927,
      "Ġcommit": 2928,
      "Ġlose": 2929,
      "Ġanswered": 2930,
      "bet": 2931,
      "Ġfix": 2932,
      "Ġdru": 2933,
      "Ġemb": 2934,
      "Ġaction": 2935,
      "van": 2936,
      "Ġii": 2937,
      "Ġstudy": 2938,
      "Ġrespons": 2939,
      "ya": 2940,
      "itz": 2941,
      "Ġprivate": 2942,
      "cape": 2943,
      "Ġcy": 2944,
      "Ġequal": 2945,
      "Ġmouth": 2946,
      "Ġcalifornia": 2947,
      "Ġfinished": 2948,
      "ensive": 2949,
      "itution": 2950,
      "Ġplant": 2951,
      "ear": 2952,
      "Ġcens": 2953,
      "Ġperm": 2954,
      "cious": 2955,
      "Ġintrodu": 2956,
      "Ġseat": 2957,
      "about": 2958,
      "raft": 2959,
      "play": 2960,
      "Ġfunny": 2961,
      "Ġenergy": 2962,
      "Ġallowed": 2963,
      "Ġstrange": 2964,
      "ius": 2965,
      "Ġtv": 2966,
      "inct": 2967,
      "Ġsitting": 2968,
      "Ġshows": 2969,
      "Ġcro": 2970,
      "cul": 2971,
      "Ġfear": 2972,
      "Ġconsider": 2973,
      "Ġ23": 2974,
      "Ġnumbers": 2975,
      "Ġsurv": 2976,
      "rian": 2977,
      "Ġaff": 2978,
      "Ġken": 2979,
      "Ġum": 2980,
      "Ġlocated": 2981,
      "Ġindepend": 2982,
      "Ġinvolved": 2983,
      "Ġspirit": 2984,
      "Ġbag": 2985,
      "while": 2986,
      "Ġmaterial": 2987,
      "Ġice": 2988,
      "Ġdiscuss": 2989,
      "Ġprince": 2990,
      "Ġprim": 2991,
      "idered": 2992,
      "Ġbelong": 2993,
      "Ġsimple": 2994,
      "yer": 2995,
      "Ġliter": 2996,
      "Ġhuh": 2997,
      "Ġserious": 2998,
      "Ġ50": 2999,
      "olutely": 3000,
      "13": 3001,
      "hood": 3002,
      "vin": 3003,
      "nded": 3004,
      "olic": 3005,
      "nock": 3006,
      "Ġdise": 3007,
      "Ġcard": 3008,
      "Ġgri": 3009,
      "Ġdance": 3010,
      "Ġquar": 3011,
      "Ġdirector": 3012,
      "Ġprofessional": 3013,
      "has": 3014,
      "?âĢĿ": 3015,
      "ruction": 3016,
      "Ġcand": 3017,
      "Ġfat": 3018,
      "Ġindeed": 3019,
      "Ġrose": 3020,
      "cal": 3021,
      "bour": 3022,
      "Ġwashing": 3023,
      "\")": 3024,
      "Ġalive": 3025,
      "Ġlock": 3026,
      "Ġ01": 3027,
      "Ġsize": 3028,
      "Ġwed": 3029,
      "Ġbi": 3030,
      "ength": 3031,
      "Ġsuff": 3032,
      "Ġanymore": 3033,
      "Ġ2014": 3034,
      "first": 3035,
      "oes": 3036,
      "Ġmedic": 3037,
      "Ġespecially": 3038,
      "Ġanybody": 3039,
      "Ġvalue": 3040,
      "people": 3041,
      "Ġflorida": 3042,
      "ked": 3043,
      "Ġox": 3044,
      "Ġepis": 3045,
      "Ġcaught": 3046,
      "Ġtitle": 3047,
      "bar": 3048,
      "Ġgives": 3049,
      "Ġbrown": 3050,
      "Ġwat": 3051,
      "Ġfish": 3052,
      "Ġspan": 3053,
      "Ġaccording": 3054,
      "Ġmichael": 3055,
      "listen": 3056,
      "mic": 3057,
      "Ġwindow": 3058,
      "bel": 3059,
      "aining": 3060,
      "hod": 3061,
      "tered": 3062,
      "Ġneeded": 3063,
      "Ġsituation": 3064,
      "Ġdress": 3065,
      "Ġfloor": 3066,
      "Ġcompan": 3067,
      "Ġmilitary": 3068,
      "dad": 3069,
      "icip": 3070,
      "nees": 3071,
      "Ġcensus": 3072,
      "Ġsour": 3073,
      "does": 3074,
      "llen": 3075,
      "Ġdemo": 3076,
      "Ġplat": 3077,
      "ĠĠĠĠĠĠ": 3078,
      "iff": 3079,
      "Ġalright": 3080,
      "Ġspent": 3081,
      "dered": 3082,
      "Ġconsidered": 3083,
      "viron": 3084,
      "Ġimmedi": 3085,
      "ails": 3086,
      "Ġut": 3087,
      "Ġsam": 3088,
      "Ġ)": 3089,
      "Ġpun": 3090,
      "Ġhero": 3091,
      "ctions": 3092,
      "uit": 3093,
      "que": 3094,
      "Ġsomewhere": 3095,
      "Ġbridge": 3096,
      "Ġappeared": 3097,
      "field": 3098,
      "sm": 3099,
      "set": 3100,
      "ites": 3101,
      "des": 3102,
      "asons": 3103,
      "Ġtar": 3104,
      "Ġprincess": 3105,
      "Ġ21": 3106,
      "Ġmanage": 3107,
      "Ġ2007": 3108,
      "upid": 3109,
      "Ġadded": 3110,
      "Ġchristian": 3111,
      "je": 3112,
      "Ġdecl": 3113,
      "bi": 3114,
      "Ġdate": 3115,
      "Ġspeed": 3116,
      "Ġ2016": 3117,
      "ground": 3118,
      "pap": 3119,
      "Ġvan": 3120,
      "Ġwriting": 3121,
      "Ġproduced": 3122,
      "Ġscient": 3123,
      "oon": 3124,
      "wr": 3125,
      "Ġforgot": 3126,
      "Ġseeing": 3127,
      "Ġresearch": 3128,
      "bes": 3129,
      "Ġdinner": 3130,
      "ique": 3131,
      "ences": 3132,
      "ria": 3133,
      "Ġearli": 3134,
      "ining": 3135,
      "iny": 3136,
      "Ġale": 3137,
      "Ġdavid": 3138,
      "Ġpack": 3139,
      "Ġgrew": 3140,
      "Ġ190": 3141,
      "Ġpaul": 3142,
      "Ġfing": 3143,
      "ounded": 3144,
      "Ġpurp": 3145,
      "mas": 3146,
      "Ġenviron": 3147,
      "inary": 3148,
      "ba": 3149,
      "aven": 3150,
      "cons": 3151,
      "Ġdick": 3152,
      "itor": 3153,
      "Ġgree": 3154,
      "Ġpsy": 3155,
      "Ġextra": 3156,
      "Ġ26": 3157,
      "Ġboat": 3158,
      "Ġtor": 3159,
      "Ġheavy": 3160,
      "Ġofficial": 3161,
      "inist": 3162,
      "iday": 3163,
      "200": 3164,
      "eh": 3165,
      "uses": 3166,
      "Ġissu": 3167,
      "Ġstopped": 3168,
      "hic": 3169,
      "sue": 3170,
      "Ġrights": 3171,
      "50": 3172,
      "ners": 3173,
      "Ġredu": 3174,
      "Ġyours": 3175,
      "Ġattempt": 3176,
      "Ġsongs": 3177,
      "Ġstick": 3178,
      "Ġacad": 3179,
      "iques": 3180,
      "Ġet": 3181,
      "Ġ22": 3182,
      "Ġavail": 3183,
      "Ġmultip": 3184,
      "bu": 3185,
      "Ġsimply": 3186,
      "Ġwide": 3187,
      "Ġarms": 3188,
      "Ġdivision": 3189,
      "Ġopport": 3190,
      "could": 3191,
      "ify": 3192,
      "Ġgroups": 3193,
      "hal": 3194,
      "Ġcomputer": 3195,
      "Ġmc": 3196,
      "Ġgas": 3197,
      "ument": 3198,
      "Ġobser": 3199,
      "wise": 3200,
      "ibility": 3201,
      "Ġcapt": 3202,
      "Ġmurder": 3203,
      "Ġclothes": 3204,
      "Ġbought": 3205,
      "Ġdig": 3206,
      "Ġexe": 3207,
      "Ġscott": 3208,
      "Ġrelationship": 3209,
      "Ġancient": 3210,
      "Ġstanding": 3211,
      "rem": 3212,
      "Ġattention": 3213,
      "Ġsens": 3214,
      "lebr": 3215,
      "Ġindivid": 3216,
      "acc": 3217,
      "Ġtrade": 3218,
      "Ġthus": 3219,
      "Ġopportun": 3220,
      "Ġmix": 3221,
      "Ġpersonal": 3222,
      "Ġversion": 3223,
      "vious": 3224,
      "lla": 3225,
      "istic": 3226,
      "Ġfavor": 3227,
      "Ġinit": 3228,
      "Ġdoubt": 3229,
      "Ġpath": 3230,
      "Ġthrow": 3231,
      "Ġbroke": 3232,
      "Ġhate": 3233,
      "Ġblock": 3234,
      "Ġlargest": 3235,
      "Ġdemocr": 3236,
      "nal": 3237,
      "sir": 3238,
      "ises": 3239,
      "Ġincluded": 3240,
      "esus": 3241,
      "Ġegg": 3242,
      "ests": 3243,
      "Ġstone": 3244,
      "ability": 3245,
      "incip": 3246,
      "Ġpoints": 3247,
      "board": 3248,
      "ively": 3249,
      "Ġmarriage": 3250,
      "16": 3251,
      "Ġattend": 3252,
      "Ġactor": 3253,
      "Ġsquare": 3254,
      "Ġmountain": 3255,
      "urity": 3256,
      "aker": 3257,
      "aves": 3258,
      "ological": 3259,
      "Ġemplo": 3260,
      "ena": 3261,
      "Ġnames": 3262,
      "Ġeff": 3263,
      "Ġneg": 3264,
      "Ġcontract": 3265,
      "Ġimpro": 3266,
      "Ġasking": 3267,
      "Ġsouthern": 3268,
      "Ġoly": 3269,
      "Ġod": 3270,
      "Ġoil": 3271,
      "Ġrichard": 3272,
      "Ġrace": 3273,
      "Ġplays": 3274,
      "Ġbelow": 3275,
      "Ġrecords": 3276,
      "Ġlower": 3277,
      "Ġnorthern": 3278,
      "Ġcru": 3279,
      "Ġwear": 3280,
      "Ġ2009": 3281,
      "Ġmovement": 3282,
      "uel": 3283,
      "Ġdifference": 3284,
      "Ġcompletely": 3285,
      "ators": 3286,
      "john": 3287,
      "rect": 3288,
      "ancy": 3289,
      "Ġplus": 3290,
      "Ġbes": 3291,
      "Ġguard": 3292,
      "Ġaccess": 3293,
      "Ġhenry": 3294,
      "Ġenvironment": 3295,
      "Ġcarried": 3296,
      "Ġloved": 3297,
      "Ġmeaning": 3298,
      "Ġfool": 3299,
      "anch": 3300,
      "Ġsite": 3301,
      "Ġ`": 3302,
      "Ġprime": 3303,
      "Ġjoined": 3304,
      "Ġhous": 3305,
      "Ġrap": 3306,
      "Ġ2008": 3307,
      "Ġrefer": 3308,
      "col": 3309,
      "itude": 3310,
      "Ġlength": 3311,
      "Ġspeaking": 3312,
      "Ġuncle": 3313,
      "exc": 3314,
      "Ġ2015": 3315,
      "comp": 3316,
      "Ġsuddenly": 3317,
      "Ġvall": 3318,
      "Ġcelebr": 3319,
      "down": 3320,
      "omas": 3321,
      "Ġwit": 3322,
      "Ġsnow": 3323,
      "ension": 3324,
      "comm": 3325,
      "Ġnearly": 3326,
      "Ġ28": 3327,
      "ledge": 3328,
      "ev": 3329,
      "Ġshouldn": 3330,
      "Ġcolor": 3331,
      "vies": 3332,
      "Ġlake": 3333,
      "lim": 3334,
      "za": 3335,
      "Ġlying": 3336,
      "Ġkn": 3337,
      "astic": 3338,
      "Ġnormal": 3339,
      "cont": 3340,
      "Ġhigher": 3341,
      "ki": 3342,
      "Ġsight": 3343,
      "antly": 3344,
      "Ġcongress": 3345,
      "Ġareas": 3346,
      "Ġmedia": 3347,
      "Ġhonest": 3348,
      "Ġtalked": 3349,
      "Ġfaith": 3350,
      "Ġtall": 3351,
      "Ġmethod": 3352,
      "Ġmodel": 3353,
      "asion": 3354,
      "three": 3355,
      "Ġpsych": 3356,
      "Ġcust": 3357,
      "Ġmel": 3358,
      "Ġamaz": 3359,
      "Ġwatching": 3360,
      "Ġassociation": 3361,
      "Ġ2022": 3362,
      "ket": 3363,
      "Ġoccur": 3364,
      "bing": 3365,
      "Ġbright": 3366,
      "Ġsell": 3367,
      "Ġ2000": 3368,
      "Ġreview": 3369,
      "Ġevidence": 3370,
      "Ġappoint": 3371,
      "Ġempire": 3372,
      "xim": 3373,
      "Ġsac": 3374,
      "aug": 3375,
      "iction": 3376,
      "Ġreach": 3377,
      "Ġscene": 3378,
      "Ġcaused": 3379,
      "fuck": 3380,
      "Ġmac": 3381,
      "Ġsevent": 3382,
      "Ġregard": 3383,
      "Ġanimal": 3384,
      "Ġprincip": 3385,
      "Ġblow": 3386,
      "Ġshare": 3387,
      "ee": 3388,
      "hib": 3389,
      "Ġdata": 3390,
      "aps": 3391,
      "Ġcases": 3392,
      "Ġbey": 3393,
      "pper": 3394,
      "Ġstupid": 3395,
      "resh": 3396,
      "Ġprice": 3397,
      "Ġmarry": 3398,
      "erve": 3399,
      "Ġinj": 3400,
      "aded": 3401,
      "illy": 3402,
      "Ġscot": 3403,
      "Ġtraining": 3404,
      "Ġfamilies": 3405,
      "Ġbroken": 3406,
      "Ġ27": 3407,
      "Ġpray": 3408,
      "Ġlines": 3409,
      "Ġchem": 3410,
      "Ġcastle": 3411,
      "hest": 3412,
      "cell": 3413,
      "never": 3414,
      "Ġservices": 3415,
      "Ġpromise": 3416,
      "Ġhonor": 3417,
      "Ġleader": 3418,
      "Ġregular": 3419,
      "Ġassist": 3420,
      "Ġhom": 3421,
      "irt": 3422,
      "30": 3423,
      "great": 3424,
      "Ġbear": 3425,
      "Ġchina": 3426,
      "Ġgovernor": 3427,
      "win": 3428,
      "Ġmoon": 3429,
      "father": 3430,
      "Ġ40": 3431,
      "Ġbay": 3432,
      "osop": 3433,
      "Ġbrand": 3434,
      "Ġbob": 3435,
      "Ġprep": 3436,
      "arily": 3437,
      "lement": 3438,
      "ously": 3439,
      "Ġ2005": 3440,
      "Ġfounded": 3441,
      "Ġformed": 3442,
      "Ġschools": 3443,
      "Ġthreat": 3444,
      "Ġnobody": 3445,
      "Ġdeveloped": 3446,
      "nor": 3447,
      "Ġinterested": 3448,
      "Ġtemper": 3449,
      "Ġavailable": 3450,
      "fact": 3451,
      "miss": 3452,
      "Ġgall": 3453,
      "Ġmovies": 3454,
      "Ġcontinued": 3455,
      "Ġarr": 3456,
      "net": 3457,
      "Ġmuse": 3458,
      "oles": 3459,
      "Ġbrain": 3460,
      "ibly": 3461,
      "Ġhappening": 3462,
      "excuse": 3463,
      "11": 3464,
      "Ġach": 3465,
      "reen": 3466,
      "year": 3467,
      "Ġpercent": 3468,
      "usion": 3469,
      "era": 3470,
      "Ġtherefore": 3471,
      "Ġgarden": 3472,
      "Ġannounced": 3473,
      "ech": 3474,
      "Ġwonderful": 3475,
      "bal": 3476,
      "Ġwarm": 3477,
      "Ġparis": 3478,
      "Ġeuropean": 3479,
      "Ġhuge": 3480,
      "Ġoce": 3481,
      "Ġfest": 3482,
      "Ġpage": 3483,
      "noon": 3484,
      "ams": 3485,
      "Ġflight": 3486,
      "char": 3487,
      "Ġdry": 3488,
      "Ġaustralia": 3489,
      "ann": 3490,
      "Ġtext": 3491,
      "Ġstarting": 3492,
      "Ġafrica": 3493,
      "Ġheaven": 3494,
      "Ġstars": 3495,
      "Ġforces": 3496,
      "iel": 3497,
      "Ġsounds": 3498,
      "Ġol": 3499,
      "Ġagree": 3500,
      "Ġshowed": 3501,
      "Ġmexic": 3502,
      "Ġsymp": 3503,
      "Ġaddress": 3504,
      "Ġtrees": 3505,
      "reme": 3506,
      "Ġba": 3507,
      "ils": 3508,
      "Ġ29": 3509,
      "Ġcoach": 3510,
      "Ġwashington": 3511,
      "oted": 3512,
      "Ġbell": 3513,
      "Ġspring": 3514,
      "Ġcrow": 3515,
      "call": 3516,
      "sec": 3517,
      "olk": 3518,
      "aph": 3519,
      "Ġhelped": 3520,
      "war": 3521,
      "Ġstyle": 3522,
      "Ġnovel": 3523,
      "icket": 3524,
      "iation": 3525,
      "Ġstories": 3526,
      "iled": 3527,
      "cks": 3528,
      "Ġwinter": 3529,
      "Ġbottom": 3530,
      "initely": 3531,
      "Ġaver": 3532,
      "Ġspoke": 3533,
      "Ġoffer": 3534,
      "Ġrule": 3535,
      "Ġess": 3536,
      "tee": 3537,
      "Ġfourth": 3538,
      "iot": 3539,
      "Ġboss": 3540,
      "Ġoffe": 3541,
      "reng": 3542,
      "Ġended": 3543,
      "aign": 3544,
      "pir": 3545,
      "western": 3546,
      "Ġcath": 3547,
      "Ġcrew": 3548,
      "Ġprize": 3549,
      "Ġtheory": 3550,
      "illa": 3551,
      "those": 3552,
      "Ġchanges": 3553,
      "Ġforeign": 3554,
      "Ġweren": 3555,
      "Ġarrest": 3556,
      "Ġble": 3557,
      "Ġmum": 3558,
      "ales": 3559,
      "Ġanal": 3560,
      "Ġworse": 3561,
      "Ġraised": 3562,
      "gree": 3563,
      "Ġly": 3564,
      "ential": 3565,
      "Ġchoice": 3566,
      "Ġhi": 3567,
      "ips": 3568,
      "Ġiran": 3569,
      "Ġpalace": 3570,
      "Ġrac": 3571,
      "Ġdocum": 3572,
      "Ġ:": 3573,
      "Ġwa": 3574,
      "oops": 3575,
      "icks": 3576,
      "Ġdecision": 3577,
      "Ġadminist": 3578,
      "Ġcomfort": 3579,
      "bell": 3580,
      "Ġitalian": 3581,
      "Ġbirds": 3582,
      "iced": 3583,
      "Ġund": 3584,
      "Ġpolitician": 3585,
      "Ġdouble": 3586,
      "ffee": 3587,
      "Ġiron": 3588,
      "Ġfeed": 3589,
      "Ġsecurity": 3590,
      "Ġcharge": 3591,
      "Ġdisease": 3592,
      "terday": 3593,
      "Ġcode": 3594,
      "Ġproduction": 3595,
      "Ġwalked": 3596,
      "Ġolymp": 3597,
      "ban": 3598,
      "oid": 3599,
      "Ġtim": 3600,
      "Ġsoul": 3601,
      "Ġdemand": 3602,
      "Ġcomed": 3603,
      "Ġspecific": 3604,
      "Ġemer": 3605,
      "Ġcalling": 3606,
      "Ġdistance": 3607,
      "Ġmunicip": 3608,
      "Ġbeha": 3609,
      "Ġlikely": 3610,
      "Ġlearned": 3611,
      "Ġpolicy": 3612,
      "Ġhotel": 3613,
      "Ġscared": 3614,
      "Ġplatform": 3615,
      "Ġmuseum": 3616,
      "Ġclosed": 3617,
      "order": 3618,
      "Ġnone": 3619,
      "aled": 3620,
      "Ġcharles": 3621,
      "Ġcampaign": 3622,
      "Ġcreate": 3623,
      "ari": 3624,
      "Ġissue": 3625,
      "istan": 3626,
      "Ġcow": 3627,
      "Ġexplain": 3628,
      "Ġmessage": 3629,
      "Ġslight": 3630,
      "Ġevents": 3631,
      "Ġfarm": 3632,
      "Ġdeterm": 3633,
      "Ġbenef": 3634,
      "Ġimmediately": 3635,
      "hand": 3636,
      "Ġthirty": 3637,
      "ateg": 3638,
      "Ġskin": 3639,
      "Ġjoin": 3640,
      "Ġmostly": 3641,
      "Ġdesp": 3642,
      "Ġfighting": 3643,
      "dis": 3644,
      "sequ": 3645,
      "Ġelection": 3646,
      "Ġprofessor": 3647,
      "Ġnative": 3648,
      "dep": 3649,
      "vere": 3650,
      "Ġaffect": 3651,
      "liament": 3652,
      "ilities": 3653,
      "Ġspl": 3654,
      "Ġbelieved": 3655,
      "Ġoppos": 3656,
      "Ġnetwork": 3657,
      "Ġenemy": 3658,
      "atlant": 3659,
      "Ġknock": 3660,
      "Ġtra": 3661,
      "Ġbirthday": 3662,
      "Ġought": 3663,
      "add": 3664,
      "Ġemot": 3665,
      "ja": 3666,
      "Ġmars": 3667,
      "Ġideas": 3668,
      "laugh": 3669,
      "ores": 3670,
      "Ġbang": 3671,
      "Ġafternoon": 3672,
      "Ġcentre": 3673,
      "Ġsky": 3674,
      "damn": 3675,
      "aries": 3676,
      ".'": 3677,
      "ushed": 3678,
      "ental": 3679,
      "Ġcontinue": 3680,
      "Ġbloody": 3681,
      "burg": 3682,
      "Ġcred": 3683,
      "isions": 3684,
      "ession": 3685,
      "Ġspanish": 3686,
      "bre": 3687,
      "Ġalan": 3688,
      "pping": 3689,
      "Ġtea": 3690,
      "Ġspread": 3691,
      "Ġearlier": 3692,
      "Ġtast": 3693,
      "het": 3694,
      "lam": 3695,
      "Ġcit": 3696,
      "Ġweap": 3697,
      "ography": 3698,
      "Ġnar": 3699,
      "Ġrepe": 3700,
      "road": 3701,
      "Ġnote": 3702,
      "berg": 3703,
      "Ġintell": 3704,
      "foot": 3705,
      "shire": 3706,
      "wom": 3707,
      "uten": 3708,
      "iles": 3709,
      "ashion": 3710,
      "Ġcities": 3711,
      "Ġyouth": 3712,
      "Ġcell": 3713,
      "Ġphilosop": 3714,
      "Ġarrived": 3715,
      "Ġfit": 3716,
      "ented": 3717,
      "Ġneck": 3718,
      "Ġcondu": 3719,
      "Ġjudge": 3720,
      "Ġocean": 3721,
      "Ġlink": 3722,
      "Ġinstit": 3723,
      "Ġalex": 3724,
      "atives": 3725,
      "Ġartic": 3726,
      "Ġvalley": 3727,
      "law": 3728,
      "ables": 3729,
      "Ġ2004": 3730,
      "chen": 3731,
      "ji": 3732,
      "Ġpu": 3733,
      "ooh": 3734,
      "esty": 3735,
      "Ġrobert": 3736,
      "Ġlovely": 3737,
      "Ġdom": 3738,
      "Ġweight": 3739,
      "Ġfault": 3740,
      "Ġinvestig": 3741,
      "Ġnecessary": 3742,
      "since": 3743,
      "Ġestablished": 3744,
      "gun": 3745,
      "sing": 3746,
      "Ġpieces": 3747,
      "Ġrailway": 3748,
      "something": 3749,
      "Ġbrothers": 3750,
      "alright": 3751,
      "Ġhello": 3752,
      "Ġstreng": 3753,
      "Ġsuit": 3754,
      "Ġopin": 3755,
      "Ġrub": 3756,
      "Ġamb": 3757,
      "Ġcontact": 3758,
      "Ġletters": 3759,
      "Ġ189": 3760,
      "Ġmedical": 3761,
      "everything": 3762,
      "Ġabsolutely": 3763,
      "Ġangry": 3764,
      "Ġpyre": 3765,
      "rupt": 3766,
      "Ġparliament": 3767,
      "Ġsignific": 3768,
      "welve": 3769,
      "Ġhoney": 3770,
      "sey": 3771,
      "ieve": 3772,
      "Ġtend": 3773,
      "Ġcommunic": 3774,
      "Ġitaly": 3775,
      "ients": 3776,
      "Ġkore": 3777,
      "Ġprint": 3778,
      "Ġextreme": 3779,
      "Ġcommittee": 3780,
      "Ġcovered": 3781,
      "Ġeastern": 3782,
      "da": 3783,
      "Ġ()": 3784,
      "Ġsinger": 3785,
      "Ġder": 3786,
      "Ġpir": 3787,
      "Ġescape": 3788,
      "Ġsystems": 3789,
      "Ġsuccessful": 3790,
      "Ġmachine": 3791,
      "say": 3792,
      "Ġflat": 3793,
      "Ġwelcome": 3794,
      "ura": 3795,
      "Ġattract": 3796,
      "Ġaccident": 3797,
      "Ġtired": 3798,
      "tering": 3799,
      "Ġ186": 3800,
      "history": 3801,
      "Ġwil": 3802,
      "vert": 3803,
      "iling": 3804,
      "aren": 3805,
      "Ġze": 3806,
      "Ġpurpose": 3807,
      "Ġbeyond": 3808,
      "Ġdrop": 3809,
      "hmm": 3810,
      "using": 3811,
      "uts": 3812,
      "Ġforth": 3813,
      "Ġconv": 3814,
      "Ġgrant": 3815,
      "izing": 3816,
      "iverse": 3817,
      "known": 3818,
      "Ġloss": 3819,
      "Ġsection": 3820,
      "Ġcoffee": 3821,
      "Ġplayers": 3822,
      "Ġbasket": 3823,
      "Ġterrible": 3824,
      "fo": 3825,
      "mad": 3826,
      "Ġrate": 3827,
      "Ġknowledge": 3828,
      "Ġpyrenees": 3829,
      "friend": 3830,
      "Ġmm": 3831,
      "Ġ2020": 3832,
      "Ġ2001": 3833,
      "Ġbeach": 3834,
      "Ġkick": 3835,
      "Ġstorm": 3836,
      "Ġforced": 3837,
      "Ġcommer": 3838,
      "phone": 3839,
      "once": 3840,
      "Ġnation": 3841,
      "cket": 3842,
      "iety": 3843,
      "aur": 3844,
      "mother": 3845,
      "Ġchat": 3846,
      "Ġcanada": 3847,
      "Ġbusy": 3848,
      "âĢİ.": 3849,
      "ae": 3850,
      "vi": 3851,
      "Ġthee": 3852,
      "aching": 3853,
      "Ġdisp": 3854,
      "ossible": 3855,
      "Ġdirected": 3856,
      "inese": 3857,
      "Ġpractice": 3858,
      "asant": 3859,
      "Ġmemor": 3860,
      "Ġshown": 3861,
      "Ġcompl": 3862,
      "Ġminus": 3863,
      "Ġcustom": 3864,
      "bles": 3865,
      "mend": 3866,
      "nie": 3867,
      "sl": 3868,
      "Ġast": 3869,
      "ification": 3870,
      "Ġ..": 3871,
      "ander": 3872,
      "aked": 3873,
      "Ġleaves": 3874,
      "Ġcorner": 3875,
      "eg": 3876,
      "Ġstore": 3877,
      "Ġstaff": 3878,
      "Ġspot": 3879,
      "Ġtells": 3880,
      "Ġresour": 3881,
      "Ġfemale": 3882,
      "atlantiques": 3883,
      "Ġreve": 3884,
      "Ġ2018": 3885,
      "Ġthroughout": 3886,
      "mit": 3887,
      "Ġsilver": 3888,
      "Ġbath": 3889,
      "Ġliked": 3890,
      "Ġcrime": 3891,
      "Ġenjoy": 3892,
      "Ġven": 3893,
      "Ġformula": 3894,
      "Ġrelease": 3895,
      "Ġpictures": 3896,
      "rom": 3897,
      "sit": 3898,
      "org": 3899,
      "Ġliber": 3900,
      "Ġmyster": 3901,
      "igg": 3902,
      "Ġdirection": 3903,
      "Ġoriginally": 3904,
      "Ġcurrently": 3905,
      "Ġaverage": 3906,
      "ipe": 3907,
      "Ġenter": 3908,
      "mark": 3909,
      "Ġtail": 3910,
      "atory": 3911,
      "Ġkar": 3912,
      "before": 3913,
      "hedron": 3914,
      "Ġnewspap": 3915,
      "Ġsoldiers": 3916,
      "Ġweak": 3917,
      "Ġopening": 3918,
      "oved": 3919,
      "Ġpounds": 3920,
      "Ġtwice": 3921,
      "Ġfinish": 3922,
      "Ġconstitution": 3923,
      "hm": 3924,
      "Ġpac": 3925,
      "wow": 3926,
      "Ġfresh": 3927,
      "icated": 3928,
      "Ġjul": 3929,
      "Ġconvers": 3930,
      "Ġsigned": 3931,
      "Ġtechnology": 3932,
      "iar": 3933,
      "mom": 3934,
      "Ġsin": 3935,
      "Ġkit": 3936,
      "Ġstock": 3937,
      "Ġflowers": 3938,
      "Ġpatient": 3939,
      "Ġepisode": 3940,
      "four": 3941,
      "lie": 3942,
      "life": 3943,
      "ller": 3944,
      "oph": 3945,
      "Ġtex": 3946,
      "Ġcompos": 3947,
      "Ġputting": 3948,
      "Ġimagine": 3949,
      "Ġinno": 3950,
      "iden": 3951,
      "Ġyesterday": 3952,
      "Ġrules": 3953,
      "book": 3954,
      "Ġhan": 3955,
      "ols": 3956,
      "Ġindustry": 3957,
      "Ġcommission": 3958,
      "Ġwalking": 3959,
      "hur": 3960,
      "ube": 3961,
      "Ġow": 3962,
      "Ġjoy": 3963,
      "Ġopt": 3964,
      "their": 3965,
      "Ġmem": 3966,
      "Ġsymb": 3967,
      "part": 3968,
      "isf": 3969,
      "Ġchallen": 3970,
      "Ġaddition": 3971,
      "Ġteams": 3972,
      "Ġvictim": 3973,
      "oe": 3974,
      "asing": 3975,
      "Ġjew": 3976,
      "Ġculture": 3977,
      "Ġfirm": 3978,
      "Ġopportunity": 3979,
      "Ġlee": 3980,
      "also": 3981,
      "nat": 3982,
      "rs": 3983,
      "zen": 3984,
      "Ġkent": 3985,
      "Ġunless": 3986,
      "Ġcarol": 3987,
      "Ġbiggest": 3988,
      "Ġtrip": 3989,
      "Ġscotland": 3990,
      "Ġwis": 3991,
      "reg": 3992,
      "ulations": 3993,
      "Ġcalls": 3994,
      "Ġkinds": 3995,
      "change": 3996,
      "ograph": 3997,
      ".--": 3998,
      "oy": 3999,
      "Ġacqu": 4000,
      "Ġelectric": 4001,
      "Ġpound": 4002,
      "enth": 4003,
      "Ġcharacters": 4004,
      "Ġreligious": 4005,
      "Ġdiscovered": 4006,
      "americ": 4007,
      "Ġque": 4008,
      "Ġelected": 4009,
      "Ġplanet": 4010,
      "Ġreading": 4011,
      "Ġislands": 4012,
      "Ġgreater": 4013,
      "Ġholding": 4014,
      "Ġgro": 4015,
      "Ġarab": 4016,
      "Ġhasn": 4017,
      "Ġsurface": 4018,
      "Ġlegs": 4019,
      "Ġperformance": 4020,
      "Ġ1980": 4021,
      "Ġtravel": 4022,
      "Ġmemory": 4023,
      "eds": 4024,
      "ighs": 4025,
      "Ġdetect": 4026,
      "Ġbrief": 4027,
      "were": 4028,
      "Ġhighest": 4029,
      "Ġtheat": 4030,
      "lli": 4031,
      "Ġweather": 4032,
      "imp": 4033,
      "Ġteach": 4034,
      "Ġproud": 4035,
      "shit": 4036,
      "ini": 4037,
      "Ġpred": 4038,
      "leep": 4039,
      "Ġ2017": 4040,
      "Ġentered": 4041,
      "Ġdogs": 4042,
      "Ġrisk": 4043,
      "Ġreligion": 4044,
      "Ġtwelve": 4045,
      "Ġsides": 4046,
      "Ġmut": 4047,
      "Ġanne": 4048,
      "Ġremain": 4049,
      "Ġfifty": 4050,
      "._": 4051,
      "Ġbon": 4052,
      "isters": 4053,
      "Ġsports": 4054,
      "lands": 4055,
      ",--": 4056,
      "nament": 4057,
      "ware": 4058,
      "Ġprem": 4059,
      "!âĢĿ": 4060,
      "Ġplants": 4061,
      "Ġchick": 4062,
      "Ġya": 4063,
      "Ġspr": 4064,
      "Ġ1990": 4065,
      "Ġsmaller": 4066,
      "Ġdangerous": 4067,
      "Ġmedicine": 4068,
      "Ġnick": 4069,
      "Ġrange": 4070,
      "Ġentertain": 4071,
      "Ġmistake": 4072,
      "Ġthy": 4073,
      "Ġconnect": 4074,
      "Ġfederal": 4075,
      "Ġcas": 4076,
      "Ġuk": 4077,
      "Ġnotice": 4078,
      "Ġstudent": 4079,
      "Ġacademy": 4080,
      "run": 4081,
      "Ġcart": 4082,
      "Ġeating": 4083,
      "Ġlift": 4084,
      "Ġolder": 4085,
      "Ġcareful": 4086,
      "Ġeasily": 4087,
      "Ġemper": 4088,
      "him": 4089,
      "Ġdun": 4090,
      "perhaps": 4091,
      "Ġacting": 4092,
      "Ġfunction": 4093,
      "Ġdollars": 4094,
      "gi": 4095,
      "Ġwine": 4096,
      "ani": 4097,
      "Ġincludes": 4098,
      "Ġgolden": 4099,
      "Ġpositive": 4100,
      "Ġeventually": 4101,
      "ipped": 4102,
      "Ġcars": 4103,
      "anda": 4104,
      "Ġdriving": 4105,
      "help": 4106,
      "Ġheat": 4107,
      "Ġgrowing": 4108,
      "Ġorders": 4109,
      "Ġgradu": 4110,
      "Ġuses": 4111,
      "Ġsecretary": 4112,
      "Ġride": 4113,
      "ocol": 4114,
      "Ġnegative": 4115,
      "die": 4116,
      "Ġthomas": 4117,
      "ulf": 4118,
      "Ġchic": 4119,
      "Ġexpected": 4120,
      "Ġcatholic": 4121,
      "Ġconference": 4122,
      "Ġscreen": 4123,
      "Ġmission": 4124,
      "Ġchristmas": 4125,
      "kins": 4126,
      "Ġanywhere": 4127,
      "gged": 4128,
      "Ġrevolution": 4129,
      "water": 4130,
      "ola": 4131,
      "Ġchinese": 4132,
      "met": 4133,
      "think": 4134,
      "Ġdegree": 4135,
      "Ġdamn": 4136,
      "Ġlucky": 4137,
      "Ġfashion": 4138,
      "Ġhide": 4139,
      "Ġjose": 4140,
      "Ġmanager": 4141,
      "Ġcontribut": 4142,
      "Ġedge": 4143,
      "Ġcritic": 4144,
      "pter": 4145,
      "Ġmike": 4146,
      "Ġforty": 4147,
      "Ġgrown": 4148,
      "istry": 4149,
      "ems": 4150,
      "orses": 4151,
      "Ġfinan": 4152,
      "Ġ188": 4153,
      "Ġsurr": 4154,
      "Ġarchite": 4155,
      "itation": 4156,
      "Ġjump": 4157,
      "Ġchannel": 4158,
      "Ġremained": 4159,
      "Ġstudio": 4160,
      "Ġparticularly": 4161,
      "Ġjournal": 4162,
      "utenant": 4163,
      "lected": 4164,
      "Ġreform": 4165,
      "Ġcondition": 4166,
      "five": 4167,
      "Ġbac": 4168,
      "Ġsaf": 4169,
      "Ġsmell": 4170,
      "Ġsouthwestern": 4171,
      "Ġtransl": 4172,
      "Ġcorrect": 4173,
      "Ġparticip": 4174,
      "Ġmagaz": 4175,
      "fficient": 4176,
      "Ġdropped": 4177,
      "Ġwitness": 4178,
      "Ġactress": 4179,
      "ios": 4180,
      "another": 4181,
      "Ġsund": 4182,
      "Ġlaid": 4183,
      "Ġbomb": 4184,
      "Ġlack": 4185,
      "stairs": 4186,
      "ills": 4187,
      "Ġvote": 4188,
      "Ġsmart": 4189,
      "Ġsword": 4190,
      "Ġdreams": 4191,
      "Ġcompanies": 4192,
      "Ġissues": 4193,
      "ses": 4194,
      "Ġwrest": 4195,
      "aret": 4196,
      "iance": 4197,
      "Ġvictor": 4198,
      "ppy": 4199,
      "ishop": 4200,
      "sw": 4201,
      "ucky": 4202,
      "Ġfrequ": 4203,
      "Ġmountains": 4204,
      "Ġbroadcast": 4205,
      "Ġlouis": 4206,
      "Ġroute": 4207,
      "Ġhouses": 4208,
      "Ġcomplet": 4209,
      "Ġlawyer": 4210,
      "Ġduty": 4211,
      "Ġfestival": 4212,
      "Ġrough": 4213,
      "Ġfocus": 4214,
      "Ġhonour": 4215,
      "Ġexecut": 4216,
      "cies": 4217,
      "Ġclim": 4218,
      "Ġprovide": 4219,
      "Ġdefinitely": 4220,
      "coh": 4221,
      "gas": 4222,
      "viet": 4223,
      "Ġrat": 4224,
      "Ġthinks": 4225,
      "Ġsmith": 4226,
      "Ġbound": 4227,
      "Ġwhis": 4228,
      "Ġprogress": 4229,
      "Ġcolour": 4230,
      "Ġmaintain": 4231,
      "Ġagreed": 4232,
      "pet": 4233,
      "Ġdra": 4234,
      "ening": 4235,
      "Ġhaw": 4236,
      "Ġeld": 4237,
      "Ġchoose": 4238,
      "long": 4239,
      "Ġawards": 4240,
      "oned": 4241,
      "Ġpak": 4242,
      "Ġworried": 4243,
      "eless": 4244,
      "Ġlarger": 4245,
      "cu": 4246,
      "lor": 4247,
      "Ġatlant": 4248,
      "Ġgenerally": 4249,
      "Ġofficers": 4250,
      "Ġslowly": 4251,
      "Ġsource": 4252,
      "Ġthro": 4253,
      "Ġplaced": 4254,
      "Ġ2003": 4255,
      "Ġzero": 4256,
      "Ġcompetition": 4257,
      "Ġstrength": 4258,
      "nam": 4259,
      "Ġjustice": 4260,
      "Ġwriter": 4261,
      "ded": 4262,
      "Ġfranc": 4263,
      "apt": 4264,
      "Ġmale": 4265,
      "fortun": 4266,
      "Ġtroops": 4267,
      "Ġappre": 4268,
      "Ġswim": 4269,
      "host": 4270,
      "Ġdesigned": 4271,
      "Ġtotally": 4272,
      "sometimes": 4273,
      "Ġmentioned": 4274,
      "Ġpin": 4275,
      "Ġhid": 4276,
      "owa": 4277,
      "Ġvot": 4278,
      "bered": 4279,
      "Ġspeech": 4280,
      "Ġdrunk": 4281,
      "Ġcomplex": 4282,
      "Ġbreath": 4283,
      "Ġindividual": 4284,
      "yan": 4285,
      "Ġdistribut": 4286,
      "Ġmissing": 4287,
      "Ġmilk": 4288,
      "Ġmajesty": 4289,
      "Ġlegal": 4290,
      "Ġaware": 4291,
      "Ġbod": 4292,
      "Ġdyn": 4293,
      "Ġgal": 4294,
      "Ġterrit": 4295,
      "during": 4296,
      "mn": 4297,
      "ado": 4298,
      "igned": 4299,
      "Ġgreatest": 4300,
      "door": 4301,
      "Ġforms": 4302,
      "Ġrelated": 4303,
      "Ġpressure": 4304,
      "aling": 4305,
      "Ġplans": 4306,
      "Ġbless": 4307,
      "gypt": 4308,
      "Ġexcuse": 4309,
      "Ġbecomes": 4310,
      "depart": 4311,
      "fin": 4312,
      "Ġpil": 4313,
      "oop": 4314,
      "istics": 4315,
      "Ġ(,": 4316,
      "Ġyellow": 4317,
      "Ġairport": 4318,
      "Ġwedding": 4319,
      "aging": 4320,
      "Ġpowerful": 4321,
      "Ġships": 4322,
      "ties": 4323,
      "hem": 4324,
      "anced": 4325,
      "Ġkil": 4326,
      "Ġconcept": 4327,
      "Ġtransport": 4328,
      "Ġtypes": 4329,
      ";/": 4330,
      "ek": 4331,
      "Ġwaste": 4332,
      "...?": 4333,
      "Ġbasically": 4334,
      "Ġleading": 4335,
      "Ġreported": 4336,
      "Ġconditions": 4337,
      "Ġunit": 4338,
      "Ġspain": 4339,
      "Ġkilling": 4340,
      "Ġcitiz": 4341,
      "cor": 4342,
      "Ġmainly": 4343,
      "Ġtaught": 4344,
      "Ġneither": 4345,
      "Ġexam": 4346,
      "Ġwilling": 4347,
      "Ġ2002": 4348,
      "Ġlots": 4349,
      "Ġbitch": 4350,
      "boy": 4351,
      "Ġcalm": 4352,
      "Ġreplaced": 4353,
      "Ġfeatures": 4354,
      "laughter": 4355,
      "Ġchicago": 4356,
      "last": 4357,
      "Ġnav": 4358,
      "Ġgoal": 4359,
      "Ġdeb": 4360,
      "oses": 4361,
      "Ġlog": 4362,
      "Ġsubst": 4363,
      "Ġartist": 4364,
      "Ġorganization": 4365,
      "aud": 4366,
      "make": 4367,
      "Ġtun": 4368,
      "rey": 4369,
      "Ġeth": 4370,
      "Ġshout": 4371,
      "Ġfreed": 4372,
      "Ġ2021": 4373,
      "Ġrussian": 4374,
      "Ġinfluence": 4375,
      "kin": 4376,
      "Ġlies": 4377,
      "Ġuniverse": 4378,
      "Ġstandard": 4379,
      "Ġtarget": 4380,
      "Ġdim": 4381,
      "Ġrot": 4382,
      "Ġrank": 4383,
      "Ġpoet": 4384,
      "Ġserve": 4385,
      "Ġpleasure": 4386,
      "Ġobviously": 4387,
      "Ġperformed": 4388,
      "Ġnur": 4389,
      "Ġray": 4390,
      "Ġadult": 4391,
      "Ġscream": 4392,
      "Ġjoe": 4393,
      "Ġrecorded": 4394,
      "tle": 4395,
      "ern": 4396,
      "hamm": 4397,
      "ulous": 4398,
      "should": 4399,
      "Ġclearly": 4400,
      "Ġproperty": 4401,
      "Ġafrican": 4402,
      "Ġmanagement": 4403,
      "ju": 4404,
      "Ġfred": 4405,
      "Ġpair": 4406,
      "Ġlibr": 4407,
      "Ġsake": 4408,
      "Ġ1970": 4409,
      "Ġemperor": 4410,
      "craft": 4411,
      "arm": 4412,
      "Ġhook": 4413,
      "Ġham": 4414,
      "Ġapplic": 4415,
      "Ġdrag": 4416,
      "Ġoccup": 4417,
      "Ġpicked": 4418,
      "Ġdefend": 4419,
      "ita": 4420,
      "Ġloud": 4421,
      "Ġgir": 4422,
      "stood": 4423,
      "Ġquarter": 4424,
      "Ġtexas": 4425,
      "Ġmob": 4426,
      "many": 4427,
      "Ġevil": 4428,
      "Ġpapers": 4429,
      "Ġetc": 4430,
      "Ġwearing": 4431,
      "Ġrare": 4432,
      "Ġgrave": 4433,
      "Ġcorpor": 4434,
      "Ġsinging": 4435,
      "Ġmotor": 4436,
      "Ġoffered": 4437,
      "hered": 4438,
      "Ġapart": 4439,
      "Ġdescribed": 4440,
      "Ġfilled": 4441,
      "fast": 4442,
      "abs": 4443,
      "onel": 4444,
      "Ġsmile": 4445,
      "Ġleaders": 4446,
      "Ġfailed": 4447,
      "fine": 4448,
      "hu": 4449,
      "Ġaunt": 4450,
      "Ġreven": 4451,
      "Ġpartner": 4452,
      "Ġprevent": 4453,
      "Ġoperation": 4454,
      "Ġdiam": 4455,
      "Ġmeasure": 4456,
      "Ġjun": 4457,
      "Ġfruit": 4458,
      "Ġjackson": 4459,
      "departement": 4460,
      "ulty": 4461,
      "Ġshock": 4462,
      "Ġpoll": 4463,
      "Ġstarts": 4464,
      "Ġschol": 4465,
      "Ġempty": 4466,
      "Ġresults": 4467,
      "pret": 4468,
      "rad": 4469,
      "Ġnic": 4470,
      "Ġcancer": 4471,
      "Ġaged": 4472,
      "ni": 4473,
      "ads": 4474,
      "uries": 4475,
      "Ġinstr": 4476,
      "Ġindependent": 4477,
      "40": 4478,
      "bc": 4479,
      "care": 4480,
      "hon": 4481,
      "tar": 4482,
      "Ġweird": 4483,
      "Ġpoly": 4484,
      "Ġprotest": 4485,
      "Ġreplied": 4486,
      "Ġtournament": 4487,
      "Ġbecoming": 4488,
      "Ġdrew": 4489,
      "yeh": 4490,
      "Ġsaved": 4491,
      "Ġmunicipality": 4492,
      "lle": 4493,
      "Ġagent": 4494,
      "Ġscr": 4495,
      "Ġhole": 4496,
      "Ġheads": 4497,
      "Ġconcerned": 4498,
      "Ġtraditional": 4499,
      "Ġdirectly": 4500,
      "ona": 4501,
      "Ġpure": 4502,
      "isn": 4503,
      "lend": 4504,
      "Ġmere": 4505,
      "Ġworst": 4506,
      "Ġscar": 4507,
      "Ġgentlemen": 4508,
      "Ġopinion": 4509,
      "jack": 4510,
      "itar": 4511,
      "Ġinterview": 4512,
      "Ġdivided": 4513,
      "Ġauthority": 4514,
      "wan": 4515,
      "Ġfaces": 4516,
      "aches": 4517,
      "again": 4518,
      "Ġnorm": 4519,
      "Ġproduce": 4520,
      "Ġstructure": 4521,
      "uce": 4522,
      "Ġfright": 4523,
      "isted": 4524,
      "place": 4525,
      "Ġremind": 4526,
      "Ġmetal": 4527,
      "Ġgrey": 4528,
      "Ġhurry": 4529,
      "Ġimage": 4530,
      "Ġalcoh": 4531,
      "Ġstudied": 4532,
      "Ġconstruction": 4533,
      ";&": 4534,
      "Ġreasons": 4535,
      "Ġmechan": 4536,
      "Ġtruck": 4537,
      "Ġbigger": 4538,
      "Ġtro": 4539,
      "Ġgy": 4540,
      "Ġsatisf": 4541,
      "Ġeconomic": 4542,
      "Ġlic": 4543,
      "Ġegypt": 4544,
      "rial": 4545,
      "Ġburied": 4546,
      "Ġstrugg": 4547,
      "Ġladies": 4548,
      "70": 4549,
      "ashed": 4550,
      "christ": 4551,
      "Ġsoviet": 4552,
      "Ġcrim": 4553,
      "Ġconsum": 4554,
      "Ġrealize": 4555,
      "Ġflying": 4556,
      "Ġhorses": 4557,
      "Ġweb": 4558,
      "still": 4559,
      "ili": 4560,
      "Ġordered": 4561,
      "Ġ2019": 4562,
      "Ġexpress": 4563,
      "Ġiowa": 4564,
      "Ġrural": 4565,
      "Ġcontent": 4566,
      "Ġseconds": 4567,
      "Ġcircum": 4568,
      "Ġteaching": 4569,
      "cise": 4570,
      "ux": 4571,
      "Ġbast": 4572,
      "Ġfal": 4573,
      "Ġblind": 4574,
      "rences": 4575,
      "ĠâĢĶ": 4576,
      "Ġrecently": 4577,
      "said": 4578,
      "Ġdarling": 4579,
      "Ġmultiple": 4580,
      "Ġpit": 4581,
      "Ġrome": 4582,
      "Ġamend": 4583,
      "Ġmayor": 4584,
      "Ġimpossible": 4585,
      "Ġconserv": 4586,
      "199": 4587,
      "Ġforever": 4588,
      "Ġexperien": 4589,
      "mi": 4590,
      "turn": 4591,
      "Ġcash": 4592,
      "Ġplain": 4593,
      "love": 4594,
      "Ġkeeping": 4595,
      "Ġcere": 4596,
      "Ġgreek": 4597,
      "nice": 4598,
      "stra": 4599,
      "semb": 4600,
      "olf": 4601,
      "iano": 4602,
      "oken": 4603,
      "Ġhandle": 4604,
      "rif": 4605,
      "Ġbuildings": 4606,
      "Ġwindows": 4607,
      "Ġconstant": 4608,
      "arently": 4609,
      "Ġsoldier": 4610,
      "Ġcabin": 4611,
      "Ġprepared": 4612,
      "Ġnose": 4613,
      "Ġreality": 4614,
      "ucle": 4615,
      "'.": 4616,
      "Ġtight": 4617,
      "Ġsid": 4618,
      "Ġrab": 4619,
      "Ġmissed": 4620,
      "Ġplanning": 4621,
      "Ġincrease": 4622,
      "60": 4623,
      "ault": 4624,
      "vation": 4625,
      "Ġsaint": 4626,
      "Ġshr": 4627,
      "actually": 4628,
      "Ġ1999": 4629,
      "Ġdecide": 4630,
      "mrs": 4631,
      "step": 4632,
      "Ġarts": 4633,
      "Ġourselves": 4634,
      "Ġlearning": 4635,
      "Ġcrying": 4636,
      "Ġeggs": 4637,
      "Ġcomedy": 4638,
      "next": 4639,
      "Ġshape": 4640,
      "Ġamazing": 4641,
      ".]": 4642,
      "25": 4643,
      "rid": 4644,
      "sur": 4645,
      "Ġcoo": 4646,
      "aye": 4647,
      "ami": 4648,
      "Ġsequ": 4649,
      "Ġminor": 4650,
      "Ġtal": 4651,
      "Ġjesus": 4652,
      "Ġfox": 4653,
      "Ġdragon": 4654,
      "Ġlaws": 4655,
      "Ġpromised": 4656,
      "Ġcosts": 4657,
      "Ġlabor": 4658,
      "Ġappreci": 4659,
      "Ġmate": 4660,
      "Ġmeat": 4661,
      "Ġqual": 4662,
      "uckles": 4663,
      "Ġeasier": 4664,
      "Ġbeauty": 4665,
      "master": 4666,
      "Ġwet": 4667,
      "Ġrequest": 4668,
      "Ġmexico": 4669,
      "hum": 4670,
      "Ġrand": 4671,
      "Ġcrown": 4672,
      "lock": 4673,
      "ds": 4674,
      "gil": 4675,
      "Ġwake": 4676,
      "isl": 4677,
      "urday": 4678,
      "Ġdemon": 4679,
      "...\"": 4680,
      "Ġmicro": 4681,
      "Ġtong": 4682,
      "Ġroof": 4683,
      "Ġprove": 4684,
      "shut": 4685,
      "Ġruns": 4686,
      "Ġdrug": 4687,
      "Ġfinancial": 4688,
      "Ġthick": 4689,
      "ansas": 4690,
      "Ġactual": 4691,
      "Ġsurprise": 4692,
      "pic": 4693,
      "rain": 4694,
      "Ġtai": 4695,
      "rer": 4696,
      "eration": 4697,
      "Ġmas": 4698,
      "Ġgiant": 4699,
      "Ġlanguages": 4700,
      "fall": 4701,
      "lom": 4702,
      "Ġrang": 4703,
      "gend": 4704,
      "Ġexcl": 4705,
      "aks": 4706,
      "today": 4707,
      "Ġadvent": 4708,
      "Ġbelief": 4709,
      "Ġtony": 4710,
      "Ġprograms": 4711,
      "ez": 4712,
      "pol": 4713,
      "vo": 4714,
      "ĠÂ": 4715,
      "igan": 4716,
      "Ġbranch": 4717,
      "Ġfrancis": 4718,
      "lied": 4719,
      "Ġpig": 4720,
      "Ġsucceed": 4721,
      "Ġfavour": 4722,
      "Ġsurprised": 4723,
      "Ġna": 4724,
      "stay": 4725,
      "thr": 4726,
      "asty": 4727,
      "Ġ31": 4728,
      "Ġcopy": 4729,
      "Ġphysical": 4730,
      "Ġseparate": 4731,
      "Ġsant": 4732,
      "Ġghost": 4733,
      "Ġdebut": 4734,
      "Ġvac": 4735,
      "Ġvice": 4736,
      "Ġmanu": 4737,
      "Ġsyn": 4738,
      "Ġmusical": 4739,
      "Ġbread": 4740,
      "sed": 4741,
      "Ġactive": 4742,
      "Ġmont": 4743,
      "Ġdelight": 4744,
      "Ġpaint": 4745,
      "Ġfinger": 4746,
      "Ġaltern": 4747,
      "Ġunits": 4748,
      "Ġafterwards": 4749,
      "Ġprevious": 4750,
      "Ġjourney": 4751,
      "num": 4752,
      "ette": 4753,
      "Ġstudies": 4754,
      "Ġlights": 4755,
      "Ġsuspect": 4756,
      "Ġsplit": 4757,
      "Ġmagazine": 4758,
      "lar": 4759,
      "oul": 4760,
      "Ġmap": 4761,
      "Ġcolon": 4762,
      "didn": 4763,
      "Ġ1960": 4764,
      "Ġonto": 4765,
      "urance": 4766,
      "antic": 4767,
      "Ġadmir": 4768,
      "va": 4769,
      "Ġencour": 4770,
      "Ġpretend": 4771,
      "Ġholy": 4772,
      "Ġprior": 4773,
      "Ġpossibly": 4774,
      "Ġfifth": 4775,
      "remember": 4776,
      "Ġthroat": 4777,
      "rick": 4778,
      "Ġreact": 4779,
      "Ġextend": 4780,
      "woman": 4781,
      "Ġsafety": 4782,
      "Ġstream": 4783,
      "Ġasleep": 4784,
      "ardon": 4785,
      "ordin": 4786,
      "Ġ--&": 4787,
      "Ġpattern": 4788,
      "Ġlieutenant": 4789,
      "Ġangeles": 4790,
      "heart": 4791,
      "Ġsom": 4792,
      "isher": 4793,
      "Ġremem": 4794,
      "awa": 4795,
      "Ġcheap": 4796,
      "Ġhumans": 4797,
      "Ġappointed": 4798,
      "sch": 4799,
      "aning": 4800,
      "Ġash": 4801,
      "Ġshore": 4802,
      "Ġtaste": 4803,
      "san": 4804,
      "sub": 4805,
      "Ġmort": 4806,
      "Ġdare": 4807,
      "bey": 4808,
      "Ġstreets": 4809,
      "Ġninet": 4810,
      "Ġsignificant": 4811,
      "gor": 4812,
      "Ġteeth": 4813,
      "Ġturns": 4814,
      "Ġrequired": 4815,
      "jan": 4816,
      "Ġax": 4817,
      "oring": 4818,
      "Ġgay": 4819,
      "Ġislam": 4820,
      "Ġjail": 4821,
      "Ġmanaged": 4822,
      "Ġpope": 4823,
      "Ġstayed": 4824,
      "Ġcandid": 4825,
      "80": 4826,
      "Ġcub": 4827,
      "Ġrum": 4828,
      "iger": 4829,
      "Ġdemocratic": 4830,
      "phan": 4831,
      "Ġnap": 4832,
      "Ġrow": 4833,
      "onds": 4834,
      "anyway": 4835,
      "nedy": 4836,
      "23": 4837,
      "watch": 4838,
      "Ġtransfer": 4839,
      "Ġdrinking": 4840,
      "Ġdevil": 4841,
      "Ġstruck": 4842,
      "Ġcommander": 4843,
      "adian": 4844,
      "icked": 4845,
      "oking": 4846,
      "cles": 4847,
      "Ġdrama": 4848,
      "Ġtrial": 4849,
      "Ġtreatment": 4850,
      "oured": 4851,
      "Ġgang": 4852,
      "Ġexhib": 4853,
      "ivity": 4854,
      "clock": 4855,
      "Ġlocation": 4856,
      "everybody": 4857,
      "Ġkitchen": 4858,
      "fire": 4859,
      "rb": 4860,
      "Ġthrew": 4861,
      "Ġscore": 4862,
      "Ġlistening": 4863,
      "rison": 4864,
      "ota": 4865,
      "Ġram": 4866,
      "Ġjobs": 4867,
      "Ġupper": 4868,
      "kend": 4869,
      "Ġorche": 4870,
      "whatever": 4871,
      "Ġinstru": 4872,
      "Ġsharp": 4873,
      "Ġmanufact": 4874,
      "nic": 4875,
      "enn": 4876,
      "Ġassemb": 4877,
      "Ġquality": 4878,
      "Ġsmoke": 4879,
      "Ġfan": 4880,
      "rie": 4881,
      "Ġindiana": 4882,
      "Ġlaughing": 4883,
      "Ġsymbol": 4884,
      "jim": 4885,
      "lies": 4886,
      "vis": 4887,
      "Ġhast": 4888,
      "ctors": 4889,
      "Ġsav": 4890,
      "azz": 4891,
      "Ġappears": 4892,
      "Ġneighbor": 4893,
      "open": 4894,
      "Ġbrave": 4895,
      "Ġ1996": 4896,
      "Ġrequire": 4897,
      "Ġlimited": 4898,
      "Ġdestroyed": 4899,
      "Ġfought": 4900,
      "Ġnucle": 4901,
      "lection": 4902,
      "Ġkoh": 4903,
      "rol": 4904,
      "Ġgrass": 4905,
      "Ġworkers": 4906,
      "looking": 4907,
      "Ġhardly": 4908,
      "Ġrent": 4909,
      "Ġconvent": 4910,
      "Ġroll": 4911,
      "Ġscen": 4912,
      "Ġfinding": 4913,
      "Ġrelative": 4914,
      "Ġtape": 4915,
      "Ġintroduced": 4916,
      "american": 4917,
      "Ġsunday": 4918,
      "24": 4919,
      "geant": 4920,
      "Ġdaily": 4921,
      "Ġlosing": 4922,
      "Ġfrog": 4923,
      ",'": 4924,
      "asy": 4925,
      "Ġrise": 4926,
      "them": 4927,
      "osen": 4928,
      "Ġrocks": 4929,
      "Ġdrugs": 4930,
      "Ġresponsible": 4931,
      "ias": 4932,
      "Ġfant": 4933,
      "Ġpush": 4934,
      "Ġves": 4935,
      "Ġamericans": 4936,
      "certain": 4937,
      "Ġaccepted": 4938,
      "Ġimprove": 4939,
      "Ġinha": 4940,
      "aland": 4941,
      "Ġrh": 4942,
      "Ġexcell": 4943,
      "Ġharm": 4944,
      "Ġmatters": 4945,
      "Ġstatement": 4946,
      "Ġslightly": 4947,
      "Ġign": 4948,
      "Ġboo": 4949,
      "Ġknight": 4950,
      "Ġstret": 4951,
      "Ġloves": 4952,
      "Ġflow": 4953,
      "Ġrecent": 4954,
      "Ġinstitute": 4955,
      "hr": 4956,
      "Ġtoward": 4957,
      "vey": 4958,
      "quar": 4959,
      "Ġremark": 4960,
      "Ġ1998": 4961,
      "Ġtower": 4962,
      "theast": 4963,
      "Ġgoods": 4964,
      "Ġretired": 4965,
      "Ġadvant": 4966,
      "Ġthousands": 4967,
      "Ġaudience": 4968,
      "Ġhorn": 4969,
      "icide": 4970,
      "Ġhadn": 4971,
      "Ġcla": 4972,
      "Ġcomplic": 4973,
      "Ġ1997": 4974,
      "Ġ60": 4975,
      "Ġvehic": 4976,
      "Ġintellig": 4977,
      "ato": 4978,
      "fection": 4979,
      "coming": 4980,
      "Ġsaturday": 4981,
      "Ġoccasion": 4982,
      "eared": 4983,
      "lu": 4984,
      "Ġdomin": 4985,
      "itan": 4986,
      "Ġheight": 4987,
      "Ġmeas": 4988,
      "Ġpocket": 4989,
      "achus": 4990,
      "Ġfeels": 4991,
      "Ġfalls": 4992,
      "Ġsleeping": 4993,
      "Ġapproach": 4994,
      "Ġproducts": 4995,
      "\"?": 4996,
      "little": 4997,
      "Ġbother": 4998,
      "ora": 4999,
      "Ġcrack": 5000,
      "Ġ185": 5001,
      "Ġyounger": 5002,
      "Ġsilence": 5003,
      "Ġrapid": 5004,
      "aughed": 5005,
      "dan": 5006,
      "Ġcous": 5007,
      "Ġbutter": 5008,
      "Ġshad": 5009,
      "Ġpleased": 5010,
      "Ġpolitics": 5011,
      "Ġwalls": 5012,
      "Ġbasketball": 5013,
      "sen": 5014,
      "orrow": 5015,
      "unting": 5016,
      "Ġunif": 5017,
      "Ġflu": 5018,
      "Ġsteel": 5019,
      "Ġguns": 5020,
      "Ġtemperature": 5021,
      "Ġbul": 5022,
      "orter": 5023,
      "rier": 5024,
      "Ġflag": 5025,
      "however": 5026,
      "Ġends": 5027,
      "Ġlands": 5028,
      "Ġillust": 5029,
      "Ġduke": 5030,
      "Ġdocument": 5031,
      "gers": 5032,
      "Ġted": 5033,
      "leave": 5034,
      "Ġeh": 5035,
      "resp": 5036,
      "Ġhelping": 5037,
      "Ġwars": 5038,
      "iana": 5039,
      "Ġshowing": 5040,
      "Ġadvice": 5041,
      "Ġcredit": 5042,
      "norm": 5043,
      "person": 5044,
      "happy": 5045,
      "asc": 5046,
      "Ġstuck": 5047,
      "uments": 5048,
      "Ġcoal": 5049,
      "Ġadop": 5050,
      "Ġnumer": 5051,
      "Ġbasic": 5052,
      "Ġswear": 5053,
      "rate": 5054,
      "Ġears": 5055,
      "Ġvictory": 5056,
      "stein": 5057,
      "Ġga": 5058,
      "Ġgentleman": 5059,
      "Ġfreedom": 5060,
      "uous": 5061,
      "inst": 5062,
      "Ġpic": 5063,
      "Ġpowers": 5064,
      "amm": 5065,
      "Ġjac": 5066,
      "abor": 5067,
      "Ġproceed": 5068,
      "Ġcontinues": 5069,
      "Ġcirc": 5070,
      "Ġlibrary": 5071,
      "ost": 5072,
      "too": 5073,
      "Ġath": 5074,
      "Ġdying": 5075,
      "Ġdisplay": 5076,
      "Ġprefer": 5077,
      "Ġcollection": 5078,
      "Ġrepublican": 5079,
      "Ġchemical": 5080,
      "bab": 5081,
      "pha": 5082,
      "Ġbishop": 5083,
      "Ġasia": 5084,
      "Ġremains": 5085,
      "going": 5086,
      "Ġdefeated": 5087,
      "Ġresources": 5088,
      "21": 5089,
      "bow": 5090,
      "both": 5091,
      "Ġinn": 5092,
      "Ġlunch": 5093,
      "Ġhind": 5094,
      "ache": 5095,
      "utions": 5096,
      "tery": 5097,
      "Ġcamera": 5098,
      "Ġded": 5099,
      "Ġlion": 5100,
      "ilty": 5101,
      "Ġplane": 5102,
      "Ġenc": 5103,
      "Ġsport": 5104,
      "ysis": 5105,
      "Ġsteps": 5106,
      "Ġbudget": 5107,
      "Ġarrange": 5108,
      "Ġtheatre": 5109,
      "mes": 5110,
      "onse": 5111,
      "Ġbare": 5112,
      "Ġgate": 5113,
      "idents": 5114,
      "ading": 5115,
      "chief": 5116,
      "Ġnoticed": 5117,
      "Ġelement": 5118,
      "Ġsolution": 5119,
      "Ġmajority": 5120,
      "Ġscottish": 5121,
      "Ġtick": 5122,
      "Ġlaughed": 5123,
      "Ġknowing": 5124,
      "Ġcanadian": 5125,
      "Ġsupre": 5126,
      "Ġrecom": 5127,
      "Ġmedal": 5128,
      "sels": 5129,
      "Ġfalling": 5130,
      "hammad": 5131,
      "jud": 5132,
      "Ġwave": 5133,
      "irk": 5134,
      "Ġdrum": 5135,
      "Ġkiller": 5136,
      "Ġnorthwest": 5137,
      "point": 5138,
      "Ġfixed": 5139,
      "uyeh": 5140,
      "ros": 5141,
      "rose": 5142,
      "Ġcomment": 5143,
      "Ġsale": 5144,
      "Ġconfir": 5145,
      "Ġpropos": 5146,
      "Ġrussia": 5147,
      "six": 5148,
      "Ġcards": 5149,
      "cend": 5150,
      "Ġtrail": 5151,
      "Ġchocol": 5152,
      "--\"": 5153,
      "Ġeverywhere": 5154,
      "Ġassum": 5155,
      "flict": 5156,
      "Ġdetails": 5157,
      "Ġtemple": 5158,
      "Ġprotection": 5159,
      "Ġlatin": 5160,
      "music": 5161,
      "Ġbodies": 5162,
      "sim": 5163,
      "hall": 5164,
      "Ġpow": 5165,
      "ching": 5166,
      "Ġcarbon": 5167,
      "Ġremoved": 5168,
      "Ġ187": 5169,
      "Ġraise": 5170,
      "everyone": 5171,
      "Ġscale": 5172,
      "Ġeffort": 5173,
      "Ġopposite": 5174,
      "sighs": 5175,
      "Ġcateg": 5176,
      "arian": 5177,
      "etts": 5178,
      "amin": 5179,
      "Ġult": 5180,
      "cel": 5181,
      "umped": 5182,
      "Ġlegend": 5183,
      "Ġcauses": 5184,
      "Ġbritain": 5185,
      "laughs": 5186,
      "ckey": 5187,
      "ker": 5188,
      "Ġire": 5189,
      "Ġfriday": 5190,
      "Ġusual": 5191,
      "Ġafford": 5192,
      "Ġmetro": 5193,
      "Ġturning": 5194,
      "someone": 5195,
      "Ġreceive": 5196,
      "Ġceremon": 5197,
      "rated": 5198,
      "anne": 5199,
      "oma": 5200,
      "Ġdram": 5201,
      "Ġmuslim": 5202,
      "Ġbush": 5203,
      "Ġrestaur": 5204,
      "Ġcounter": 5205,
      "Ġpulled": 5206,
      "Ġshooting": 5207,
      "ylvan": 5208,
      "Ġalcohol": 5209,
      "Ġfaster": 5210,
      "Ġliqu": 5211,
      "Ġmanner": 5212,
      "Ġclock": 5213,
      "Ġmatches": 5214,
      "Ġweekend": 5215,
      "although": 5216,
      "Ġdamage": 5217,
      "dro": 5218,
      "mary": 5219,
      "Ġfired": 5220,
      "Ġdiet": 5221,
      "hang": 5222,
      "Ġshel": 5223,
      "Ġdaddy": 5224,
      "Ġattacked": 5225,
      "Ġautom": 5226,
      "Ġhungry": 5227,
      "Ġnewspaper": 5228,
      "lying": 5229,
      "ĠâĢĺ": 5230,
      "Ġ1994": 5231,
      "Ġconnected": 5232,
      "Ġkennedy": 5233,
      "Ġcompleted": 5234,
      "big": 5235,
      "lig": 5236,
      "ushing": 5237,
      "thur": 5238,
      "Ġcloud": 5239,
      "erman": 5240,
      "Ġprovided": 5241,
      "Ġstatus": 5242,
      "gate": 5243,
      "Ġgain": 5244,
      "Ġnavy": 5245,
      "Ġlikes": 5246,
      "Ġspoken": 5247,
      "Ġhighly": 5248,
      "apped": 5249,
      "Ġtradition": 5250,
      "Ġfavorite": 5251,
      "mond": 5252,
      "try": 5253,
      "vad": 5254,
      "star": 5255,
      "Ġ1995": 5256,
      "prof": 5257,
      "Ġsenate": 5258,
      "Ġsettled": 5259,
      "Ġentirely": 5260,
      "Ġcloser": 5261,
      "Ġforgotten": 5262,
      "achusetts": 5263,
      "uals": 5264,
      "onia": 5265,
      "Ġlit": 5266,
      "Ġhal": 5267,
      "Ġanx": 5268,
      "nobody": 5269,
      "Ġcoat": 5270,
      "Ġjoke": 5271,
      "ception": 5272,
      "Ġavoid": 5273,
      "lad": 5274,
      "pers": 5275,
      "sar": 5276,
      "ingu": 5277,
      "Ġstro": 5278,
      "Ġswed": 5279,
      "ricult": 5280,
      "Ġcalcul": 5281,
      "Ġchampion": 5282,
      "Ġrecommend": 5283,
      "cre": 5284,
      "ko": 5285,
      "inter": 5286,
      "Ġmich": 5287,
      "Ġjane": 5288,
      "emic": 5289,
      "Ġcontains": 5290,
      "Ġresist": 5291,
      "Ġdesire": 5292,
      "Ġsteam": 5293,
      "Ġmagic": 5294,
      "cur": 5295,
      "james": 5296,
      "Ġtiny": 5297,
      "isa": 5298,
      "stone": 5299,
      "Ġability": 5300,
      "Ġguilty": 5301,
      "anything": 5302,
      "Ġactivity": 5303,
      "pres": 5304,
      "Ġing": 5305,
      "Ġaim": 5306,
      "erved": 5307,
      "Ġdirty": 5308,
      "enced": 5309,
      "Ġlips": 5310,
      "Ġexer": 5311,
      "agan": 5312,
      "Ġsomewhat": 5313,
      "izes": 5314,
      "Ġuseful": 5315,
      "Ġwinning": 5316,
      "Ġinternet": 5317,
      "Ġawful": 5318,
      "ĠĠĠĠĠĠĠĠĠĠĠĠĠĠĠĠ": 5319,
      "29": 5320,
      "note": 5321,
      "Ġindic": 5322,
      "Ġfeelings": 5323,
      "Ġexpensive": 5324,
      "Ġdutch": 5325,
      "pes": 5326,
      "ira": 5327,
      "Ġvari": 5328,
      "ylvania": 5329,
      "uch": 5330,
      "Ġot": 5331,
      "ett": 5332,
      "Ġdepart": 5333,
      "Ġlegisl": 5334,
      "Ġdiscip": 5335,
      "Ġcock": 5336,
      "Ġchain": 5337,
      "Ġowned": 5338,
      "Ġswitch": 5339,
      "Ġconstru": 5340,
      "Ġchairman": 5341,
      "Ġextremely": 5342,
      "Ġpakistan": 5343,
      "rance": 5344,
      "Ġwings": 5345,
      "Ġnerv": 5346,
      "Ġkings": 5347,
      "olved": 5348,
      "Ġproof": 5349,
      "Ġflower": 5350,
      "Ġsignal": 5351,
      "Ġdaniel": 5352,
      "Ġsexual": 5353,
      "Ġachieve": 5354,
      "Ġconversation": 5355,
      "umn": 5356,
      "Ġshoes": 5357,
      "osh": 5358,
      "tained": 5359,
      "Ġpresence": 5360,
      "Ġgods": 5361,
      "Ġsalt": 5362,
      "hot": 5363,
      "Ã¦": 5364,
      "Ġsab": 5365,
      "Ġdip": 5366,
      "lyn": 5367,
      "Ġug": 5368,
      "Ġpartners": 5369,
      "Ġchest": 5370,
      "Ġmassachusetts": 5371,
      "Ġbenefit": 5372,
      "mart": 5373,
      "Ġdraft": 5374,
      "Ġbringing": 5375,
      "Ġeffects": 5376,
      "Ġaustralian": 5377,
      "Ġcooper": 5378,
      "Ġtough": 5379,
      "Ġparties": 5380,
      "pat": 5381,
      "want": 5382,
      "Ġtang": 5383,
      "ila": 5384,
      "Ġwheel": 5385,
      "Ġ35": 5386,
      "Ġearn": 5387,
      "Ġconsist": 5388,
      "ige": 5389,
      "mhm": 5390,
      "Ġsees": 5391,
      "Ġpra": 5392,
      "Ġclimate": 5393,
      "Ġhighway": 5394,
      "standing": 5395,
      "ronic": 5396,
      "Ġescap": 5397,
      "Ġfully": 5398,
      "Ġawarded": 5399,
      "Ġjimmy": 5400,
      "Ġarticle": 5401,
      "Ġcommercial": 5402,
      "Ġnineteen": 5403,
      "Ġsupreme": 5404,
      "ben": 5405,
      "Ġtan": 5406,
      "Ġquant": 5407,
      "Ġcarter": 5408,
      "brother": 5409,
      "Ġplanned": 5410,
      "Ġsenior": 5411,
      "Ġsuggested": 5412,
      "Ġhistorical": 5413,
      "27": 5414,
      "Ġsli": 5415,
      "Ġgift": 5416,
      "acle": 5417,
      "Ġmanip": 5418,
      "Ġcontr": 5419,
      "Ġresc": 5420,
      "Ġpassing": 5421,
      "Ġexpand": 5422,
      "such": 5423,
      "Ġvirt": 5424,
      "porary": 5425,
      "Ġolympics": 5426,
      "Ġcircumst": 5427,
      "wa": 5428,
      "Ġnomin": 5429,
      "Ġtears": 5430,
      "Ġmax": 5431,
      "Ġdetail": 5432,
      "Ġoperations": 5433,
      "itzer": 5434,
      "Ġtraffic": 5435,
      "bra": 5436,
      "inger": 5437,
      "Ġhockey": 5438,
      "Ġ1992": 5439,
      "Ġdeput": 5440,
      "Ġflew": 5441,
      "Ġknife": 5442,
      "Ġterritory": 5443,
      "through": 5444,
      "28": 5445,
      "ox": 5446,
      "Ġnom": 5447,
      "Ġnations": 5448,
      "Ġupset": 5449,
      "class": 5450,
      "Ġmaxim": 5451,
      "trans": 5452,
      "Ġbullet": 5453,
      "Ġteachers": 5454,
      "fortunately": 5455,
      "pass": 5456,
      "rat": 5457,
      "ndy": 5458,
      "Ġdelic": 5459,
      "Ġsole": 5460,
      "Ġchosen": 5461,
      "lfriend": 5462,
      "Ġotherwise": 5463,
      "Ġneighbour": 5464,
      "Ġmichigan": 5465,
      "enger": 5466,
      "Ġthin": 5467,
      "Ġnotes": 5468,
      "Ġagricult": 5469,
      "Ġquit": 5470,
      "Ġwrit": 5471,
      "Ġimper": 5472,
      "exactly": 5473,
      "Ġterror": 5474,
      "kespe": 5475,
      "Ġpunish": 5476,
      "Ġdressed": 5477,
      "eding": 5478,
      "Ġwebs": 5479,
      "Ġmyth": 5480,
      "Ġcarl": 5481,
      "ricane": 5482,
      "shall": 5483,
      "speaking": 5484,
      "Ġdiag": 5485,
      "Ġbottle": 5486,
      "according": 5487,
      ".)": 5488,
      "km": 5489,
      "Ġsust": 5490,
      "Ġwid": 5491,
      "Ġhans": 5492,
      "Ġkhan": 5493,
      "Ġstations": 5494,
      "Ġmaria": 5495,
      "Ġunderstood": 5496,
      "early": 5497,
      "Ġchicken": 5498,
      "kespeare": 5499,
      "Ġtam": 5500,
      "Ġcot": 5501,
      "Ġthor": 5502,
      "verse": 5503,
      "rob": 5504,
      "unched": 5505,
      "Ġsugar": 5506,
      "text": 5507,
      "Ġjoint": 5508,
      "Ġ1991": 5509,
      "Ġartists": 5510,
      "Ġexpression": 5511,
      "Ġconnection": 5512,
      "Ġcarolina": 5513,
      "Ġforgive": 5514,
      "abeth": 5515,
      "Ġsubs": 5516,
      "Ġapolog": 5517,
      "Ġadvance": 5518,
      "Ġadmit": 5519,
      "Ġoccurred": 5520,
      "Ġchallenge": 5521,
      "giluyeh": 5522,
      "Ġkohgiluyeh": 5523,
      "wers": 5524,
      "yo": 5525,
      "ali": 5526,
      "Ġconcent": 5527,
      "estic": 5528,
      "Ġscri": 5529,
      "Ġregional": 5530,
      "Ġunderstanding": 5531,
      "Ġhearing": 5532,
      "Ġpresented": 5533,
      "Ġrepresented": 5534,
      "Ġperfectly": 5535,
      "Ġstrike": 5536,
      "Ġappearance": 5537,
      "Ġtongue": 5538,
      "Ġtha": 5539,
      "Ġunique": 5540,
      "Ġkeeps": 5541,
      "Ġ1993": 5542,
      "Ġmotion": 5543,
      "Ġninety": 5544,
      "tic": 5545,
      "real": 5546,
      "Ġheav": 5547,
      "Ġtru": 5548,
      "Ġimpact": 5549,
      "Ġtransform": 5550,
      "Ġsigns": 5551,
      "Ġvariety": 5552,
      "Ġgrowth": 5553,
      "welcome": 5554,
      "Ġjoseph": 5555,
      "dess": 5556,
      "nis": 5557,
      "Ġtask": 5558,
      "Ġbeer": 5559,
      "ulate": 5560,
      "Ġbraz": 5561,
      "Ġhelps": 5562,
      "Ġcolonel": 5563,
      "Ġprimary": 5564,
      "Ġnan": 5565,
      "etch": 5566,
      "Ġren": 5567,
      "Ġreaction": 5568,
      "Ġstated": 5569,
      "Ġsevere": 5570,
      "Ġdoors": 5571,
      "together": 5572,
      "bridge": 5573,
      "Ġdivor": 5574,
      "Ġincreased": 5575,
      "captain": 5576,
      "Ġpacific": 5577,
      "Ġcitizens": 5578,
      "Ġnormally": 5579,
      "Ġuniform": 5580,
      "lord": 5581,
      "Ġnaz": 5582,
      "Ġadvert": 5583,
      "ropri": 5584,
      "Ġpurcha": 5585,
      "Ġphilosophy": 5586,
      "din": 5587,
      "Ġstor": 5588,
      "rible": 5589,
      "looks": 5590,
      "Ġscientists": 5591,
      "Ġinnocent": 5592,
      "Ġdust": 5593,
      "Ġspect": 5594,
      "Ġshoulder": 5595,
      "icted": 5596,
      "Ġcarefully": 5597,
      "Ġohio": 5598,
      "Ġbreaking": 5599,
      "Ġresponse": 5600,
      "Ġcircle": 5601,
      "Ġhanging": 5602,
      "Ġagreement": 5603,
      "fred": 5604,
      "gency": 5605,
      "rich": 5606,
      "tim": 5607,
      "wide": 5608,
      "Ġsamp": 5609,
      "aming": 5610,
      "Ġkansas": 5611,
      "Ġblame": 5612,
      "Ġinsurance": 5613,
      "inson": 5614,
      "Ġgeorg": 5615,
      "Ġclasses": 5616,
      "Ġbillion": 5617,
      "Ġholiday": 5618,
      "Ġwatched": 5619,
      "Ġadvantage": 5620,
      "cop": 5621,
      "Ġpha": 5622,
      "Ġonline": 5623,
      "Ġvia": 5624,
      "Ġbride": 5625,
      "def": 5626,
      "Ġshared": 5627,
      "Ġkidding": 5628,
      "Ġfailure": 5629,
      "\").": 5630,
      "Ġtap": 5631,
      "Ġpill": 5632,
      "Ġrod": 5633,
      "Ġinstance": 5634,
      "Ġpassion": 5635,
      "197": 5636,
      "Ġfilms": 5637,
      "Ġbasis": 5638,
      "Ġspeaker": 5639,
      "nsylvania": 5640,
      "Ġsilent": 5641,
      "Ġfields": 5642,
      "Ġdeclared": 5643,
      "Ġbeside": 5644,
      "addons": 5645,
      "Ġnarrow": 5646,
      "_.": 5647,
      "bad": 5648,
      "Ġlone": 5649,
      "Ġloose": 5650,
      "Ġagency": 5651,
      "Ġowner": 5652,
      "Ġcolumb": 5653,
      "Ġstaying": 5654,
      "Ġfigures": 5655,
      "Ġodd": 5656,
      "kind": 5657,
      "Ġgrace": 5658,
      "Ġpoison": 5659,
      "move": 5660,
      "Ġ45": 5661,
      "Ġproducer": 5662,
      "Ġjeff": 5663,
      "Ġhills": 5664,
      "ipping": 5665,
      "works": 5666,
      "Ġliterature": 5667,
      "Ġchocolate": 5668,
      "gle": 5669,
      "Ġthri": 5670,
      "Ġasian": 5671,
      "aki": 5672,
      "198": 5673,
      "Ġpossess": 5674,
      "Ġanti": 5675,
      "Ġviolence": 5676,
      "Ġentertainment": 5677,
      "Ġlt": 5678,
      "oln": 5679,
      "Ġtrick": 5680,
      "Ġplate": 5681,
      "ropical": 5682,
      "Ġbreakfast": 5683,
      "Ġsettlement": 5684,
      "fam": 5685,
      "Ġped": 5686,
      "Ġjam": 5687,
      "Ġatom": 5688,
      "Ġexchange": 5689,
      "Ġsomehow": 5690,
      "Ġcontain": 5691,
      "Ġfallen": 5692,
      "Ġdancing": 5693,
      "Ġlatter": 5694,
      "Ġmixed": 5695,
      "Ġdespite": 5696,
      "Ġireland": 5697,
      "fa": 5698,
      "pot": 5699,
      "child": 5700,
      "Ġgrab": 5701,
      "Ġpreviously": 5702,
      "Ġchanging": 5703,
      "Ġmaz": 5704,
      "grand": 5705,
      "Ġ70": 5706,
      "Ġconfed": 5707,
      "Ġdrove": 5708,
      "Ġfingers": 5709,
      "bury": 5710,
      "kill": 5711,
      "Ġsed": 5712,
      "ctures": 5713,
      "Ġseasons": 5714,
      "nee": 5715,
      "Ġsergeant": 5716,
      "Ġpriest": 5717,
      "Ġopera": 5718,
      "arrass": 5719,
      "worth": 5720,
      "Ġindependence": 5721,
      "Ġadministration": 5722,
      "jesus": 5723,
      "rical": 5724,
      "Ġay": 5725,
      "Ġaven": 5726,
      "Ġsilly": 5727,
      "Ġwise": 5728,
      "allow": 5729,
      "aka": 5730,
      "Ġsched": 5731,
      "box": 5732,
      "without": 5733,
      "Ġsolid": 5734,
      "Ġlabour": 5735,
      "Ġmartin": 5736,
      "Ġcrowd": 5737,
      "Ġbastard": 5738,
      "Ġremembered": 5739,
      "rant": 5740,
      "Ġcig": 5741,
      "Ġfol": 5742,
      "Ġfurn": 5743,
      "Ġpiano": 5744,
      "Ġaspect": 5745,
      "Ġconqu": 5746,
      "Ġconflict": 5747,
      "Ġbrook": 5748,
      "Ġspin": 5749,
      "rael": 5750,
      "Ġshame": 5751,
      "Ġfold": 5752,
      "Ġproposed": 5753,
      "Ġassociated": 5754,
      "22": 5755,
      "35": 5756,
      "bly": 5757,
      "mont": 5758,
      "Ġmi": 5759,
      "Ġunlike": 5760,
      "Ġgraph": 5761,
      "Ġthoughts": 5762,
      "Ġexperiment": 5763,
      "Ġsales": 5764,
      "Ġpennsylvania": 5765,
      "Ġbrazil": 5766,
      "based": 5767,
      "ima": 5768,
      "sex": 5769,
      "Ġmaterials": 5770,
      "michael": 5771,
      "Ġscientific": 5772,
      "Ġkentucky": 5773,
      "hor": 5774,
      "sal": 5775,
      "Ġmile": 5776,
      "Ġsixty": 5777,
      "Ġ1950": 5778,
      "Ġsupported": 5779,
      "Ġrespond": 5780,
      "Ġjersey": 5781,
      "Ġcaptured": 5782,
      "34": 5783,
      "Ġsons": 5784,
      "otic": 5785,
      "entially": 5786,
      "Ġplenty": 5787,
      "Ġguest": 5788,
      "Ġsquared": 5789,
      "Ġgirlfriend": 5790,
      "Ġinhabit": 5791,
      "Ġcousin": 5792,
      "Ġnervous": 5793,
      "Ġtied": 5794,
      "erves": 5795,
      "Ġiii": 5796,
      "Ġdish": 5797,
      "Ġroles": 5798,
      "Ġanth": 5799,
      "Ġneare": 5800,
      "Ġchose": 5801,
      "Ġcricket": 5802,
      "Ġdesper": 5803,
      "chester": 5804,
      "whoa": 5805,
      "Ġ90": 5806,
      "Ġdeliver": 5807,
      "Ġconcert": 5808,
      "Ġeconomy": 5809,
      "Ġdestroy": 5810,
      "Ġarrested": 5811,
      "Ġfame": 5812,
      "Ġfolk": 5813,
      "Ġviet": 5814,
      "Ġsuffe": 5815,
      "Ġcontest": 5816,
      "Ġdesert": 5817,
      "Ġdistinct": 5818,
      "Ġinvited": 5819,
      "Ġorganis": 5820,
      "burgh": 5821,
      "Ġstom": 5822,
      "Ġgray": 5823,
      "Ġsupply": 5824,
      "Ġfollows": 5825,
      "Ġslept": 5826,
      "Ġhundreds": 5827,
      "Ġexcited": 5828,
      "Ġfeatured": 5829,
      "Ġcomfortable": 5830,
      "iest": 5831,
      "lot": 5832,
      "inent": 5833,
      "Ġborder": 5834,
      "Ġfate": 5835,
      "Ġstad": 5836,
      "aine": 5837,
      "Ġchuck": 5838,
      "Ġboston": 5839,
      "Ġcourage": 5840,
      "Ġballs": 5841,
      "Ġdrawn": 5842,
      "girl": 5843,
      "vant": 5844,
      "inity": 5845,
      "Ġwo": 5846,
      "Ġbye": 5847,
      "Ġfeature": 5848,
      "Ġscrew": 5849,
      "Ġoldest": 5850,
      "Ġsetting": 5851,
      "Ġboyfriend": 5852,
      "Ġprovin": 5853,
      "Ġpaying": 5854,
      "Ġexecutive": 5855,
      "beth": 5856,
      "mind": 5857,
      "Ġais": 5858,
      "Ġfile": 5859,
      "Ġwealth": 5860,
      "Ġrig": 5861,
      "iro": 5862,
      "Ġselling": 5863,
      "Ġworship": 5864,
      "show": 5865,
      "Ġfifteen": 5866,
      "Ġfairly": 5867,
      "Ġactivities": 5868,
      "Ġassistant": 5869,
      "Ġweapon": 5870,
      "Ġweapons": 5871,
      "Ġtone": 5872,
      "Ġec": 5873,
      "Ġrhy": 5874,
      "Ġjon": 5875,
      "Ġlif": 5876,
      "Ġconsequ": 5877,
      "odes": 5878,
      "Ġseek": 5879,
      "Ġbackground": 5880,
      "force": 5881,
      "Ġeliz": 5882,
      "Ġintegr": 5883,
      "Ġpatients": 5884,
      "Ġestate": 5885,
      "Ġbegins": 5886,
      "incoln": 5887,
      "Ġsusan": 5888,
      "Ġlimit": 5889,
      "Ġcarrying": 5890,
      "Ġargument": 5891,
      "made": 5892,
      "Ġbid": 5893,
      "Ġbub": 5894,
      "Ġpier": 5895,
      "Ġger": 5896,
      "urb": 5897,
      "chuckles": 5898,
      "Ġfran": 5899,
      "Ġdisappeared": 5900,
      "yd": 5901,
      "hemat": 5902,
      "Ġmond": 5903,
      "Ġdeli": 5904,
      "Ġsoil": 5905,
      "Ġunknown": 5906,
      "Ġguitar": 5907,
      "Ġserving": 5908,
      "Ġadditional": 5909,
      "Ġsoftware": 5910,
      "paul": 5911,
      "Ġbaseball": 5912,
      "Ġkorea": 5913,
      "Ġorchestra": 5914,
      "david": 5915,
      "pan": 5916,
      "Ġsisters": 5917,
      "Ġaband": 5918,
      "Ġfoundation": 5919,
      "Ġrelax": 5920,
      "Ġexped": 5921,
      "Ġdrawing": 5922,
      "Ġbesides": 5923,
      "Ġassembly": 5924,
      "ran": 5925,
      "heim": 5926,
      "Ġali": 5927,
      "ieved": 5928,
      "Ġseriously": 5929,
      "Ġpregn": 5930,
      "compl": 5931,
      "Ġapartment": 5932,
      "Ġincred": 5933,
      "Ġpromot": 5934,
      "Ġtreated": 5935,
      "Ġtommy": 5936,
      "hurry": 5937,
      "bled": 5938,
      "Ġwounded": 5939,
      "ito": 5940,
      "leg": 5941,
      "Ġreck": 5942,
      "urally": 5943,
      "Ġupstairs": 5944,
      "Ġages": 5945,
      "Ġroot": 5946,
      "osphere": 5947,
      "Ġburned": 5948,
      "Ġwales": 5949,
      "Ġembarrass": 5950,
      "Ġappreciate": 5951,
      "Ġsuffered": 5952,
      "cest": 5953,
      "tan": 5954,
      "Ġfancy": 5955,
      "Ġdor": 5956,
      "alous": 5957,
      "aman": 5958,
      "Ġatm": 5959,
      "ulated": 5960,
      "Ġrooms": 5961,
      "Ġengineering": 5962,
      "Ġordinary": 5963,
      "Ġaffairs": 5964,
      "Ġdude": 5965,
      "Ġwash": 5966,
      "Ġkim": 5967,
      "inda": 5968,
      "Ġarmed": 5969,
      "Ġprepar": 5970,
      "Ġengaged": 5971,
      "Ġcapac": 5972,
      "Ġ1989": 5973,
      "Ġdriver": 5974,
      "Ġeaten": 5975,
      "Ġfamiliar": 5976,
      "Ġglobal": 5977,
      "Ġfalse": 5978,
      "bus": 5979,
      "pop": 5980,
      "Ġcu": 5981,
      "Ġinqu": 5982,
      "uther": 5983,
      "Ġkong": 5984,
      "Ġchamber": 5985,
      "Ġconscious": 5986,
      "Ġsurely": 5987,
      "prob": 5988,
      "Ġhoping": 5989,
      "Ġhomes": 5990,
      "90": 5991,
      "dge": 5992,
      "talk": 5993,
      "Ġcore": 5994,
      "Ġdow": 5995,
      "etic": 5996,
      "urd": 5997,
      "iece": 5998,
      "Ġnoise": 5999,
      "Ġapparently": 6000,
      "upon": 6001,
      "Ġrealized": 6002,
      "frank": 6003,
      "Ġhunting": 6004,
      "Ġbunch": 6005,
      "Ġmand": 6006,
      "secut": 6007,
      "cts": 6008,
      "Ġate": 6009,
      "emies": 6010,
      "Ġshakespeare": 6011,
      "Ġclever": 6012,
      "Ġlaunched": 6013,
      "Ġ1988": 6014,
      "Ġlevels": 6015,
      "follow": 6016,
      "Ġamendment": 6017,
      "Ġbatt": 6018,
      "Ġdies": 6019,
      "Ġdaw": 6020,
      "ingly": 6021,
      "Ġrick": 6022,
      "pel": 6023,
      "pered": 6024,
      "Ġsheep": 6025,
      "lets": 6026,
      "196": 6027,
      "Ġtowns": 6028,
      "Ġsolve": 6029,
      "Ġconcern": 6030,
      "Ġlabel": 6031,
      "iggler": 6032,
      "Ġwrestling": 6033,
      "mag": 6034,
      "name": 6035,
      "acing": 6036,
      "Ġnoted": 6037,
      "Ġdeck": 6038,
      "Ġmole": 6039,
      "Ġyo": 6040,
      "Ġacid": 6041,
      "Ġera": 6042,
      "Ġ80": 6043,
      "chapter": 6044,
      "Ġzealand": 6045,
      "100": 6046,
      "jac": 6047,
      "Ġtie": 6048,
      "Ġari": 6049,
      "Ġwitch": 6050,
      "Ġgather": 6051,
      "Ġ(;": 6052,
      "Ġturkey": 6053,
      "Ġwilliams": 6054,
      "Ġbeast": 6055,
      "things": 6056,
      "Ġframe": 6057,
      "atherine": 6058,
      "black": 6059,
      "Ġcrossed": 6060,
      "Ġresponsibility": 6061,
      "Ġdetermined": 6062,
      "Ġcircumstances": 6063,
      "gment": 6064,
      "non": 6065,
      "Ġwithd": 6066,
      "Ġsuck": 6067,
      "Ġunus": 6068,
      "Ġflood": 6069,
      "angle": 6070,
      "Ġminim": 6071,
      "Ġfinds": 6072,
      "Ġcheer": 6073,
      "Ġelements": 6074,
      "Ġcalvad": 6075,
      "Ġsuspic": 6076,
      "Ġincreasing": 6077,
      "Ġcritical": 6078,
      "Ġbowl": 6079,
      "Ġsurvive": 6080,
      "Ġcalvados": 6081,
      "Ġisrael": 6082,
      "Ġstan": 6083,
      "Ġpros": 6084,
      "Ġ1979": 6085,
      "Ġcommonly": 6086,
      "general": 6087,
      "henry": 6088,
      "Ġdisappoint": 6089,
      "Ġinstrument": 6090,
      "Ġcriminal": 6091,
      "vest": 6092,
      "Ġtag": 6093,
      "Ġpink": 6094,
      "Ġluc": 6095,
      "Ġkat": 6096,
      "Ġharry": 6097,
      "Ġgeneration": 6098,
      "Ġpursu": 6099,
      "Ġportug": 6100,
      "aimed": 6101,
      "Ġrailroad": 6102,
      "orig": 6103,
      "Ġpul": 6104,
      "Ġhabit": 6105,
      "Ġtrains": 6106,
      "Ġproced": 6107,
      "Ġbrings": 6108,
      "Ġ1982": 6109,
      "Ġhurricane": 6110,
      "Ġexamples": 6111,
      "conscious": 6112,
      "Ġscript": 6113,
      "500": 6114,
      "pal": 6115,
      "Ġiv": 6116,
      "Ġmail": 6117,
      "Ġpale": 6118,
      "Ġros": 6119,
      "inde": 6120,
      "Ġclient": 6121,
      "Ġevolution": 6122,
      "bob": 6123,
      "Ġjohnson": 6124,
      "Ġwondering": 6125,
      "until": 6126,
      "Ġexistence": 6127,
      "Ġstomach": 6128,
      "must": 6129,
      "esh": 6130,
      "Ġvent": 6131,
      "Ġbran": 6132,
      "Ġcompon": 6133,
      "izations": 6134,
      "Ġapple": 6135,
      "Ġedition": 6136,
      "ologist": 6137,
      "Ġsixth": 6138,
      "Ġapproxim": 6139,
      "Ġdiscover": 6140,
      "Ġdiscovery": 6141,
      "Ġindustrial": 6142,
      "Ġridic": 6143,
      "Ġsuffering": 6144,
      "Ġatlantic": 6145,
      "kh": 6146,
      "zer": 6147,
      "Ġcav": 6148,
      "oto": 6149,
      "Ġplot": 6150,
      "Ġgoddess": 6151,
      "Ġ1984": 6152,
      "Ġrecognized": 6153,
      "Ġjewish": 6154,
      "mel": 6155,
      "Ġwished": 6156,
      "arn": 6157,
      "imin": 6158,
      "Ġancest": 6159,
      "Ġbutt": 6160,
      "Ġexact": 6161,
      "eping": 6162,
      "Ġhappiness": 6163,
      "Ġearned": 6164,
      "Ġziggler": 6165,
      "Ġstands": 6166,
      "Ġveget": 6167,
      "Ġbrig": 6168,
      "Ġsenator": 6169,
      "Ġphoto": 6170,
      "Ġemergency": 6171,
      "Ġhidden": 6172,
      "Ġugly": 6173,
      "45": 6174,
      "Ġwha": 6175,
      "Ġmood": 6176,
      "Ġnest": 6177,
      "iring": 6178,
      "Ġextr": 6179,
      "Ġcompared": 6180,
      "Ġflash": 6181,
      "Ġchart": 6182,
      "Ġdecisions": 6183,
      "cript": 6184,
      "Ġfairy": 6185,
      "Ġbuddy": 6186,
      "Ġattended": 6187,
      "Ġefforts": 6188,
      "lliant": 6189,
      "Ġstadium": 6190,
      "36": 6191,
      "mill": 6192,
      "Ġbrad": 6193,
      "Ġgotten": 6194,
      "Ġhandsome": 6195,
      "Ġmathemat": 6196,
      "Ġeleven": 6197,
      "Ġilleg": 6198,
      "Ġsquad": 6199,
      "Ġsettle": 6200,
      "Ġenvironmental": 6201,
      "Ġwaited": 6202,
      "rd": 6203,
      "Ġlin": 6204,
      "omy": 6205,
      "unts": 6206,
      "acks": 6207,
      "Ġwhenever": 6208,
      "Ġeditor": 6209,
      "Ġsentence": 6210,
      "Ġidiot": 6211,
      "blood": 6212,
      "Ġestablish": 6213,
      "Ġoxford": 6214,
      "del": 6215,
      "Ġles": 6216,
      "Ġjr": 6217,
      "Ġfrances": 6218,
      "----": 6219,
      "bring": 6220,
      "Ġintended": 6221,
      "Ġ1987": 6222,
      "Ġprogramme": 6223,
      "Ġwoods": 6224,
      "Ġrising": 6225,
      "Ġfleet": 6226,
      "Ġanalysis": 6227,
      "38": 6228,
      "lav": 6229,
      "Ġtort": 6230,
      "Ġfab": 6231,
      "Ġlas": 6232,
      "Ġjones": 6233,
      "Ġorange": 6234,
      "Ġnights": 6235,
      "phy": 6236,
      "Ġpainting": 6237,
      "Ġangel": 6238,
      "div": 6239,
      "lng": 6240,
      "Ġmental": 6241,
      "asmus": 6242,
      "Ġwhist": 6243,
      "Ġallows": 6244,
      "ivered": 6245,
      "Ġcris": 6246,
      "Ġharder": 6247,
      "Ġrefused": 6248,
      "Ġmerchan": 6249,
      "Ġgardens": 6250,
      "Ġfortune": 6251,
      "called": 6252,
      "find": 6253,
      "mum": 6254,
      "Ġfeather": 6255,
      "Ġfactory": 6256,
      "Ġnearby": 6257,
      "Ġsymptom": 6258,
      "Ġcraw": 6259,
      "Ġdread": 6260,
      "stal": 6261,
      "Ġtheme": 6262,
      "Ġgram": 6263,
      "check": 6264,
      "Ġmagn": 6265,
      "Ġreports": 6266,
      "Ġirish": 6267,
      "Ġromanized": 6268,
      "grees": 6269,
      "Ġdeputy": 6270,
      "26": 6271,
      "sil": 6272,
      "tes": 6273,
      "Ġselected": 6274,
      "ounding": 6275,
      "okes": 6276,
      "ternal": 6277,
      "Ġadvanced": 6278,
      "adesh": 6279,
      "smith": 6280,
      "Ġcommunication": 6281,
      "Ġscholars": 6282,
      "gro": 6283,
      "gian": 6284,
      "ule": 6285,
      "wind": 6286,
      "Ġlincoln": 6287,
      "Ġnut": 6288,
      "aly": 6289,
      "Ġyard": 6290,
      "Ġspare": 6291,
      "bec": 6292,
      "Ġaccomp": 6293,
      "Ġfactor": 6294,
      "Ġexplos": 6295,
      "Ġowe": 6296,
      "Ġrings": 6297,
      "adel": 6298,
      "Ġoverall": 6299,
      "Ġdiss": 6300,
      "Ġthrown": 6301,
      "Ġpleasant": 6302,
      "Ġbreast": 6303,
      "Ġ1971": 6304,
      "Ġmobile": 6305,
      ".[": 6306,
      "pired": 6307,
      "tra": 6308,
      "à¤": 6309,
      "erg": 6310,
      "Ġbol": 6311,
      "Ġpool": 6312,
      "Ġaside": 6313,
      "Ġdegrees": 6314,
      "Ġshook": 6315,
      "Ġbrid": 6316,
      "Ġgrade": 6317,
      "ordon": 6318,
      "Ġunderground": 6319,
      "Ġstring": 6320,
      "Ġzone": 6321,
      "Ġinspect": 6322,
      "Ġ64": 6323,
      "Ġimportance": 6324,
      "Ġofficially": 6325,
      "Ġcreating": 6326,
      "Ġvalues": 6327,
      "Ġdarkness": 6328,
      "Ġrecognize": 6329,
      "Ġseventy": 6330,
      "Ġrepeated": 6331,
      "Ġinvestigation": 6332,
      "ti": 6333,
      "ouri": 6334,
      "Ġandrew": 6335,
      "Ġhiding": 6336,
      "Ġenemies": 6337,
      "phil": 6338,
      "Ġappeal": 6339,
      "Ġdefense": 6340,
      "lause": 6341,
      "cia": 6342,
      "hus": 6343,
      "Ġwore": 6344,
      "Ġrush": 6345,
      "rig": 6346,
      "usted": 6347,
      "aints": 6348,
      "Ġshirt": 6349,
      "Ġcommitted": 6350,
      "Ġmaid": 6351,
      "Ġedward": 6352,
      "gery": 6353,
      "Ġinterpret": 6354,
      "Ġpete": 6355,
      "Ġtreasure": 6356,
      "Ġeffective": 6357,
      "Ġbudd": 6358,
      "Ġmoves": 6359,
      "Ġpointed": 6360,
      "Ġobvious": 6361,
      "Ġlocked": 6362,
      "Ġrandom": 6363,
      "Ġnumerous": 6364,
      "itzerland": 6365,
      "dist": 6366,
      "vol": 6367,
      "into": 6368,
      "reck": 6369,
      "half": 6370,
      "Ġfishing": 6371,
      "Ġhired": 6372,
      "Ġdozen": 6373,
      "thou": 6374,
      "Ġsuicide": 6375,
      "Ġlecture": 6376,
      "Ġarrow": 6377,
      "Ġblank": 6378,
      "Ġbuck": 6379,
      "cription": 6380,
      "Ġdawn": 6381,
      "Ġcruel": 6382,
      "Ġadministr": 6383,
      "Ġcomplicated": 6384,
      "Ġtruly": 6385,
      "probably": 6386,
      "equ": 6387,
      "rot": 6388,
      "yet": 6389,
      "Ġcream": 6390,
      "Ġdave": 6391,
      "Ġpas": 6392,
      "iments": 6393,
      "uri": 6394,
      "empl": 6395,
      "Ġfuneral": 6396,
      "Ġ1981": 6397,
      "Ġwinner": 6398,
      "asked": 6399,
      "Ġstatistics": 6400,
      "Ġberlin": 6401,
      "Ġbeneath": 6402,
      "Ġreferred": 6403,
      "Ġreviews": 6404,
      "].": 6405,
      "Ġward": 6406,
      "Ġfu": 6407,
      "Ġriding": 6408,
      "state": 6409,
      "umes": 6410,
      "ogue": 6411,
      "Ġholly": 6412,
      "Ġattitude": 6413,
      "Ġsimpl": 6414,
      "Ġsteal": 6415,
      "Ġmillions": 6416,
      "Ġcommunities": 6417,
      "Ġdealing": 6418,
      "hetic": 6419,
      "Ġscarce": 6420,
      "Ġtorn": 6421,
      "Ġconce": 6422,
      "soon": 6423,
      "Ġproved": 6424,
      "cahedron": 6425,
      "anged": 6426,
      "Ġapplied": 6427,
      "Ġsorts": 6428,
      "Ġdepends": 6429,
      "writer": 6430,
      "Ġexcellent": 6431,
      "\"),": 6432,
      "enny": 6433,
      "Ġgil": 6434,
      "Ġwendy": 6435,
      "george": 6436,
      "Ġcheese": 6437,
      "Ġfriendly": 6438,
      "Ġexplained": 6439,
      "Ġvector": 6440,
      "Ġromantic": 6441,
      "Ġcultural": 6442,
      "greg": 6443,
      "Ġspending": 6444,
      "Ġperman": 6445,
      "Ġmazra": 6446,
      "',": 6447,
      "dog": 6448,
      "Ġpad": 6449,
      "Ġbeg": 6450,
      "weight": 6451,
      "Ġarthur": 6452,
      "been": 6453,
      "athy": 6454,
      "Ġretire": 6455,
      "Ġdynasty": 6456,
      "away": 6457,
      "bb": 6458,
      "bill": 6459,
      "mur": 6460,
      "Ġduck": 6461,
      "Ġkh": 6462,
      "Ġbutton": 6463,
      "Ġ180": 6464,
      "Ġparish": 6465,
      "Ġrecording": 6466,
      "Ġhealthy": 6467,
      "Ġburning": 6468,
      "Ġathlet": 6469,
      "Ġmazraeh": 6470,
      "count": 6471,
      "tv": 6472,
      "Ġsang": 6473,
      "Ġcert": 6474,
      "alty": 6475,
      "Ġrice": 6476,
      "start": 6477,
      "andy": 6478,
      "Ġvision": 6479,
      "Ġunable": 6480,
      "Ġrelations": 6481,
      "Ġ1976": 6482,
      "Ġdelay": 6483,
      "Ġannual": 6484,
      "Ġcycle": 6485,
      "contin": 6486,
      "Ġmemorial": 6487,
      "cong": 6488,
      "eight": 6489,
      "Ġwound": 6490,
      "Ġmah": 6491,
      "akers": 6492,
      "Ġgrav": 6493,
      "Ġadam": 6494,
      "Ġbuying": 6495,
      "Ġ32": 6496,
      "Ġattor": 6497,
      "Ġtouched": 6498,
      "........": 6499,
      "Ġcombination": 6500,
      "walk": 6501,
      "iser": 6502,
      "Ġrein": 6503,
      "Ġbron": 6504,
      "Ġgran": 6505,
      "Ġtalks": 6506,
      "Ġpresidential": 6507,
      "Ġnether": 6508,
      "glas": 6509,
      "Ġapplication": 6510,
      "Ġrevenge": 6511,
      "ropriate": 6512,
      "Ġtale": 6513,
      "Ġbha": 6514,
      "Ġpity": 6515,
      "Ġnit": 6516,
      "Ġeve": 6517,
      "celer": 6518,
      "Ġrecall": 6519,
      "Ġequip": 6520,
      "Ġequals": 6521,
      "Ġcreature": 6522,
      "Ġshortly": 6523,
      "Ġstronger": 6524,
      "Ġvolume": 6525,
      "32": 6526,
      "cers": 6527,
      "might": 6528,
      "peter": 6529,
      "Ġshan": 6530,
      "onto": 6531,
      "Ġbent": 6532,
      "Ġbass": 6533,
      "Ġtomb": 6534,
      "isy": 6535,
      "illed": 6536,
      "thought": 6537,
      "olen": 6538,
      "195": 6539,
      "Ġ1986": 6540,
      "supp": 6541,
      "apping": 6542,
      "arrator": 6543,
      "Ġproperly": 6544,
      "Ġiniti": 6545,
      "Ġshadow": 6546,
      "39": 6547,
      "ij": 6548,
      "Ġwire": 6549,
      "Ġstu": 6550,
      "unte": 6551,
      "reek": 6552,
      "Ġmarks": 6553,
      "Ġacts": 6554,
      "Ġdescribe": 6555,
      "Ġhistoric": 6556,
      "better": 6557,
      "second": 6558,
      "Ġmonday": 6559,
      "later": 6560,
      "Ġticket": 6561,
      "Ġfans": 6562,
      "cho": 6563,
      "Ġunf": 6564,
      "Ġoperating": 6565,
      "twenty": 6566,
      "world": 6567,
      "Ġpotential": 6568,
      "Ġrestaurant": 6569,
      "Ġwebsite": 6570,
      "Ġfolks": 6571,
      "kar": 6572,
      "lan": 6573,
      "oll": 6574,
      "Ġpension": 6575,
      "Ġkal": 6576,
      "Ġplastic": 6577,
      "Ġphr": 6578,
      "Ġsingles": 6579,
      "Ġgermans": 6580,
      "Ġhorrible": 6581,
      "Ġturk": 6582,
      "Ġidentity": 6583,
      "Ġconfeder": 6584,
      "dou": 6585,
      "far": 6586,
      "garet": 6587,
      "rics": 6588,
      "Ġtropical": 6589,
      "Ġdumb": 6590,
      "rock": 6591,
      "Ġseed": 6592,
      "Ġdoctors": 6593,
      "yep": 6594,
      "Ġload": 6595,
      "Ġ1985": 6596,
      "Ġreflect": 6597,
      "Ġeighty": 6598,
      "Ġcritics": 6599,
      "Ġenjoyed": 6600,
      "Ġexec": 6601,
      "Ġinjury": 6602,
      "Ġnominated": 6603,
      "bird": 6604,
      "ĠÎ": 6605,
      "Ġcem": 6606,
      "Ġcake": 6607,
      "Ġos": 6608,
      "Ġpor": 6609,
      "ano": 6610,
      "Ġswitzerland": 6611,
      "Ġsubsequ": 6612,
      "Ġaircraft": 6613,
      "Ġbadly": 6614,
      "Ġ1964": 6615,
      "Ġmarked": 6616,
      "Ġinstructions": 6617,
      "fish": 6618,
      "word": 6619,
      "Ġwing": 6620,
      "Ġment": 6621,
      "Ġmud": 6622,
      "encies": 6623,
      "Ġstir": 6624,
      "Ġstole": 6625,
      "Ġloyal": 6626,
      "Ġconsult": 6627,
      "Ġclosely": 6628,
      "Ġprincipal": 6629,
      "Ġelder": 6630,
      "Ġconvention": 6631,
      "quarters": 6632,
      "99": 6633,
      "ares": 6634,
      "fight": 6635,
      "gie": 6636,
      "hin": 6637,
      "inte": 6638,
      "Ġstab": 6639,
      "osition": 6640,
      "Ġchris": 6641,
      "aving": 6642,
      "enses": 6643,
      "Ġincident": 6644,
      "Ġexpert": 6645,
      "Ġhydro": 6646,
      "phe": 6647,
      "Ġhamm": 6648,
      "Ġrib": 6649,
      "Ġ\"\"": 6650,
      "eman": 6651,
      "agues": 6652,
      "being": 6653,
      "white": 6654,
      "Ġcomposed": 6655,
      "avis": 6656,
      "Ġbuff": 6657,
      "Ġkeys": 6658,
      "Ġsurre": 6659,
      "gging": 6660,
      "Ġ1978": 6661,
      "Ġdefin": 6662,
      "Ġmoral": 6663,
      "Ġglasses": 6664,
      "commun": 6665,
      "Â°": 6666,
      "rets": 6667,
      "Ġcher": 6668,
      "enna": 6669,
      "Ġincome": 6670,
      "ashing": 6671,
      "Ġhay": 6672,
      "Ġreference": 6673,
      "Ġrud": 6674,
      "Ġrode": 6675,
      "iffe": 6676,
      "Ġministry": 6677,
      "Ġstranger": 6678,
      "Ġassy": 6679,
      "ropol": 6680,
      "iii": 6681,
      "Ġequipment": 6682,
      "found": 6683,
      "high": 6684,
      "wall": 6685,
      "Ġthunder": 6686,
      "Ġrug": 6687,
      "station": 6688,
      "rog": 6689,
      "Ġalpha": 6690,
      "Ġshift": 6691,
      "Ġark": 6692,
      "Ġargu": 6693,
      "Ġfifa": 6694,
      "Ġborrow": 6695,
      "course": 6696,
      "Ġmethods": 6697,
      "Ġatmosphere": 6698,
      "37": 6699,
      "bid": 6700,
      "tit": 6701,
      "Ġvel": 6702,
      "Ġtip": 6703,
      "oty": 6704,
      "osis": 6705,
      "Ġuns": 6706,
      "Ġprote": 6707,
      "Ġacceler": 6708,
      "Ġprefect": 6709,
      "Ġimpression": 6710,
      "Ġregret": 6711,
      "Ġcenturies": 6712,
      "Ġ500": 6713,
      "Ġmissouri": 6714,
      "Ġ1983": 6715,
      "Ġcreation": 6716,
      "Ġinvestment": 6717,
      "Ġruled": 6718,
      "Ġobserved": 6719,
      "Ġfrancisco": 6720,
      "fun": 6721,
      "swe": 6722,
      "Ġpages": 6723,
      "itable": 6724,
      "aria": 6725,
      "Ġhunt": 6726,
      "Ġross": 6727,
      "Ġgoals": 6728,
      "Ġsche": 6729,
      "Ġapply": 6730,
      "Ġinterrupt": 6731,
      "Ġburst": 6732,
      "Ġvalu": 6733,
      "Ġconduct": 6734,
      "Ġdomestic": 6735,
      "Ġvictims": 6736,
      "Ġadopted": 6737,
      "Ġridiculous": 6738,
      "saint": 6739,
      "Ġtheater": 6740,
      "Ġwand": 6741,
      "ishes": 6742,
      "Ġbeating": 6743,
      "Ġell": 6744,
      "Ġending": 6745,
      "Ġcape": 6746,
      "Ġpassage": 6747,
      "Ġincor": 6748,
      "Ġexplan": 6749,
      "Ġpainted": 6750,
      "Ġsidney": 6751,
      "Ġsucceeded": 6752,
      "Ġapproximately": 6753,
      "free": 6754,
      "nah": 6755,
      "pur": 6756,
      "zo": 6757,
      "Ġtoile": 6758,
      "arant": 6759,
      "Ġmeal": 6760,
      "Ġanger": 6761,
      "Ġconver": 6762,
      "Ġguide": 6763,
      "Ġbund": 6764,
      "doctor": 6765,
      "Ġdecor": 6766,
      "Ġsteve": 6767,
      "Ġpubl": 6768,
      "Ġdevice": 6769,
      "Ġdevices": 6770,
      "Ġmirror": 6771,
      "Ġinitial": 6772,
      "Ġelizabeth": 6773,
      "mail": 6774,
      "yard": 6775,
      "Ġfisher": 6776,
      "Ġlung": 6777,
      "Ġgat": 6778,
      "Ġgoo": 6779,
      "Ġ36": 6780,
      "Ġ184": 6781,
      "Ġ1973": 6782,
      "Ġcontrovers": 6783,
      "Ġauthorities": 6784,
      "Ġgarage": 6785,
      "Ġgeorgia": 6786,
      "Ġlonely": 6787,
      "Ġsymptoms": 6788,
      "sn": 6789,
      "Ġcant": 6790,
      "Ġcats": 6791,
      "kel": 6792,
      "una": 6793,
      "dear": 6794,
      "death": 6795,
      "Ġscat": 6796,
      "Ġreput": 6797,
      "Ġregions": 6798,
      "Ġhearts": 6799,
      "Ġ1975": 6800,
      "Ġjealous": 6801,
      "Ġ1930": 6802,
      "Î¿u": 6803,
      "Ġexciting": 6804,
      "Ġwaters": 6805,
      "Ġemploy": 6806,
      "Ġbathroom": 6807,
      "Ġneighborhood": 6808,
      "Ġnuclear": 6809,
      "pri": 6810,
      "sam": 6811,
      "hens": 6812,
      "Ġbite": 6813,
      "Ġbones": 6814,
      "always": 6815,
      "Ġreward": 6816,
      "Ġvic": 6817,
      "Ġsufficient": 6818,
      "ensions": 6819,
      "Ġcrook": 6820,
      "Ġimpress": 6821,
      "ibi": 6822,
      "Ġpersons": 6823,
      "alex": 6824,
      "Ġskills": 6825,
      "Ġbrilliant": 6826,
      "Ġsnake": 6827,
      "Ġbangl": 6828,
      "respond": 6829,
      "case": 6830,
      "Ġak": 6831,
      "Ġwag": 6832,
      "Ġreign": 6833,
      "Ġanton": 6834,
      "Ġselect": 6835,
      "ops": 6836,
      "Ġtrained": 6837,
      "Ġconfused": 6838,
      "somebody": 6839,
      "Ġhorror": 6840,
      "Ġpalm": 6841,
      "Ġdefeat": 6842,
      "Ġphysics": 6843,
      "Ġtypical": 6844,
      "Ġclaimed": 6845,
      "Ġpermission": 6846,
      "Ġsources": 6847,
      "Ġsacred": 6848,
      "Ġfrightened": 6849,
      "Ġvehicle": 6850,
      "Ġaisne": 6851,
      "narrator": 6852,
      "wing": 6853,
      "Ġaid": 6854,
      "Ġbible": 6855,
      "Ġreject": 6856,
      "thew": 6857,
      "ador": 6858,
      "ours": 6859,
      "agger": 6860,
      "Ġsecure": 6861,
      "Ġentrance": 6862,
      "Ġinstall": 6863,
      "Ġassume": 6864,
      "Ġ1974": 6865,
      "Ġwinds": 6866,
      "Ġ1969": 6867,
      "Ġsending": 6868,
      "Ġbalance": 6869,
      "Ġastron": 6870,
      "Ġrevealed": 6871,
      "Ġimperial": 6872,
      "iat": 6873,
      "Ġmcc": 6874,
      "Ġoak": 6875,
      "Ġfasc": 6876,
      "Ġmode": 6877,
      "Ġshir": 6878,
      "ifying": 6879,
      "Ġblo": 6880,
      "aws": 6881,
      "super": 6882,
      "Ġmiller": 6883,
      "Ġmadam": 6884,
      "Ġtracks": 6885,
      "Ġobjects": 6886,
      "Ġseparated": 6887,
      "Ġdetective": 6888,
      "Ġnurse": 6889,
      "Ġunusual": 6890,
      "var": 6891,
      "Ġbom": 6892,
      "Ġgaz": 6893,
      "Ġnotable": 6894,
      "Ġneut": 6895,
      "ieur": 6896,
      "Ġremaining": 6897,
      "Ġinstant": 6898,
      "Ġparall": 6899,
      "Ġinterests": 6900,
      "tendo": 6901,
      "Ġvisited": 6902,
      "Ġ1940": 6903,
      "produ": 6904,
      "Ġmassive": 6905,
      "Ġdifficulty": 6906,
      "Ġregarded": 6907,
      "Ġjunior": 6908,
      "Ġconservative": 6909,
      "Ġpregnant": 6910,
      "bits": 6911,
      "power": 6912,
      "Ġlamp": 6913,
      "Ġstress": 6914,
      "Ġmos": 6915,
      "Ġsplend": 6916,
      "cience": 6917,
      "Ġdesk": 6918,
      "Ġmaiden": 6919,
      "Ġindians": 6920,
      "Ġengage": 6921,
      "phia": 6922,
      "Ġdepth": 6923,
      "Ġdriven": 6924,
      "Ġholds": 6925,
      "Ġvoices": 6926,
      "Ġroads": 6927,
      "Ġmurdered": 6928,
      "Ġmerry": 6929,
      "ursday": 6930,
      "Ġalternative": 6931,
      "Ġattorney": 6932,
      "lou": 6933,
      "rin": 6934,
      "Ġ/": 6935,
      "Ġira": 6936,
      "Ġbot": 6937,
      "itors": 6938,
      "Ġexha": 6939,
      "Ġchase": 6940,
      "Ġdisney": 6941,
      "Ġcharged": 6942,
      "Ġlaunch": 6943,
      "ika": 6944,
      "Ġsitu": 6945,
      "Ġopposed": 6946,
      "hamed": 6947,
      "Ġphilipp": 6948,
      "Ġcombined": 6949,
      "Ġbelongs": 6950,
      "Ġgreece": 6951,
      "Ġsurrounded": 6952,
      "Ġexpedition": 6953,
      "31": 6954,
      "Ġsne": 6955,
      "Ġbos": 6956,
      "Ġbbc": 6957,
      "Ġmath": 6958,
      "astern": 6959,
      "Ġwhoa": 6960,
      "Ġguarant": 6961,
      "orders": 6962,
      "Ġcrash": 6963,
      "Ġcourts": 6964,
      "Ġsurgery": 6965,
      "Ġlisted": 6966,
      "Ġprovides": 6967,
      "Ġ1972": 6968,
      "Ġdistricts": 6969,
      "Ġgrandma": 6970,
      "Ġearthqu": 6971,
      "Ġvert": 6972,
      "Ġpractical": 6973,
      "Ġvolunte": 6974,
      "Ġprisoners": 6975,
      "Ġaffected": 6976,
      "Ġintelligence": 6977,
      "bas": 6978,
      "wick": 6979,
      "Ġwra": 6980,
      "Ġdub": 6981,
      "Ġgor": 6982,
      "Ġgained": 6983,
      "Ġkr": 6984,
      "Ġnoble": 6985,
      "Ġspite": 6986,
      "oked": 6987,
      "Ġmargin": 6988,
      "Ġcurious": 6989,
      "Ġoccas": 6990,
      "Ġsuperior": 6991,
      "Ġvideos": 6992,
      "Ġcooking": 6993,
      "Ġinfant": 6994,
      "Ġcapture": 6995,
      "Ġkorean": 6996,
      "Ġcorporation": 6997,
      "Ġdramatic": 6998,
      "bach": 6999,
      "gra": 7000,
      "none": 7001,
      "Ġwaves": 7002,
      "Ġbits": 7003,
      "Ġfuel": 7004,
      "Ġgib": 7005,
      "Ġrefe": 7006,
      "Ġleon": 7007,
      "Ġnod": 7008,
      "Ġwanting": 7009,
      "Ġactions": 7010,
      "Ġdeserve": 7011,
      "Ġdistingu": 7012,
      "pective": 7013,
      "Ġstudying": 7014,
      "Ġassign": 7015,
      "Ġmerc": 7016,
      "Ġviews": 7017,
      "Ġclothing": 7018,
      "Ġarchitecture": 7019,
      "pent": 7020,
      "sk": 7021,
      "tor": 7022,
      "Ġbark": 7023,
      "esome": 7024,
      "Ġhong": 7025,
      "Ġstolen": 7026,
      "riff": 7027,
      "Ġalice": 7028,
      "Ġshell": 7029,
      "ateful": 7030,
      "akh": 7031,
      "Ġcovers": 7032,
      "Ġacted": 7033,
      "Ġowners": 7034,
      "Ġhousehold": 7035,
      "Ġcapable": 7036,
      "Ġreturning": 7037,
      "engers": 7038,
      "chers": 7039,
      "Ġwalter": 7040,
      "Ġliterally": 7041,
      "absolutely": 7042,
      "cated": 7043,
      "dale": 7044,
      "each": 7045,
      "gent": 7046,
      "Ġbone": 7047,
      "Ġbond": 7048,
      "Ġooh": 7049,
      "Ġtools": 7050,
      "Ġraw": 7051,
      "ategy": 7052,
      "apore": 7053,
      "Ġtwin": 7054,
      "Ġspo": 7055,
      "onsense": 7056,
      "Ġdepression": 7057,
      "Ġmusician": 7058,
      "Ġ1968": 7059,
      "rayed": 7060,
      "Ġoxy": 7061,
      "Ġindividuals": 7062,
      "Ġbenefits": 7063,
      "Ġcotton": 7064,
      "Ġheavily": 7065,
      "hol": 7066,
      "mun": 7067,
      "Ġwolf": 7068,
      "iture": 7069,
      "alan": 7070,
      "usa": 7071,
      "etime": 7072,
      "Ġrear": 7073,
      "Ġrivers": 7074,
      "Ġjury": 7075,
      "urt": 7076,
      "clusion": 7077,
      "Ġguests": 7078,
      "plus": 7079,
      "mma": 7080,
      "Ġminds": 7081,
      "Ġpossibility": 7082,
      "Ġclassic": 7083,
      "iami": 7084,
      "Ġdanny": 7085,
      "Ġdrinks": 7086,
      "Ġcops": 7087,
      "Ġbanks": 7088,
      "Ġsuffer": 7089,
      "Ġwidely": 7090,
      "Ġscenes": 7091,
      "Ġinhabitants": 7092,
      "dar": 7093,
      "Ġlane": 7094,
      "Ġryan": 7095,
      "andie": 7096,
      "robert": 7097,
      "Ġvast": 7098,
      "aho": 7099,
      "Ġcrap": 7100,
      "Ġmatt": 7101,
      "Ġstrategy": 7102,
      "Ġfriendship": 7103,
      "Ġchecked": 7104,
      "Ġreduced": 7105,
      "Ġemploye": 7106,
      "Ġpilot": 7107,
      "Ġceremony": 7108,
      "Ġescaped": 7109,
      "Ġrescue": 7110,
      "bast": 7111,
      "erable": 7112,
      "ala": 7113,
      "Ġtender": 7114,
      "Ġpole": 7115,
      "Ġassault": 7116,
      "Ġ1945": 7117,
      "Ġcamer": 7118,
      "Ġshopping": 7119,
      "Ġissued": 7120,
      "Ġanaly": 7121,
      "Ġgraduated": 7122,
      "Ġliquid": 7123,
      "cat": 7124,
      "ku": 7125,
      "Ġsink": 7126,
      "Ġpushed": 7127,
      "iders": 7128,
      "amy": 7129,
      "sters": 7130,
      "Ġjill": 7131,
      "Ġdebt": 7132,
      "Ġleaf": 7133,
      "Ġboats": 7134,
      "Ġprec": 7135,
      "Ġconsists": 7136,
      "Ġideal": 7137,
      "Ġphotograph": 7138,
      "Ġvictoria": 7139,
      "Ġstruggle": 7140,
      "aha": 7141,
      "ooth": 7142,
      "Ġtub": 7143,
      "Ġfond": 7144,
      "Ġhog": 7145,
      "Ġeager": 7146,
      "Ġvul": 7147,
      "Ġpolish": 7148,
      "Ġmeters": 7149,
      "aughters": 7150,
      "Ġestim": 7151,
      "Ġalbums": 7152,
      "Ġelections": 7153,
      "Ġversions": 7154,
      "Ġbern": 7155,
      "Ġnecessarily": 7156,
      "Ġoliver": 7157,
      "Ġadventure": 7158,
      "adelphia": 7159,
      "kat": 7160,
      "wich": 7161,
      "Ġmig": 7162,
      "Ġinfect": 7163,
      "Ġnaked": 7164,
      "Ġitems": 7165,
      "Ġron": 7166,
      "sea": 7167,
      "Ġstrateg": 7168,
      "goodbye": 7169,
      "Ġconfidence": 7170,
      "Ġ150": 7171,
      "Ġimages": 7172,
      "Ġcopies": 7173,
      "Ġrepresentatives": 7174,
      "Ġnintendo": 7175,
      "Ġdollar": 7176,
      "doesn": 7177,
      "besides": 7178,
      "Ġtaiwan": 7179,
      "normandie": 7180,
      "oly": 7181,
      "Ġhits": 7182,
      "stan": 7183,
      "umber": 7184,
      "Ġteen": 7185,
      "Ġclar": 7186,
      "avan": 7187,
      "Ġrelief": 7188,
      "Ġpersonality": 7189,
      "ront": 7190,
      "Ġleads": 7191,
      "Ġcommunist": 7192,
      "Ġjean": 7193,
      "aska": 7194,
      "Ġverte": 7195,
      "Ġmachines": 7196,
      "Ġpirates": 7197,
      "Ġdiamond": 7198,
      "hl": 7199,
      "offic": 7200,
      "vior": 7201,
      "Ġsought": 7202,
      "rep": 7203,
      "Ġinse": 7204,
      "uled": 7205,
      "Ġaccompl": 7206,
      "Ġimplement": 7207,
      "Ġremove": 7208,
      "Ġpersonally": 7209,
      "Ġbasse": 7210,
      "Ġconstit": 7211,
      "Ġequation": 7212,
      "Ġdelivered": 7213,
      "Ġengineer": 7214,
      "Ġhoped": 7215,
      "Ġsatisfied": 7216,
      "Ġextended": 7217,
      "Ġnetherlands": 7218,
      "det": 7219,
      "iac": 7220,
      "Ġtu": 7221,
      "oria": 7222,
      "organ": 7223,
      "Ġpiss": 7224,
      "Ġku": 7225,
      "ilton": 7226,
      "Ġnegot": 7227,
      "Ġconclud": 7228,
      "soft": 7229,
      "Ġchildhood": 7230,
      "Ġinsult": 7231,
      "Ġmoments": 7232,
      "Ġanswers": 7233,
      "Ġinitially": 7234,
      "Ġmystery": 7235,
      "Ġarchitect": 7236,
      "Ġcolumbia": 7237,
      "33": 7238,
      "dem": 7239,
      "fre": 7240,
      "gust": 7241,
      "Ġstamp": 7242,
      "Ġliver": 7243,
      "quick": 7244,
      "osing": 7245,
      "Ġroger": 7246,
      "Ġhoward": 7247,
      "Ġputs": 7248,
      "Ġ1963": 7249,
      "Ġfigured": 7250,
      "Ġargent": 7251,
      "Ġarranged": 7252,
      "Ġintellect": 7253,
      "Ġalexander": 7254,
      "Ġwilson": 7255,
      "Ġsweden": 7256,
      "Ġpunishment": 7257,
      "burn": 7258,
      "dney": 7259,
      "mir": 7260,
      "ras": 7261,
      "Ġthir": 7262,
      "Ġstim": 7263,
      "Ġjazz": 7264,
      "chi": 7265,
      "Ġcontext": 7266,
      "Ġboom": 7267,
      "Ġshoulders": 7268,
      "Ġheadquarters": 7269,
      "Ġentry": 7270,
      "Ġinspired": 7271,
      "Ġsingapore": 7272,
      "Ġaccur": 7273,
      "Ġcontrolled": 7274,
      "Ġinternal": 7275,
      "Ġorganized": 7276,
      "Ġclubs": 7277,
      "Ġgranted": 7278,
      "Ġpollution": 7279,
      "Ġdemonstr": 7280,
      "Ġavenue": 7281,
      "sun": 7282,
      "tri": 7283,
      "Ġtiger": 7284,
      "Ġfier": 7285,
      "Ġpond": 7286,
      "acher": 7287,
      "ifts": 7288,
      "Ġarc": 7289,
      "Ġpeak": 7290,
      "Ġpride": 7291,
      "itty": 7292,
      "Ġours": 7293,
      "angers": 7294,
      "inton": 7295,
      "Ġrecru": 7296,
      "Ġgene": 7297,
      "Ġbitter": 7298,
      "ounced": 7299,
      "Ġdouglas": 7300,
      "Ġdiscussion": 7301,
      "Ġsustain": 7302,
      "ua": 7303,
      "Â´": 7304,
      "Ġtel": 7305,
      "Ġpipe": 7306,
      "itched": 7307,
      "ati": 7308,
      "Ġbegun": 7309,
      "Ġjur": 7310,
      "Ġallen": 7311,
      "Ġspell": 7312,
      "Ġerasmus": 7313,
      "Ġexplore": 7314,
      "laus": 7315,
      "Ġ1947": 7316,
      "Ġbilly": 7317,
      "Ġphotos": 7318,
      "Ġdisappear": 7319,
      "Ġspiritual": 7320,
      "break": 7321,
      "Ġcomposer": 7322,
      "Ġmaximum": 7323,
      "Ġcemet": 7324,
      "lines": 7325,
      "same": 7326,
      "wart": 7327,
      "usive": 7328,
      "Ġjan": 7329,
      "Ġalt": 7330,
      "Ġyards": 7331,
      "forget": 7332,
      "ples": 7333,
      "Ġbaron": 7334,
      "Ġsites": 7335,
      "Ġalongside": 7336,
      "Ġprofession": 7337,
      "Ġbrian": 7338,
      "vinced": 7339,
      "Ġreduce": 7340,
      "Ġemotions": 7341,
      "Ġvotes": 7342,
      "Ġjacob": 7343,
      "Ġbranches": 7344,
      "dri": 7345,
      "rons": 7346,
      "Ġcreek": 7347,
      "thy": 7348,
      "Ġloan": 7349,
      "Ġerror": 7350,
      "Ġsmiled": 7351,
      "Ġ300": 7352,
      "Ġwarning": 7353,
      "Ġadvoc": 7354,
      "Ġrevol": 7355,
      "Ġemotional": 7356,
      "Ġarticles": 7357,
      "Ġcandidate": 7358,
      "Ġcategory": 7359,
      "Ġabandoned": 7360,
      "Ġmerchant": 7361,
      "Ġcemetery": 7362,
      "lers": 7363,
      "vard": 7364,
      "ãĥ": 7365,
      "having": 7366,
      "Ġcord": 7367,
      "Ġcattle": 7368,
      "Ġrope": 7369,
      "Ġknees": 7370,
      "Ġanch": 7371,
      "Ġanno": 7372,
      "Ġanna": 7373,
      "Ġleap": 7374,
      "Ġ1920": 7375,
      "Ġconfess": 7376,
      "poor": 7377,
      "Ġpicard": 7378,
      "iency": 7379,
      "vid": 7380,
      "Ġsher": 7381,
      "Ġmd": 7382,
      "Ġmoo": 7383,
      "nding": 7384,
      "Ġoption": 7385,
      "Ġfoss": 7386,
      "Ġdaughters": 7387,
      "Ġgates": 7388,
      "omed": 7389,
      "roll": 7390,
      "rix": 7391,
      "Ġfrag": 7392,
      "istol": 7393,
      "orted": 7394,
      "Ġcoordin": 7395,
      "Ġagents": 7396,
      "Ġformat": 7397,
      "Ġcollabor": 7398,
      "except": 7399,
      "Ġnaturally": 7400,
      "Ġpromoted": 7401,
      "Ġ1944": 7402,
      "aii": 7403,
      "Ġcrossing": 7404,
      "Ġborough": 7405,
      "Ġbreathing": 7406,
      "Ġkissed": 7407,
      "Ġchampionships": 7408,
      "Ġmerely": 7409,
      "sis": 7410,
      "sat": 7411,
      "vy": 7412,
      "Ġbc": 7413,
      "eness": 7414,
      "especially": 7415,
      "icy": 7416,
      "Ġthread": 7417,
      "Ġka": 7418,
      "uls": 7419,
      "Ġgoodbye": 7420,
      "Ġchap": 7421,
      "Ġmargaret": 7422,
      "ordinary": 7423,
      "Ġformation": 7424,
      "Ġdepos": 7425,
      "Ġsooner": 7426,
      "Ġillness": 7427,
      "Ġaustria": 7428,
      "Ġattacks": 7429,
      "Ġaffair": 7430,
      "Ġdigital": 7431,
      "Ġsacrif": 7432,
      "Ġswimming": 7433,
      "Ġstuart": 7434,
      "95": 7435,
      "iber": 7436,
      "mouth": 7437,
      "Ġlam": 7438,
      "Ġnurs": 7439,
      "alo": 7440,
      "iao": 7441,
      "Ġcompar": 7442,
      "ffin": 7443,
      "Ġmuhammad": 7444,
      "onsieur": 7445,
      "Ġ37": 7446,
      "Ġmonster": 7447,
      "Ġregiment": 7448,
      "Ġslave": 7449,
      "Ġcolors": 7450,
      "Ġmaine": 7451,
      "Ġdrives": 7452,
      "Ġcontinu": 7453,
      "Ġ1967": 7454,
      "Ġprojects": 7455,
      "Ġringing": 7456,
      "Ġquietly": 7457,
      "Ġgathered": 7458,
      "Ġparallel": 7459,
      "rome": 7460,
      "south": 7461,
      "zing": 7462,
      "Ġaye": 7463,
      "Ġcass": 7464,
      "athan": 7465,
      "Ġhut": 7466,
      "Ġstores": 7467,
      "Ġletting": 7468,
      "shot": 7469,
      "Ġdrown": 7470,
      "Ġcolumn": 7471,
      "Ġadding": 7472,
      "Ġservant": 7473,
      "Ġ1977": 7474,
      "Ġ1965": 7475,
      "Ġbedroom": 7476,
      "Ġindex": 7477,
      "Ġvillages": 7478,
      "Ġproperties": 7479,
      "Ġknocked": 7480,
      "vor": 7481,
      "haw": 7482,
      "Ġbou": 7483,
      "nde": 7484,
      "Ġfulf": 7485,
      "Ġni": 7486,
      "Ġford": 7487,
      "Ġchop": 7488,
      "Ġscored": 7489,
      "Ġbetty": 7490,
      "Ġheaded": 7491,
      "Ġlistened": 7492,
      "Ġoperated": 7493,
      "Ġidaho": 7494,
      "Ġpositions": 7495,
      "Ġurban": 7496,
      "between": 7497,
      "daddy": 7498,
      "Ġbehavior": 7499,
      "Ġphase": 7500,
      "Ġcapacity": 7501,
      "Ġoxygen": 7502,
      "aa": 7503,
      "low": 7504,
      "Ġtack": 7505,
      "Ġfiction": 7506,
      "Ġdna": 7507,
      "Ġpant": 7508,
      "Ġnuts": 7509,
      "Ġjay": 7510,
      "Ġleo": 7511,
      "Ġprecious": 7512,
      "Ġthrone": 7513,
      "Ġmonarch": 7514,
      "Ġpersu": 7515,
      "Ġelev": 7516,
      "Ġtries": 7517,
      "Ġmeetings": 7518,
      "Ġclassical": 7519,
      "Ġmurde": 7520,
      "Ġjacket": 7521,
      "nesday": 7522,
      "Ġepisodes": 7523,
      "Ġelectricity": 7524,
      "Ġtoilet": 7525,
      "47": 7526,
      "fif": 7527,
      "gon": 7528,
      "mod": 7529,
      "rum": 7530,
      "rane": 7531,
      "ÏĦ": 7532,
      "Ġdur": 7533,
      "Ġlately": 7534,
      "Ġkha": 7535,
      "lyne": 7536,
      "Ġsolo": 7537,
      "Ġvacc": 7538,
      "Ġbuzz": 7539,
      "Ġappropriate": 7540,
      "Ġsurve": 7541,
      "Ġmetropol": 7542,
      "tense": 7543,
      "Ġcorrespond": 7544,
      "Ġamongst": 7545,
      "Ġabsolute": 7546,
      "Ġexisting": 7547,
      "Ġintroduce": 7548,
      "Ġcroat": 7549,
      "given": 7550,
      "best": 7551,
      "mount": 7552,
      "names": 7553,
      "onic": 7554,
      "Ġhug": 7555,
      "lee": 7556,
      "Ġjumped": 7557,
      "ustration": 7558,
      "Ġnowhere": 7559,
      "Ġscand": 7560,
      "Ġindones": 7561,
      "Ġinvasion": 7562,
      "Ġdefence": 7563,
      "uesday": 7564,
      "Ġemily": 7565,
      "Ġmodels": 7566,
      "Ġladder": 7567,
      "Ġviolent": 7568,
      "Ġdocuments": 7569,
      "Ġoptim": 7570,
      "Ġfrequently": 7571,
      "Ġillegal": 7572,
      "Ġvaluable": 7573,
      "lady": 7574,
      "ture": 7575,
      "Ġald": 7576,
      "Ġwol": 7577,
      "Ġmam": 7578,
      "Ġbold": 7579,
      "Ġreserve": 7580,
      "Ġdescend": 7581,
      "Ġcutting": 7582,
      "Ġchurches": 7583,
      "Ġmessages": 7584,
      "Ġexpecting": 7585,
      "Ġreplace": 7586,
      "kyo": 7587,
      "Ġsubjects": 7588,
      "Ġpirate": 7589,
      "Ġnaval": 7590,
      "baby": 7591,
      "Ġrhyth": 7592,
      "cam": 7593,
      "log": 7594,
      "mate": 7595,
      "mike": 7596,
      "rec": 7597,
      "Ġfel": 7598,
      "Ġfaced": 7599,
      "Ġrit": 7600,
      "unless": 7601,
      "Ġpron": 7602,
      "Ġclay": 7603,
      "Ġblast": 7604,
      "Ġsimon": 7605,
      "Ġuniversities": 7606,
      "Ġcorps": 7607,
      "Ġ1941": 7608,
      "Ġrobin": 7609,
      "Ġtechnical": 7610,
      "Ġdescription": 7611,
      "Ġclaims": 7612,
      "Ġsarah": 7613,
      "Ġtoronto": 7614,
      "Ġadults": 7615,
      "\"...": 7616,
      "cas": 7617,
      "cried": 7618,
      "fu": 7619,
      "iate": 7620,
      "mac": 7621,
      "pow": 7622,
      "ridge": 7623,
      "won": 7624,
      "Ġtank": 7625,
      "erted": 7626,
      "inging": 7627,
      "ington": 7628,
      "Ġpent": 7629,
      "anim": 7630,
      "ania": 7631,
      "atures": 7632,
      "Ġbeings": 7633,
      "Ġthursday": 7634,
      "Ġefficient": 7635,
      "Ġsty": 7636,
      "Ġstones": 7637,
      "seven": 7638,
      "Ġlover": 7639,
      "Ġgrateful": 7640,
      "hedral": 7641,
      "Ġrecy": 7642,
      "velope": 7643,
      "Ġfinance": 7644,
      "Ġsets": 7645,
      "Ġinteract": 7646,
      "Ġstandards": 7647,
      "ographer": 7648,
      "william": 7649,
      "Ġseventh": 7650,
      "Ġprinciple": 7651,
      "Ġexperiences": 7652,
      "Ġexplanation": 7653,
      "ele": 7654,
      "east": 7655,
      "top": 7656,
      "wis": 7657,
      "Ġairl": 7658,
      "Ġcave": 7659,
      "Ġdio": 7660,
      "icia": 7661,
      "Ġashamed": 7662,
      "Ġseats": 7663,
      "Ġconvinced": 7664,
      "Ġviv": 7665,
      "iev": 7666,
      "Ġsheet": 7667,
      "Ġgra": 7668,
      "Ġeric": 7669,
      "Ġregist": 7670,
      "Ġelephan": 7671,
      "Ġstepped": 7672,
      "Ġjohnny": 7673,
      "Ġlesson": 7674,
      "Ġphiladelphia": 7675,
      "Ġracing": 7676,
      "footnote": 7677,
      "Ġfantastic": 7678,
      "pardon": 7679,
      "Ġcin": 7680,
      "Ġdull": 7681,
      "Ġdating": 7682,
      "Ġinch": 7683,
      "atically": 7684,
      "owing": 7685,
      "aylor": 7686,
      "Ġsel": 7687,
      "Ġdean": 7688,
      "Ġuser": 7689,
      "ags": 7690,
      "Ġyu": 7691,
      "Ġpartly": 7692,
      "maj": 7693,
      "Ġmercy": 7694,
      "Ġidentified": 7695,
      "Ġrabbit": 7696,
      "crete": 7697,
      "Ġthorough": 7698,
      "Ġprovinces": 7699,
      "Ġiraq": 7700,
      "48": 7701,
      "bri": 7702,
      "bage": 7703,
      "Ġmiami": 7704,
      "enough": 7705,
      "asia": 7706,
      "stru": 7707,
      "Ġdove": 7708,
      "uncle": 7709,
      "Ġcomic": 7710,
      "Ġchapter": 7711,
      "Ġprecise": 7712,
      "Ġsmiling": 7713,
      "Ġformal": 7714,
      "Ġcharges": 7715,
      "load": 7716,
      "Ġdifferences": 7717,
      "gger": 7718,
      "Ġadmitted": 7719,
      "scream": 7720,
      "Ġtests": 7721,
      "Ġtesting": 7722,
      "odecahedron": 7723,
      "green": 7724,
      "Ġsailed": 7725,
      "Ġmexican": 7726,
      "Ġcigaret": 7727,
      "Ġpicardie": 7728,
      ".&": 7729,
      "cond": 7730,
      "pool": 7731,
      "Ġaer": 7732,
      "Ġcute": 7733,
      "Ġbum": 7734,
      "itary": 7735,
      "Ġlamb": 7736,
      "ctic": 7737,
      "Ġspar": 7738,
      "Ġgoodness": 7739,
      "Ġboots": 7740,
      "Ġcontained": 7741,
      "Ġshake": 7742,
      "Ġswift": 7743,
      "Ġstops": 7744,
      "Ġpossession": 7745,
      "Ġsupporting": 7746,
      "Ġapproved": 7747,
      "Ġstephen": 7748,
      "Ġabsor": 7749,
      "bourne": 7750,
      "Ġessentially": 7751,
      "Ġsanta": 7752,
      "Ġexercise": 7753,
      "Ġreputation": 7754,
      "cot": 7755,
      "dire": 7756,
      "song": 7757,
      "sud": 7758,
      "Ġtube": 7759,
      "Ġbis": 7760,
      "Ġbah": 7761,
      "Ġgross": 7762,
      "Ġeag": 7763,
      "Ġassh": 7764,
      "gee": 7765,
      "Ġvon": 7766,
      "Ġworn": 7767,
      "mmm": 7768,
      "gines": 7769,
      "Ġopens": 7770,
      "Ġswallow": 7771,
      "Ġcausing": 7772,
      "Ġhated": 7773,
      "Ġallowing": 7774,
      "Ġlatest": 7775,
      "Ġliterary": 7776,
      "Ġpurposes": 7777,
      "Ġdistribution": 7778,
      "Ġexperienced": 7779,
      "Ġdawson": 7780,
      "fly": 7781,
      "making": 7782,
      "Ġwicked": 7783,
      "Ġmit": 7784,
      "Ġnarr": 7785,
      "imately": 7786,
      "ctive": 7787,
      "abel": 7788,
      "Ġtrait": 7789,
      "Ġtear": 7790,
      "Ġenvelope": 7791,
      "icking": 7792,
      "Ġsmooth": 7793,
      "Ġworldwide": 7794,
      "ixon": 7795,
      "Ġrestrict": 7796,
      "Ġdivine": 7797,
      "Ġcollected": 7798,
      "build": 7799,
      "Ġlicense": 7800,
      "number": 7801,
      "Ġgoogle": 7802,
      "Ġmama": 7803,
      "Ġdug": 7804,
      "Ġjung": 7805,
      "Ġuseless": 7806,
      "Ġenorm": 7807,
      "Ġrecon": 7808,
      "Ġ48": 7809,
      "Ġinstitution": 7810,
      "Ġoblig": 7811,
      "Ġpasses": 7812,
      "prise": 7813,
      "chae": 7814,
      "Ġsoup": 7815,
      "Ġspirits": 7816,
      "Ġprepare": 7817,
      "Ġmysterious": 7818,
      "Ġnewspapers": 7819,
      "children": 7820,
      "Ġlan": 7821,
      "sell": 7822,
      "Ġbruce": 7823,
      "Ġclin": 7824,
      "ava": 7825,
      "mann": 7826,
      "Ġbelt": 7827,
      "fulness": 7828,
      "Ġmighty": 7829,
      "Ġpatri": 7830,
      "Ġprobability": 7831,
      "Ġequival": 7832,
      "Ġstarred": 7833,
      "tomorrow": 7834,
      "Ġhunter": 7835,
      "Ġthreatened": 7836,
      "Ġresource": 7837,
      "Ġdedicated": 7838,
      "Ġdiplom": 7839,
      "lrb": 7840,
      "Ġbars": 7841,
      "Ġfid": 7842,
      "Ġdial": 7843,
      "esar": 7844,
      "Ġindu": 7845,
      "Ġstable": 7846,
      "quite": 7847,
      "oslav": 7848,
      "agers": 7849,
      "Ġuncom": 7850,
      "ounce": 7851,
      "Ġlanded": 7852,
      "Ġdeveloping": 7853,
      "Ġextent": 7854,
      "Ġlargely": 7855,
      "Ġeighteen": 7856,
      "Ġruin": 7857,
      "ancing": 7858,
      "keeper": 7859,
      "Ġappointment": 7860,
      "Ġexhibition": 7861,
      "Ġpermanent": 7862,
      "di": 7863,
      "rrb": 7864,
      "siden": 7865,
      "ught": 7866,
      "Ġbure": 7867,
      "Ġthief": 7868,
      "...!": 7869,
      "oli": 7870,
      "Ġtrace": 7871,
      "beh": 7872,
      "Ġnewly": 7873,
      "Ġdefined": 7874,
      "Ġbeaten": 7875,
      "nessee": 7876,
      "Ġolympic": 7877,
      "laughing": 7878,
      "sidenote": 7879,
      "hit": 7880,
      "jam": 7881,
      "round": 7882,
      "tube": 7883,
      "zi": 7884,
      "Ġgest": 7885,
      "stic": 7886,
      "Ġtrump": 7887,
      "ahmad": 7888,
      "aga": 7889,
      "udes": 7890,
      "Ġpeasant": 7891,
      "club": 7892,
      "Ġgenius": 7893,
      "ologists": 7894,
      "idae": 7895,
      "Ġchemistry": 7896,
      "Ġrepeat": 7897,
      "Ġscreaming": 7898,
      "Ġencourage": 7899,
      "Ġrenamed": 7900,
      "easy": 7901,
      "lest": 7902,
      "mil": 7903,
      "pher": 7904,
      "press": 7905,
      "Ġfaint": 7906,
      "oration": 7907,
      "Ġpour": 7908,
      "Ġlap": 7909,
      "Ġbees": 7910,
      "Ġyield": 7911,
      "Ġwherever": 7912,
      "ibilities": 7913,
      "otted": 7914,
      "iki": 7915,
      "Ġconfident": 7916,
      "chair": 7917,
      "Ġorganizations": 7918,
      "Ġduties": 7919,
      "Ġfortun": 7920,
      "Ġmemories": 7921,
      "Ġdesperate": 7922,
      "Ġscheme": 7923,
      "75": 7924,
      "bro": 7925,
      "mid": 7926,
      "spr": 7927,
      "includ": 7928,
      "Ġsung": 7929,
      "Ġbav": 7930,
      "Ġfake": 7931,
      "Ġdates": 7932,
      "isk": 7933,
      "young": 7934,
      "Ġinner": 7935,
      "Ġrus": 7936,
      "acles": 7937,
      "stock": 7938,
      "rio": 7939,
      "Ġaltogether": 7940,
      "Ġvin": 7941,
      "Ġorth": 7942,
      "Ġrober": 7943,
      "Ġguards": 7944,
      "Ġcrimes": 7945,
      "Ġkeen": 7946,
      "Ġfounding": 7947,
      "Ġfinn": 7948,
      "brit": 7949,
      "Ġlinear": 7950,
      "Ġgreet": 7951,
      "Ġportion": 7952,
      "Ġangle": 7953,
      "Ġdeeply": 7954,
      "Ġpolicies": 7955,
      "Ġtaxes": 7956,
      "Ġplatforms": 7957,
      "women": 7958,
      "Ġdebate": 7959,
      "Ġvessels": 7960,
      "42": 7961,
      "much": 7962,
      "oard": 7963,
      "piece": 7964,
      "rac": 7965,
      "von": 7966,
      "Ġtuesday": 7967,
      "Ġslo": 7968,
      "haven": 7969,
      "Ġdia": 7970,
      "Ġbee": 7971,
      "wear": 7972,
      "Ġshiv": 7973,
      "Ġtrap": 7974,
      "Ġamy": 7975,
      "ĠĠĠ": 7976,
      "Ġactors": 7977,
      "Ġharrison": 7978,
      "Ġregister": 7979,
      "Ġgenus": 7980,
      "Ġstrict": 7981,
      "alem": 7982,
      "Ġgrandfather": 7983,
      "Ġstrongly": 7984,
      "Ġcomputers": 7985,
      "Ġforests": 7986,
      "Ġopportunities": 7987,
      "Ġsprings": 7988,
      "Ġjournalist": 7989,
      "Ġcabinet": 7990,
      "Ġcrisis": 7991,
      "Ġhollywood": 7992,
      "Ġphrase": 7993,
      "Ġsplendid": 7994,
      "43": 7995,
      "49": 7996,
      "honey": 7997,
      "oct": 7998,
      "Ġcd": 7999,
      "section": 8000,
      "Ġasks": 8001,
      "Ġmans": 8002,
      "Ġunconscious": 8003,
      "onder": 8004,
      "cling": 8005,
      "Ġfounder": 8006,
      "Ġretreat": 8007,
      "Ġyoungest": 8008,
      "Ġawake": 8009,
      "Ġfreud": 8010,
      "Ġ1954": 8011,
      "Ġprivile": 8012,
      "Ġrepresentative": 8013,
      "Ġpulling": 8014,
      "drink": 8015,
      "Ġargue": 8016,
      "Ġregarding": 8017,
      "Ġinjured": 8018,
      "Ġrelatively": 8019,
      "ders": 8020,
      "zes": 8021,
      "Ġwow": 8022,
      "anium": 8023,
      "Ġtooth": 8024,
      "ader": 8025,
      "Ġselection": 8026,
      "Ġallies": 8027,
      "Ġloving": 8028,
      "Ġcole": 8029,
      "Ġperfor": 8030,
      "Ġnortheast": 8031,
      "Ġattached": 8032,
      "joy": 8033,
      "Ġanimated": 8034,
      "Ġsciences": 8035,
      "Ġdiseases": 8036,
      "Ġemotion": 8037,
      "Ġpoetry": 8038,
      "gorith": 8039,
      "Ġincredible": 8040,
      "86": 8041,
      "eenth": 8042,
      "gal": 8043,
      "inations": 8044,
      "orous": 8045,
      "Ġluther": 8046,
      "Ġgig": 8047,
      "Ġbears": 8048,
      "Ġkan": 8049,
      "Ġseized": 8050,
      "teenth": 8051,
      "Ġdisag": 8052,
      "ensity": 8053,
      "Ġzoo": 8054,
      "gold": 8055,
      "Ġinvented": 8056,
      "Ġmedium": 8057,
      "Ġ1966": 8058,
      "Ġawesome": 8059,
      "Ġ1956": 8060,
      "Ġromania": 8061,
      "Ġlux": 8062,
      "Ġprinted": 8063,
      "Ġliberty": 8064,
      "Ġwishes": 8065,
      "Ġacquired": 8066,
      "Ġconfirmed": 8067,
      "Ġslipped": 8068,
      "Ġwriters": 8069,
      "congrat": 8070,
      "Ġprefecture": 8071,
      "bat": 8072,
      "mission": 8073,
      "Ġll": 8074,
      "Ġtool": 8075,
      "icians": 8076,
      "stud": 8077,
      "Ġsear": 8078,
      "Ġupd": 8079,
      "Ġunhappy": 8080,
      "Ġbra": 8081,
      "Ġgrim": 8082,
      "Ġspy": 8083,
      "beat": 8084,
      "plan": 8085,
      "Ġheading": 8086,
      "Ġelimin": 8087,
      "Ġcells": 8088,
      "Ġruined": 8089,
      "Ġconcerns": 8090,
      "Ġeducational": 8091,
      "Ġinvolve": 8092,
      "Ġopposition": 8093,
      "Ġgraduate": 8094,
      "lay": 8095,
      "morning": 8096,
      "tot": 8097,
      "Ïħ": 8098,
      "Ġwins": 8099,
      "Ġms": 8100,
      "Ġmall": 8101,
      "Ġgordon": 8102,
      "Ġstairs": 8103,
      "Ġstern": 8104,
      "Ġalgorith": 8105,
      "Ġconcrete": 8106,
      "agne": 8107,
      "Ġoffering": 8108,
      "cla": 8109,
      "iley": 8110,
      "Ġgreatly": 8111,
      "Ġaccused": 8112,
      "Ġintent": 8113,
      "Ġsoutheast": 8114,
      "Ġblew": 8115,
      "Ġoccupied": 8116,
      "Ġtickets": 8117,
      "Ġdiagn": 8118,
      "Ġinspector": 8119,
      "ãĤ": 8120,
      "Ġsna": 8121,
      "rele": 8122,
      "hah": 8123,
      "Ġfc": 8124,
      "Ġintense": 8125,
      "Ġreaching": 8126,
      "Ġwashed": 8127,
      "Ġalbert": 8128,
      "ummer": 8129,
      "Ġsaving": 8130,
      "ela": 8131,
      "eline": 8132,
      "Ġengines": 8133,
      "Ġscout": 8134,
      "Ġlasted": 8135,
      "Ġwarri": 8136,
      "Ġchess": 8137,
      "Ġcharlie": 8138,
      "Ġdistant": 8139,
      "mean": 8140,
      "Ġeval": 8141,
      "Ġpassenger": 8142,
      "lessly": 8143,
      "Ġservants": 8144,
      "Ġprofit": 8145,
      "Ġtennessee": 8146,
      "Ġwondered": 8147,
      "Ġtreaty": 8148,
      "Ġcompete": 8149,
      "Ġvisitors": 8150,
      "Ġfundament": 8151,
      "Ġjews": 8152,
      "Ġcircuit": 8153,
      "Ġadministrative": 8154,
      "Ġdefinition": 8155,
      "elect": 8156,
      "nik": 8157,
      "à¦": 8158,
      "inction": 8159,
      "Ġsig": 8160,
      "Ġsoph": 8161,
      "Ġsorrow": 8162,
      "Ġwounds": 8163,
      "Ġpiz": 8164,
      "Ġbegged": 8165,
      "Ġrival": 8166,
      "Ġky": 8167,
      "theless": 8168,
      "Ġvain": 8169,
      "osa": 8170,
      "ailed": 8171,
      "Ġchristians": 8172,
      "Ġ1948": 8173,
      "Ġcampus": 8174,
      "Ġarrive": 8175,
      "Ġhosted": 8176,
      "Ġsailing": 8177,
      "Ġsurvived": 8178,
      "Ġprimarily": 8179,
      "Ġcelebrated": 8180,
      "Ġlifted": 8181,
      "Ġrapidly": 8182,
      "Ġconstructed": 8183,
      "ifferent": 8184,
      "41": 8185,
      "uate": 8186,
      "Î±": 8187,
      "Ġtab": 8188,
      "nda": 8189,
      "Ġpip": 8190,
      "lley": 8191,
      "Ġtoler": 8192,
      "Ġtolom": 8193,
      "isen": 8194,
      "Ġhesit": 8195,
      "ication": 8196,
      "leans": 8197,
      "Ġrif": 8198,
      "Ġko": 8199,
      "Ġsemi": 8200,
      "uma": 8201,
      "Ġshield": 8202,
      "Ġusers": 8203,
      "beaut": 8204,
      "Ġlongest": 8205,
      "Ġslip": 8206,
      "Ġinstinct": 8207,
      "Ġlanding": 8208,
      "applause": 8209,
      "Ġmovements": 8210,
      "Ġraven": 8211,
      "Ġ1961": 8212,
      "Ġ1942": 8213,
      "Ġmerged": 8214,
      "Ġprinciples": 8215,
      "Ġprayer": 8216,
      "Ġethnic": 8217,
      "interest": 8218,
      "Ġtolombeh": 8219,
      "97": 8220,
      "nine": 8221,
      "tre": 8222,
      "ui": 8223,
      "inn": 8224,
      "Ġwreck": 8225,
      "Ġbrew": 8226,
      "Ġdal": 8227,
      "Ġdign": 8228,
      "Ġphen": 8229,
      "Ġtokyo": 8230,
      "Ġnonsense": 8231,
      "owed": 8232,
      "Ġalliance": 8233,
      "umin": 8234,
      "Ġbrut": 8235,
      "Ġfever": 8236,
      "Ġoffers": 8237,
      "Ġhart": 8238,
      "Ġreply": 8239,
      "Ġmatthew": 8240,
      "Ġgoddamn": 8241,
      "Ġpassengers": 8242,
      "Ġuniversal": 8243,
      "Ġdivide": 8244,
      "Ġhurts": 8245,
      "english": 8246,
      "Ġ1952": 8247,
      "Ġcompeted": 8248,
      "glass": 8249,
      "Ġtypically": 8250,
      "Ġidentify": 8251,
      "Ġhonestly": 8252,
      "north": 8253,
      "piration": 8254,
      "Ġkilomet": 8255,
      "Ġsample": 8256,
      "44": 8257,
      "Ġpup": 8258,
      "Ġpunch": 8259,
      "weather": 8260,
      "geon": 8261,
      "Ġalien": 8262,
      "Ġconven": 8263,
      "Ġvig": 8264,
      "pelled": 8265,
      "Ġtraged": 8266,
      "Ġlean": 8267,
      "Ġwhoever": 8268,
      "Ġfee": 8269,
      "Ġcod": 8270,
      "Ġyug": 8271,
      "Ġfled": 8272,
      "Ġexpressed": 8273,
      "clear": 8274,
      "ocr": 8275,
      "Ġbills": 8276,
      "Ġcleaning": 8277,
      "Ġprisoner": 8278,
      "Ġfaculty": 8279,
      "Ġglobe": 8280,
      "Ġwednesday": 8281,
      "Ġearliest": 8282,
      "Ġbacter": 8283,
      "Ġdynam": 8284,
      "Ġnearer": 8285,
      "Ġearthquake": 8286,
      "**": 8287,
      "uct": 8288,
      "Ġaz": 8289,
      "Ġbin": 8290,
      "Ġbun": 8291,
      "opher": 8292,
      "uda": 8293,
      "neath": 8294,
      "Ġwrites": 8295,
      "Ġ33": 8296,
      "Ġstudios": 8297,
      "Ġemphas": 8298,
      "Ġdeaths": 8299,
      "Ġesc": 8300,
      "Ġconstantly": 8301,
      "Ġ1962": 8302,
      "uese": 8303,
      "Ġreasonable": 8304,
      "Ġcampbell": 8305,
      "Ġstarring": 8306,
      "Ġausten": 8307,
      "Ġarrival": 8308,
      "Ġdepending": 8309,
      "Ġspecifically": 8310,
      "Ġscholar": 8311,
      "ĠÂ£": 8312,
      "Ġapologize": 8313,
      "Ġdownt": 8314,
      "phew": 8315,
      "fare": 8316,
      "knock": 8317,
      "yu": 8318,
      "ê¯": 8319,
      "erk": 8320,
      "Ġfare": 8321,
      "Ġdash": 8322,
      "esse": 8323,
      "itals": 8324,
      "isbon": 8325,
      "Ġinher": 8326,
      "Ġinches": 8327,
      "Ġlaz": 8328,
      "asp": 8329,
      "verty": 8330,
      "chur": 8331,
      "Ġabst": 8332,
      "Ġaboard": 8333,
      "pei": 8334,
      "Ġproport": 8335,
      "ema": 8336,
      "Ġarmen": 8337,
      "urname": 8338,
      "Ġpreced": 8339,
      "Ġassigned": 8340,
      "Ġ75": 8341,
      "Ġextensive": 8342,
      "Ġvisual": 8343,
      "Ġtelephone": 8344,
      "Ġtemporary": 8345,
      "Ġcounsel": 8346,
      "Ġexception": 8347,
      "Ġrecognition": 8348,
      "Ġfaithful": 8349,
      "Ġpowder": 8350,
      "Ġdelicious": 8351,
      "bac": 8352,
      "boss": 8353,
      "jul": 8354,
      "mis": 8355,
      "rim": 8356,
      "tt": 8357,
      "wal": 8358,
      "instein": 8359,
      "Ġridge": 8360,
      "Ġdock": 8361,
      "abi": 8362,
      "igen": 8363,
      "itts": 8364,
      "whether": 8365,
      "shine": 8366,
      "Ġremote": 8367,
      "Ġshower": 8368,
      "Ġsynd": 8369,
      "Ġfourteen": 8370,
      "tony": 8371,
      "Ġentit": 8372,
      "Ġraj": 8373,
      "Ġmidnight": 8374,
      "Ġintention": 8375,
      "Ġromance": 8376,
      "Ġtroubles": 8377,
      "Ġwooden": 8378,
      "Ġachieved": 8379,
      "Ġroughly": 8380,
      "profess": 8381,
      "Ġreckon": 8382,
      "sweet": 8383,
      "mers": 8384,
      "ww": 8385,
      "Ġip": 8386,
      "ione": 8387,
      "Ġklaus": 8388,
      "Ġjar": 8389,
      "ulpt": 8390,
      "Ġmoz": 8391,
      "Ġorleans": 8392,
      "ordan": 8393,
      "Ġ38": 8394,
      "Ġsydney": 8395,
      "Ġeddie": 8396,
      "Ġobtained": 8397,
      "prom": 8398,
      "Ġgreg": 8399,
      "Ġlessons": 8400,
      "Ġ1958": 8401,
      "Ġmotiv": 8402,
      "Ġbreathe": 8403,
      "Ġimmediate": 8404,
      "Ġchristianity": 8405,
      "Ġextraordinary": 8406,
      "Ġwhispered": 8407,
      "Ġdistributed": 8408,
      "Ġpaintings": 8409,
      "Ġmetropolitan": 8410,
      "congratulations": 8411,
      "dig": 8412,
      "mates": 8413,
      "Ġbore": 8414,
      "edy": 8415,
      "Ġtoy": 8416,
      "istinct": 8417,
      "berry": 8418,
      "Ġroots": 8419,
      "Ġfoc": 8420,
      "ints": 8421,
      "Ġ400": 8422,
      "Ġglance": 8423,
      "Ġproducing": 8424,
      "Ġoffices": 8425,
      "Ġ1946": 8426,
      "Ġpicking": 8427,
      "Ġdestruction": 8428,
      "Ġterrif": 8429,
      "Ġmaryland": 8430,
      "Ġannounce": 8431,
      "Ġgrief": 8432,
      "Ġofficials": 8433,
      "Ġcustomers": 8434,
      "Ġinstruments": 8435,
      "career": 8436,
      "Ġmanufacture": 8437,
      "Ġmuslims": 8438,
      "ghan": 8439,
      "rors": 8440,
      "Ġtum": 8441,
      "Ġsie": 8442,
      "Ġdivers": 8443,
      "itement": 8444,
      "Ġlaughter": 8445,
      "Ġgap": 8446,
      "Ġjess": 8447,
      "Ġlied": 8448,
      "opp": 8449,
      "agu": 8450,
      "Ġmarine": 8451,
      "Ġdisgust": 8452,
      "Ġboyer": 8453,
      "track": 8454,
      "Ġcreative": 8455,
      "Ġpresentation": 8456,
      "Ġresear": 8457,
      "Ġfacilities": 8458,
      "Ġrelationships": 8459,
      "Ġhousing": 8460,
      "Ġpuzz": 8461,
      "Ġpremier": 8462,
      "timore": 8463,
      "Ġincorpor": 8464,
      "hh": 8465,
      "Ġau": 8466,
      "Ġske": 8467,
      "isms": 8468,
      "idency": 8469,
      "Ġreagan": 8470,
      "Ġstall": 8471,
      "iri": 8472,
      "Ġshining": 8473,
      "Ġorphan": 8474,
      "Ġadapt": 8475,
      "Ġcontem": 8476,
      "aware": 8477,
      "grad": 8478,
      "Ġevident": 8479,
      "Ġfacts": 8480,
      "Ġjuice": 8481,
      "Ġ1943": 8482,
      "Ġeighth": 8483,
      "Ġstructures": 8484,
      "Ġperforming": 8485,
      "Ġprotected": 8486,
      "Ġcathedral": 8487,
      "Ġeconomics": 8488,
      "Ġclosing": 8489,
      "Ġfunds": 8490,
      "Ġjerry": 8491,
      "Ġmunicipal": 8492,
      "human": 8493,
      "Ġstorage": 8494,
      "lotte": 8495,
      "bound": 8496,
      "ec": 8497,
      "Ġwax": 8498,
      "Ġcul": 8499,
      "Ġosc": 8500,
      "Ġhou": 8501,
      "icut": 8502,
      "lete": 8503,
      "Ġitem": 8504,
      "illustration": 8505,
      "Ġsoap": 8506,
      "olas": 8507,
      "Ġbrus": 8508,
      "Ġspaces": 8509,
      "aved": 8510,
      "Ġpoem": 8511,
      "Ġfactors": 8512,
      "Ġproviding": 8513,
      "Ġcreatures": 8514,
      "Ġbabies": 8515,
      "Ġcatal": 8516,
      "Ġgradually": 8517,
      "Ġcompanion": 8518,
      "charles": 8519,
      "Ġessential": 8520,
      "personal": 8521,
      "jour": 8522,
      "lat": 8523,
      "pay": 8524,
      "sus": 8525,
      "sounds": 8526,
      "xx": 8527,
      "âĤ": 8528,
      "anth": 8529,
      "Ġbend": 8530,
      "Ġprices": 8531,
      "Ġharmon": 8532,
      "Ġwarn": 8533,
      "coll": 8534,
      "Ġexposed": 8535,
      "Ġ1938": 8536,
      "Ġamounts": 8537,
      "Ġboring": 8538,
      "Ġsearching": 8539,
      "Ġconsiderable": 8540,
      "Ġcelebrate": 8541,
      "Ġfarmers": 8542,
      "Ġtalent": 8543,
      "Ġvacation": 8544,
      "school": 8545,
      "Ġdocumentary": 8546,
      "Ġbangladesh": 8547,
      "jun": 8548,
      "nar": 8549,
      "Ġack": 8550,
      "Ġsi": 8551,
      "Ġcure": 8552,
      "Ġdum": 8553,
      "ori": 8554,
      "itter": 8555,
      "isation": 8556,
      "Ġlind": 8557,
      "Ġego": 8558,
      "imet": 8559,
      "Ġseas": 8560,
      "Ġexists": 8561,
      "Ġchin": 8562,
      "Ġwayne": 8563,
      "Ġdecre": 8564,
      "Ġdecent": 8565,
      "Ġsteven": 8566,
      "Ġelsewhere": 8567,
      "lloyd": 8568,
      "Ġpanama": 8569,
      "Ġshouting": 8570,
      "Ġrarely": 8571,
      "83": 8572,
      "town": 8573,
      "zard": 8574,
      "Ġtwe": 8575,
      "Ġmack": 8576,
      "Ġstraw": 8577,
      "Ġwhit": 8578,
      "Ġdode": 8579,
      "Ġabd": 8580,
      "Ġunfortunately": 8581,
      "Ġpear": 8582,
      "Ġpeas": 8583,
      "Ġrolled": 8584,
      "lfare": 8585,
      "Ġsculpt": 8586,
      "ulle": 8587,
      "Ġ46": 8588,
      "Ġsecondary": 8589,
      "Ġassass": 8590,
      "Ġparam": 8591,
      "century": 8592,
      "Ġspeaks": 8593,
      "Ġ1959": 8594,
      "Ġjudges": 8595,
      "species": 8596,
      "Ġrepresenting": 8597,
      "Ġstatue": 8598,
      "Ġlinked": 8599,
      "Ġliberal": 8600,
      "Ġmanipur": 8601,
      "Ġcontrast": 8602,
      "Ġagricultural": 8603,
      "Ġdivorced": 8604,
      "Ġvietnam": 8605,
      "Ġlifetime": 8606,
      "Ġgravity": 8607,
      "Ġexecution": 8608,
      "Ġrugby": 8609,
      "Ġphenom": 8610,
      "lon": 8611,
      "nan": 8612,
      "oft": 8613,
      "rous": 8614,
      "Ġsession": 8615,
      "hab": 8616,
      "Ġbald": 8617,
      "aro": 8618,
      "Ġisol": 8619,
      "Ġrust": 8620,
      "Ġallied": 8621,
      "Ġwheat": 8622,
      "resents": 8623,
      "Ġ(_": 8624,
      "pering": 8625,
      "Ġserves": 8626,
      "pless": 8627,
      "Ġcounting": 8628,
      "Ġreco": 8629,
      "Ġrecove": 8630,
      "Ġhollow": 8631,
      "Ġrepresents": 8632,
      "Ġpoland": 8633,
      "Ġmonitor": 8634,
      "pected": 8635,
      "Ġinterior": 8636,
      "Ġsixteen": 8637,
      "Ġelectronic": 8638,
      "Ġlads": 8639,
      "Ġsweetheart": 8640,
      "Ġholes": 8641,
      "Ġintroduction": 8642,
      "Ġinjuries": 8643,
      "Ġnapole": 8644,
      "Ġclause": 8645,
      "Ġturkish": 8646,
      "Ġrecovered": 8647,
      "bie": 8648,
      "iop": 8649,
      "lson": 8650,
      "rus": 8651,
      "Ġsally": 8652,
      "Ġmes": 8653,
      "Ġincl": 8654,
      "Ġny": 8655,
      "Ġned": 8656,
      "idering": 8657,
      "gel": 8658,
      "Ġsup": 8659,
      "Ġusa": 8660,
      "aku": 8661,
      "Ġbrah": 8662,
      "Ġyan": 8663,
      "Ġspark": 8664,
      "Ġhanded": 8665,
      "Ġdistract": 8666,
      "Ġinvent": 8667,
      "Ġvoc": 8668,
      "Ġcontinent": 8669,
      "Ġtermin": 8670,
      "Ġjudgment": 8671,
      "Ġlimits": 8672,
      "Ġsandy": 8673,
      "Ġsuffolk": 8674,
      "Ġconducted": 8675,
      "Ġsurrounding": 8676,
      "Ġoccasionally": 8677,
      "Ġaccompan": 8678,
      "Ġfierce": 8679,
      "ugh": 8680,
      "Ġtune": 8681,
      "Ġaired": 8682,
      "Ġsor": 8683,
      "Ġfetch": 8684,
      "Ġpardon": 8685,
      "Ġtoss": 8686,
      "armed": 8687,
      "left": 8688,
      "Ġrude": 8689,
      "ouses": 8690,
      "Ġcloth": 8691,
      "Ġscrap": 8692,
      "aux": 8693,
      "Ġholl": 8694,
      "govern": 8695,
      "Ġfarther": 8696,
      "Ġcalend": 8697,
      "Ġpurple": 8698,
      "Ġadvis": 8699,
      "Ġtremend": 8700,
      "Ġsolar": 8701,
      "Ġ1949": 8702,
      "Ġoppon": 8703,
      "Ġdamaged": 8704,
      "Ġrequires": 8705,
      "alda": 8706,
      "Ġmorgan": 8707,
      "Ġmilitia": 8708,
      "Ġexisted": 8709,
      "Ġshops": 8710,
      "iffs": 8711,
      "Ġthrowing": 8712,
      "Ġconnecticut": 8713,
      "Ġleadership": 8714,
      "Ġportuguese": 8715,
      "Ġmoore": 8716,
      "):": 8717,
      "chat": 8718,
      "mem": 8719,
      "nels": 8720,
      "wed": 8721,
      "ÂĿ": 8722,
      "Ġtiss": 8723,
      "icing": 8724,
      "aya": 8725,
      "Ġsector": 8726,
      "Ġneat": 8727,
      "osure": 8728,
      "Ġplates": 8729,
      "Ġwhereas": 8730,
      "Ġ55": 8731,
      "Ġglory": 8732,
      "Ġcolony": 8733,
      "Ġbarn": 8734,
      "Ġpayment": 8735,
      "Ġprominent": 8736,
      "cham": 8737,
      "ports": 8738,
      "guard": 8739,
      "Ġcrystal": 8740,
      "Ġrobber": 8741,
      "ovic": 8742,
      "Ġhence": 8743,
      "Ġsafely": 8744,
      "Ġacademic": 8745,
      "Ġtaipei": 8746,
      "Ġvessel": 8747,
      "Ġbarely": 8748,
      "Ġagriculture": 8749,
      "Ġdowntown": 8750,
      "'?": 8751,
      "bull": 8752,
      "hope": 8753,
      "wild": 8754,
      "Â¶": 8755,
      "inburgh": 8756,
      "Ġcamb": 8757,
      "Ġdwell": 8758,
      "Ġdale": 8759,
      "orf": 8760,
      "itage": 8761,
      "vet": 8762,
      "Ġwelfare": 8763,
      "stit": 8764,
      "theastern": 8765,
      "Ġseated": 8766,
      "olve": 8767,
      "ersen": 8768,
      "emed": 8769,
      "Ġdownstairs": 8770,
      "Ġguid": 8771,
      "Ġcontaining": 8772,
      "Ġrecover": 8773,
      "leton": 8774,
      "grace": 8775,
      "Ġgovernments": 8776,
      "Ġfunctions": 8777,
      "Ġmusicians": 8778,
      "Ġparticles": 8779,
      "Ġvisible": 8780,
      "umbling": 8781,
      "Ġimmig": 8782,
      "Ġabsence": 8783,
      "Ġsweetie": 8784,
      "fficiency": 8785,
      "Ġaccounts": 8786,
      "Ġbags": 8787,
      "Ġdunno": 8788,
      "Ġretirement": 8789,
      "Ġenormous": 8790,
      "46": 8791,
      "?'": 8792,
      "eve": 8793,
      "home": 8794,
      "Ġtherap": 8795,
      "Ġwoke": 8796,
      "ndered": 8797,
      "orious": 8798,
      "Ġtoast": 8799,
      "Ġhood": 8800,
      "almost": 8801,
      "Ġthom": 8802,
      "Ġemma": 8803,
      "Ġratt": 8804,
      "Ġforbid": 8805,
      "ilst": 8806,
      "Ġabroad": 8807,
      "ums": 8808,
      "ifer": 8809,
      "iped": 8810,
      "Ġworker": 8811,
      "Ġperce": 8812,
      "Ġperspective": 8813,
      "Ġinsist": 8814,
      "expl": 8815,
      "Ġcontrols": 8816,
      "Ġpresently": 8817,
      "Ġaustrian": 8818,
      "Ġ1939": 8819,
      "Ġcondens": 8820,
      "strong": 8821,
      "Ġsarhad": 8822,
      "Ġutter": 8823,
      "Ġattempted": 8824,
      "Ġseventeen": 8825,
      "Ġbehalf": 8826,
      "Ġclimb": 8827,
      "Ġprotestant": 8828,
      "Ġproposal": 8829,
      "Ġcaval": 8830,
      "hop": 8831,
      "iors": 8832,
      "ln": 8833,
      "mant": 8834,
      "Ġbry": 8835,
      "Ġgorge": 8836,
      "Ġkerm": 8837,
      "stream": 8838,
      "rill": 8839,
      "Ġalarm": 8840,
      "Ġcance": 8841,
      "ques": 8842,
      "Ġtram": 8843,
      "feld": 8844,
      "aste": 8845,
      "Ġshares": 8846,
      "Ġunderneath": 8847,
      "shoot": 8848,
      "Ġsecrets": 8849,
      "Ġinstantly": 8850,
      "rett": 8851,
      "uccess": 8852,
      "Ġlaure": 8853,
      "Ġvoy": 8854,
      "Ġsounded": 8855,
      "Ġhoriz": 8856,
      "Ġstaring": 8857,
      "Ġtempt": 8858,
      "Ġcreep": 8859,
      "Ġpanel": 8860,
      "Ġmistakes": 8861,
      "Ġhopes": 8862,
      "Ġdifficulties": 8863,
      "Ġfellows": 8864,
      "Ġbattery": 8865,
      "Ġinfluenced": 8866,
      "Ġgallery": 8867,
      "Ġmurderer": 8868,
      "Ġyugoslav": 8869,
      "bul": 8870,
      "cs": 8871,
      "card": 8872,
      "eks": 8873,
      "los": 8874,
      "occ": 8875,
      "yt": 8876,
      "Ġaston": 8877,
      "Ġsult": 8878,
      "erick": 8879,
      "hara": 8880,
      "Ġpants": 8881,
      "Ġnas": 8882,
      "Ġhare": 8883,
      "uted": 8884,
      "Ġvoted": 8885,
      "Ġshed": 8886,
      "Ġadjust": 8887,
      "Ġscare": 8888,
      "Ġkelly": 8889,
      "Ġslaves": 8890,
      "Ġcleared": 8891,
      "Ġstopping": 8892,
      "boys": 8893,
      "Ġfiles": 8894,
      "Ġequally": 8895,
      "Ġbands": 8896,
      "Ġlords": 8897,
      "Ġimagination": 8898,
      "Ġsensitive": 8899,
      "Ġdetermine": 8900,
      "Ġapplications": 8901,
      "Ġsequence": 8902,
      "Ġhindu": 8903,
      "Ġanxious": 8904,
      "Ġfeathers": 8905,
      "Ġtragedy": 8906,
      "Ġfocused": 8907,
      "lah": 8908,
      "rine": 8909,
      "sky": 8910,
      "Ġsul": 8911,
      "Ġwoo": 8912,
      "ouch": 8913,
      "onso": 8914,
      "Ġcage": 8915,
      "Ġloo": 8916,
      "Ġgon": 8917,
      "otion": 8918,
      "acement": 8919,
      "geography": 8920,
      "arte": 8921,
      "Ġheritage": 8922,
      "Ġsauce": 8923,
      "Ġtrunk": 8924,
      "Ġclark": 8925,
      "Ġseeking": 8926,
      "Ġcompass": 8927,
      "Ġscary": 8928,
      "Ġscots": 8929,
      "Ġdismiss": 8930,
      "Ġflav": 8931,
      "Ġreprodu": 8932,
      "Ġconscience": 8933,
      "cock": 8934,
      "iolet": 8935,
      "Ġlightning": 8936,
      "Ġdrift": 8937,
      "Ġapproaching": 8938,
      "Ġtitles": 8939,
      "Ġbaltimore": 8940,
      "Ġsoftly": 8941,
      "believe": 8942,
      "Ġadmiral": 8943,
      "Ġtransferred": 8944,
      "jimmy": 8945,
      "Ġstroke": 8946,
      "Ġresistance": 8947,
      "Ġcomponents": 8948,
      "Ġequivalent": 8949,
      "eyes": 8950,
      "las": 8951,
      "Ġsaints": 8952,
      "Ġsurname": 8953,
      "Ġib": 8954,
      "Ġbike": 8955,
      "Ġmild": 8956,
      "Ġdall": 8957,
      "Ġandy": 8958,
      "ayan": 8959,
      "Ġri": 8960,
      "send": 8961,
      "kee": 8962,
      "term": 8963,
      "ulating": 8964,
      "ifted": 8965,
      "Ġcomr": 8966,
      "Ġhers": 8967,
      "Ġchile": 8968,
      "Ġchips": 8969,
      "Ġcovid": 8970,
      "Ġrolling": 8971,
      "ĠyÎ¿u": 8972,
      "Ġpoverty": 8973,
      "Ġreserv": 8974,
      "Ġentering": 8975,
      "Ġskill": 8976,
      "cribed": 8977,
      "Ġcraft": 8978,
      "Ġappearances": 8979,
      "Ġqueens": 8980,
      "Ġnavig": 8981,
      "Ġremarkable": 8982,
      "Ġlandscape": 8983,
      "Ġconfirm": 8984,
      "Ġmathematics": 8985,
      "Ġthirteen": 8986,
      "sudden": 8987,
      "Ġbavaria": 8988,
      ".!": 8989,
      "67": 8990,
      "jin": 8991,
      "nand": 8992,
      "tur": 8993,
      "Ġtut": 8994,
      "Ġnay": 8995,
      "icap": 8996,
      "Ġease": 8997,
      "Ġrejo": 8998,
      "Ġseeds": 8999,
      "Ġgolf": 9000,
      "Ġfranch": 9001,
      "ules": 9002,
      "Ġcomments": 9003,
      "Ġexcess": 9004,
      "Ġbru": 9005,
      "Ġbrick": 9006,
      "nell": 9007,
      "itei": 9008,
      "Ġ39": 9009,
      "Ġkevin": 9010,
      "grim": 9011,
      "conf": 9012,
      "Ġpatrick": 9013,
      "Ġrefers": 9014,
      "Ġphilip": 9015,
      "Ġexcitement": 9016,
      "Ġferry": 9017,
      "culiar": 9018,
      "Ġfeeding": 9019,
      "martin": 9020,
      "Ġsacrifice": 9021,
      "Ġentitled": 9022,
      "fair": 9023,
      "mitted": 9024,
      "uits": 9025,
      "wi": 9026,
      "Ä±": 9027,
      "Ġ+": 9028,
      "Ġmask": 9029,
      "Ġmamm": 9030,
      "Ġdump": 9031,
      "Ġvamp": 9032,
      "quest": 9033,
      "feel": 9034,
      "Ġeveryday": 9035,
      "Ġcarn": 9036,
      "Ġcarriage": 9037,
      "Ġsteady": 9038,
      "Ġ65": 9039,
      "Ġcurtain": 9040,
      "Ġkidna": 9041,
      "Ġpenny": 9042,
      "Ġluke": 9043,
      "Ġquarters": 9044,
      "Ġdemanded": 9045,
      "Ġsynthe": 9046,
      "Ġarrangement": 9047,
      "Ġexpanded": 9048,
      "Ġconsciousness": 9049,
      "aah": 9050,
      "bir": 9051,
      "bian": 9052,
      "mc": 9053,
      "mu": 9054,
      "oons": 9055,
      "uine": 9056,
      "yon": 9057,
      "Ġcable": 9058,
      "Ġmast": 9059,
      "atoes": 9060,
      "lex": 9061,
      "Ġrip": 9062,
      "imag": 9063,
      "Ġja": 9064,
      "olis": 9065,
      "Ġvary": 9066,
      "quiao": 9067,
      "ahn": 9068,
      "Ġchor": 9069,
      "Ġrollo": 9070,
      "Ġadams": 9071,
      "Ġresident": 9072,
      "psy": 9073,
      "grat": 9074,
      "grunts": 9075,
      "othy": 9076,
      "âĻ«": 9077,
      "Ġdecades": 9078,
      "Ġaccord": 9079,
      "Ġstead": 9080,
      "ifications": 9081,
      "Ġtribut": 9082,
      "Ġsilk": 9083,
      "Ġradiation": 9084,
      "Ġsuccessfully": 9085,
      "Ġeffectively": 9086,
      "Ġworthy": 9087,
      "Ġsharks": 9088,
      "Ġphilosopher": 9089,
      "Ġambass": 9090,
      "Ġtailor": 9091,
      "Ġrevenue": 9092,
      "Ġbeliefs": 9093,
      "Ġstretched": 9094,
      "family": 9095,
      "Ġsubsequently": 9096,
      "Ġasshole": 9097,
      "ees": 9098,
      "giving": 9099,
      "si": 9100,
      "sister": 9101,
      "taking": 9102,
      "vd": 9103,
      "Ġtas": 9104,
      "Ġgulf": 9105,
      "Ġrebell": 9106,
      "rogen": 9107,
      "rians": 9108,
      "ivals": 9109,
      "neither": 9110,
      "ishna": 9111,
      "Ġjoining": 9112,
      "Ġfinishing": 9113,
      "Ġfollowers": 9114,
      "Ġgear": 9115,
      "Ġ1937": 9116,
      "Ġeducated": 9117,
      "Ġversus": 9118,
      "Ġmeantime": 9119,
      "Ġbleeding": 9120,
      "Ġattracted": 9121,
      "natural": 9122,
      "Ġclouds": 9123,
      "Ġscarcely": 9124,
      "Ġdistinguished": 9125,
      "main": 9126,
      "Ġtide": 9127,
      "Ġslyne": 9128,
      "Ġoath": 9129,
      "Ġinput": 9130,
      "Ġgle": 9131,
      "omon": 9132,
      "stick": 9133,
      "Ġnephew": 9134,
      "Ġnelson": 9135,
      "ainted": 9136,
      "Ġconclusion": 9137,
      "Ġsheriff": 9138,
      "Ġprosecut": 9139,
      "Ġmanif": 9140,
      "close": 9141,
      "Ġscan": 9142,
      "Ġjohan": 9143,
      "Ġwarrant": 9144,
      "Ġmonk": 9145,
      "cover": 9146,
      "Ġsouthwest": 9147,
      "prot": 9148,
      "holy": 9149,
      "Ġrefuse": 9150,
      "Ġ1957": 9151,
      "Ġcopper": 9152,
      "Ġfairies": 9153,
      "Ġtechniques": 9154,
      "lights": 9155,
      "Ġlaughs": 9156,
      "Ġbelonged": 9157,
      "Ġemployed": 9158,
      "Ġultimately": 9159,
      "ladies": 9160,
      "Ġaspects": 9161,
      "Ġwithdraw": 9162,
      "japan": 9163,
      "kur": 9164,
      "race": 9165,
      "tem": 9166,
      "zed": 9167,
      "intern": 9168,
      "Ġsack": 9169,
      "Ġig": 9170,
      "Ġborders": 9171,
      "Ġming": 9172,
      "Ġpushing": 9173,
      "Ġinject": 9174,
      "Ġhamp": 9175,
      "irm": 9176,
      "Ġmeitei": 9177,
      "roid": 9178,
      "Ġdoc": 9179,
      "Ġtramp": 9180,
      "Ġdisorder": 9181,
      "ailing": 9182,
      "grunting": 9183,
      "Ġsurvey": 9184,
      "Ġinsane": 9185,
      "Ġobst": 9186,
      "true": 9187,
      "Ġ170": 9188,
      "Ġmagnet": 9189,
      "seriously": 9190,
      "Ġpenins": 9191,
      "post": 9192,
      "Ġaffili": 9193,
      "Ġfoolish": 9194,
      "Ġbroadcasting": 9195,
      "Ġcitizen": 9196,
      "Ġdisappointed": 9197,
      "Ġintellectual": 9198,
      "Ġacknow": 9199,
      "57": 9200,
      "98": 9201,
      "cular": 9202,
      "hill": 9203,
      "Ġtin": 9204,
      "Ġtaylor": 9205,
      "Ġpump": 9206,
      "Ġlav": 9207,
      "Ġgam": 9208,
      "Ġgently": 9209,
      "Ġnag": 9210,
      "Ġstack": 9211,
      "Ġjos": 9212,
      "Ġjordan": 9213,
      "thus": 9214,
      "Ġshots": 9215,
      "Ġfeared": 9216,
      "Ġensure": 9217,
      "Ġdisaster": 9218,
      "Ġcares": 9219,
      "Ġbreed": 9220,
      "Ġexpans": 9221,
      "Ġvegas": 9222,
      "zech": 9223,
      "Ġtreas": 9224,
      "Ġfoods": 9225,
      "uki": 9226,
      "Ġbroadway": 9227,
      "Ġpanic": 9228,
      "Ġstrip": 9229,
      "Ġshark": 9230,
      "Ġfrogs": 9231,
      "Ġcombat": 9232,
      "Ġroutes": 9233,
      "Ġprimitive": 9234,
      "Ġbachel": 9235,
      "Ġhawaii": 9236,
      "Ġprocedure": 9237,
      "Ġsurrender": 9238,
      "Ġphilippines": 9239,
      "Ġestimated": 9240,
      "Ġnegoti": 9241,
      "Ġanchor": 9242,
      "Ġabstract": 9243,
      "!!": 9244,
      "buck": 9245,
      "bby": 9246,
      "hog": 9247,
      "vict": 9248,
      "Ġtales": 9249,
      "Ġdirt": 9250,
      "Ġkon": 9251,
      "Ġknee": 9252,
      "urg": 9253,
      "Ġsho": 9254,
      "ements": 9255,
      "udi": 9256,
      "Ġcourses": 9257,
      "Ġearl": 9258,
      "brand": 9259,
      "Ġenthus": 9260,
      "Ġlighthouse": 9261,
      "Ġbarr": 9262,
      "max": 9263,
      "Ġrefu": 9264,
      "Ġorganic": 9265,
      "Ġprogramming": 9266,
      "Ġcolleagues": 9267,
      "guys": 9268,
      "Ġdaisy": 9269,
      "Ġcultiv": 9270,
      "Ġmistress": 9271,
      "Ġfacing": 9272,
      "Ġinstitutions": 9273,
      "Ġbriefly": 9274,
      "Ġcasual": 9275,
      "Ġtranslation": 9276,
[...]
